#version: 0.2
t h
Ġ th
Ġ a
i n
o n
Ġth e
e r
t i
Ġ s
r e
Ġ o
m a
e n
Ġ c
Ġ ,
Ġ Ġ
Ġ f
Ġ p
Ġ .
a l
Ġo f
i s
Ġ w
Ġ in
e s
ti on
Ġ d
Ġ t
o r
e d
Ġ b
a t
ma th
a r
x math
n d
Ġ @
a n
r o
i t
Ġ e
in g
i c
Ġ m
l e
Ġa nd
Ġ -
Ġ re
Ġt o
Ġ l
en t
e l
Ġ n
a tion
c t
Ġ h
a s
Ġ g
Ġ is
u l
Ġs t
e t
s t
r a
Ġf or
o m
Ġ _
Ġ )
ti c
l y
s i
u r
Ġw i
o l
v e
Ġ (
Ġc on
Ġ ma
u s
Ġw e
c e
i m
o w
i g
q u
Ġwi th
Ġe x
u m
o d
Ġp ro
c h
Ġ on
Ġth at
Ġa n
Ġb e
Ġ v
t er
Ġw h
a m
p er
it y
r i
u n
c tion
u re
Ġa s
Ġs p
e m
i l
o s
e ct
Ġa re
o t
u t
Ġb y
i f
Ġd e
Ġa l
at e
Ġa t
Ġs u
v er
i d
p l
g e
re s
Ġd is
Ġc om
i r
Ġp h
Ġth is
Ġs h
Ġm od
it e
Ġre s
ation s
a b
Ġ 1
an t
u nd
ic al
Ġp ar
Ġo r
s e
Ġm e
Ġ qu
en er
ro m
Ġc o
d i
r an
Ġc h
ig h
si on
Ġcom p
l u
Ġo b
Ġn e
Ġf rom
i z
Ġ ra
Ġ *
Ġs e
ic h
p p
t s
Ġ k
y s
Ġ us
Ġs y
at ed
en ce
o c
Ġmod el
Ġwh ich
d u
Ġ 2
Ġ it
ĠĠ Ġ
x c
w e
c es
xc ite
Ġin ter
f f
u tion
r on
Ġc an
Ġ r
Ġ ]
a ti
d er
i es
m ent
o re
in e
a ve
er e
tic al
a in
o p
as e
d s
a c
ma l
Ġs c
Ġ :
Ġf i
i on
f er
Ġ un
g n
Ġsh ow
Ġ le
el l
d e
er m
a ct
er s
ri b
s s
Ġ [
b le
Ġt w
g y
a nd
s er
Ġsy st
Ġcon t
Ġt ran
r u
en s
ti m
Ġres ul
en d
Ġtw o
Ġin t
v el
Ġa c
at es
Ġ ener
a d
at ure
Ġe v
Ġfi el
Ġsyst em
le ct
Ġd if
Ġs im
e c
Ġa pp
Ġp res
Ġob ser
Ġc or
Ġe ff
o us
Ġf in
Ġb o
th er
ar i
ti al
Ġd i
Ġd et
Ġp o
Ġ j
ar y
es t
ti es
a k
Ġ i
p h
Ġobser v
Ġc l
Ġp er
a y
Ġ +
v i
or t
et r
Ġn ot
p le
Ġ tim
Ġdis t
Ġh ave
Ġp re
Ġa b
0 0
un ction
Ġener gy
Ġ im
Ġthe se
l ow
ab le
u p
a ce
ul ar
Ġre l
Ġn on
Ġp l
Ġm o
Ġh igh
Ġb et
a x
Ġin c
Ġma gn
o g
igh t
Ġn um
Ġo ur
Ġfiel d
a p
i v
Ġg al
Ġsp ect
ti ve
ma tion
s o
u d
is t
Ġe qu
Ġf unction
Ġon e
f or
Ġst ar
Ġal so
we en
Ġbet ween
Ġs o
Ġdif fer
Ġan al
Ġma ss
t ain
ol ution
Ġe lect
an ce
a ch
u e
ig n
Ġre g
ru ct
Ġo p
Ġst ate
1 0
Ġf ig
y n
ic s
Ġresul ts
Ġg ener
Ġpar tic
Ġl ar
Ġph ys
d ing
Ġp a
Ġde p
Ġc al
Ġdis c
Ġme as
Ġex p
Ġtim e
Ġqu ant
Ġwh ere
ent s
Ġe m
Ġc ol
re e
Ġquant um
e tic
al ly
b er
v es
Ġv al
es s
rib ution
Ġgal ax
Ġmeas ure
Ġh as
yn am
Ġa r
si tion
Ġor der
a g
Ġsc al
os e
Ġapp ro
il ity
Ġtran s
or y
Ġa d
Ġac c
g h
Ġd at
Ġus ing
Ġl ow
am et
Ġpres ent
Ġsp in
Ġ ro
or k
c ed
en tial
ces s
l l
es c
Ġcon st
c on
Ġex per
or s
Ġph ase
Ġ 3
Ġ en
Ġdat a
Ġg ra
Ġpar amet
t e
b it
Ġra di
Ġt em
c ul
Ġcor re
a ction
Ġ 0
Ġde c
on g
Ġexper im
Ġch ar
Ġex t
Ġl ine
a re
ens ity
Ġn o
m m
ac k
Ġsu per
Ġs ur
Ġsu ch
Ġim p
en sion
Ġre p
Ġth an
iz ation
ati ve
Ġb as
ar d
d ic
Ġ y
Ġf o
Ġeff ect
Ġs am
Ġfor m
Ġst ruct
u gh
Ġv ari
Ġma t
Ġg ro
Ġs ign
at ing
an g
s c
t ed
di tion
r al
Ġl i
Ġtem per
y p
Ġtemper ature
Ġob tain
Ġ z
Ġst ates
Ġcal cul
Ġc ur
Ġsu b
Ġd o
l es
Ġas s
el y
Ġf ir
iz ed
u pl
Ġme th
Ġph ot
Ġl oc
Ġstruct ure
re n
Ġlar ge
Ġv er
as s
Ġd ensity
v id
Ġd ynam
i al
Ġmeth od
t ing
1 1
al l
Ġre c
v ity
Ġst ud
Ġ und
om e
Ġf lu
Ġ ;
Ġfir st
c y
Ġinter action
lu st
Ġstud y
Ġmagn etic
Ġelect ron
u c
im ension
t on
Ġal l
Ġbe en
Ġf e
Ġco upl
Ġdiffer ent
Ġit s
mm etr
Ġdist ribution
at ter
Ġm ore
si der
Ġthe re
Ġo ut
Ġpro p
Ġh ow
Ġbo th
p on
Ġcon sider
Ġs ing
Ġund er
Ġpro per
Ġdep end
ol ar
1 2
in ed
Ġ #
Ġw ell
m s
Ġsim ul
Ġne w
Ġfin d
mal l
Ġo ver
if ic
Ġd imension
Ġ x
Ġs mall
Ġgalax ies
ab ility
il l
ul d
Ġt yp
in t
Ġd esc
Ġthe ory
i ed
Ġa m
Ġh e
Ġl im
Ġ up
Ġex pl
Ġnum ber
ect ed
Ġun i
Ġlim it
Ġthe ir
Ġon ly
ron g
g th
ment s
Ġtran sition
Ġwh en
Ġ `
Ġexperim ent
Ġmodel s
is sion
Ġ '
Ġsystem s
ic i
e v
i le
ar k
Ġst rong
on s
Ġc ase
Ġobserv ed
Ġp os
uc le
k e
i b
Ġo ther
Ġf ra
a ge
Ġb ut
as es
Ġ ran
Ġbas ed
Ġg iv
Ġcorre l
ma n
as t
du ced
Ġreg ion
Ġc lust
Ġin f
a us
e ar
Ġpro cess
Ġdisc us
ch an
Ġgener al
Ġbo und
Ġab o
vel y
Ġt erm
Ġf re
r ic
Ġn ucle
Ġs et
p ar
Ġsp ace
is e
Ġ if
Ġcon s
r in
i an
Ġp ot
x i
Ġ \
o le
Ġa g
Ġ 4
j ect
ation al
Ġint o
ver s
Ġpl an
Ġsing le
Ġ es
qu en
Ġm ul
o v
Ġpro vid
Ġa p
Ġpot ential
Ġex c
p tion
u b
Ġproper ties
Ġcomp le
Ġloc al
Ġne ut
er ical
Ġt ra
Ġdet erm
Ġanal ys
ol og
Ġf act
w ork
Ġso ur
1 3
Ġw as
a il
p t
Ġde f
Ġcol l
Ġus ed
Ġfo und
Ġb l
Ġma y
Ġpos si
u st
Ġs ome
Ġthe ore
Ġcon f
Ġdi re
Ġma n
Ġmul ti
Ġc ent
Ġw ave
is tic
Ġcoupl ing
f ace
Ġcl ass
u es
iz e
ro p
ow n
a v
Ġop tical
Ġobtain ed
Ġdiscus s
du ct
Ġ q
Ġra y
Ġstar s
Ġinc re
Ġv i
Ġl in
Ġ id
Ġap pl
Ġ' '
Ġ` `
Ġanal y
Ġ2 0
Ġl at
r y
ti g
Ġinc lu
Ġd er
Ġbe c
at or
Ġd ue
Ġdesc rib
ro und
Ġran ge
res pon
Ġpro b
Ġ /
Ġcor respon
Ġ2 00
i p
Ġat om
re d
Ġ =
Ġpro ble
si ve
Ġem ission
ent ly
ves tig
Ġshow n
Ġpre dic
Ġin vestig
st r
Ġanalys is
a vi
Ġappro ach
Ġus e
u al
Ġbe h
g er
Ġth ree
Ġm om
Ġt e
Ġev olution
Ġs olution
olog ical
for mation
Ġin de
Ġfre quen
Ġwi ll
it u
Ġes ti
o un
Ġsy mmetr
g es
e ver
Ġs ch
Ġs ol
ti f
Ġ ent
is h
Ġparamet ers
u di
Ġ 5
Ġk n
th e
a u
Ġp ow
Ġh ere
Ġsu pp
res s
Ġpa per
act er
Ġst udi
Ġnum erical
Ġh y
1 4
ec tive
Ġb and
f t
Ġl ight
l o
Ġver y
Ġhow ever
Ġme an
ur b
Ġ1 9
Ġgiv en
1 5
om etr
o ver
ro ss
Ġappro xi
Ġe q
Ġp olar
Ġcon dition
Ġchar acter
n el
o uld
Ġthe r
Ġpo int
Ġne ar
Ġthe n
Ġwh ile
Ġm et
Ġparamet er
Ġl ong
Ġch an
Ġdynam ics
Ġsp ec
os ed
Ġsur face
tic e
ren t
ra c
r um
Ġsc atter
en gth
ro ugh
ti t
Ġscal e
Ġ1 0
Ġpow er
Ġline ar
Ġcons ist
Ġe ach
Ġre al
e ction
Ġeffect s
Ġexc it
Ġf erm
Ġdimension al
Ġres p
Ġex am
Ġbeh avi
Ġm in
Ġmo st
Ġwith in
er o
oc i
ati s
Ġab s
Ġle vel
2 0
Ġth rough
m ed
c c
Ġsam e
Ġval ue
Ġmom ent
Ġme chan
Ġspect rum
Ġf ol
Ġc ar
Ġal low
Ġ 6
al s
Ġval ues
Ġn et
Ġesti ma
Ġw ork
Ġpartic ular
ti vity
Ġcon c
Ġpartic le
Ġo per
Ġv el
Ġin v
n i
Ġto p
ion s
Ġres on
Ġobserv ations
e p
Ġf l
du ction
Ġfor mation
Ġequ ation
ver se
Ġor bit
Ġresul t
Ġr ate
Ġsim il
ell ar
Ġg as
Ġdif f
Ġre f
Ġcomp ut
Ġtyp e
i ve
en si
Ġsu g
Ġt ak
Ġm on
Ġass um
Ġcur rent
Ġcomp on
Ġper for
Ġan g
Ġexperiment al
Ġsign ific
or mal
Ġphys ics
Ġc os
ical ly
i x
Ġsimil ar
Ġin i
Ġuni vers
Ġcomp are
con d
m e
v ed
Ġre v
Ġmat ter
itu de
tical ly
Ġan y
Ġnet work
i od
vi ous
Ġpa ir
Ġfin ite
a ys
l ed
Ġproble m
Ġl o
a w
Ġfrequen cy
e g
Ġlat tice
e x
um in
le ment
Ġpossi ble
Ġcos m
Ġc ross
Ġin dic
Ġse cond
Ġra ti
Ġscatter ing
1 6
le c
Ġgro up
Ġfol low
Ġde g
Ġgalax y
Ġb in
Ġthe y
Ġconst ant
Ġsignific ant
Ġp ul
Ġclust er
or i
Ġi ma
h er
Ġphot on
Ġper iod
Ġte ch
Ġsimul ations
Ġterm s
en e
Ġid en
Ġdis k
ction s
in ts
Ġeff ective
ri tical
Ġ er
Ġ &
p end
Ġse e
in u
ct u
Ġqu as
Ġle t
o ur
Ġgra ph
Ġg e
Ġ 8
ma in
Ġimp ort
Ġk e
Ġli ke
vel op
Ġin s
Ġpre vious
Ġrep res
o ugh
Ġini tial
Ġd em
ul ation
Ġst and
ma gn
o st
Ġf ur
Ġad dition
Ġb el
Ġth us
Ġqu an
Ġo sc
et s
Ġam pl
is m
Ġro t
ff ici
Ġosc ill
v en
du ce
Ġw ere
Ġin st
oc k
Ġmeasure ments
ro sc
ti vely
v ing
Ġconst ra
w ar
Ġfiel ds
f ore
Ġ 7
Ġev en
Ġsymmetr y
ma tic
em ent
Ġfunction s
oc ity
Ġc ritical
o gy
qu i
rosc op
ic ation
Ġder iv
ol d
Ġo cc
Ġvel ocity
Ġex ist
if t
Ġm ic
Ġz ero
m on
Ġabo ut
Ġint eg
Ġdem on
Ġfe ature
Ġcom b
o od
Ġ 9
tion s
Ġp e
qu e
Ġa f
Ġdemon str
Ġf it
Ġb ro
Ġs ize
Ġf ree
g est
Ġinteraction s
Ġcorrespon ding
Ġwe ak
Ġas y
Ġw a
Ġspect ral
Ġconsist ent
Ġat t
t al
i um
Ġs in
Ġkn own
Ġ u
Ġl umin
Ġcomp ar
Ġint ro
Ġass oci
Ġh al
t urb
Ġcont inu
Ġbl ack
Ġb ack
Ġspect ra
3 0
Ġdire ct
Ġma in
2 5
Ġbehavi or
Ġcont ribution
Ġin formation
Ġflu ctu
Ġra nd
el f
Ġfact or
ol ogy
e w
Ġreg im
n ess
Ġflu x
l ine
p s
Ġdepend ence
Ġpartic les
Ġqu ark
Ġ ed
Ġf low
Ġle ad
Ġrand om
Ġsour ce
Ġdec ay
Ġa ver
1 7
Ġhigh er
Ġcomple x
Ġcorrel ation
Ġman y
Ġt ri
Ġshow s
Ġre qui
ur ing
Ġsam ple
om in
4 0
Ġsuper con
Ġm u
Ġst ellar
Ġther mal
Ġstand ard
Ġde velop
Ġmoment um
an ces
i ties
Ġsim ple
Ġcont ro
Ġh ole
Ġse ver
Ġal g
Ġrel ati
Ġf ul
f ul
ul t
Ġp op
Ġb i
Ġdi ag
Ġper turb
1 8
Ġimport ant
5 0
Ġc m
er tain
Ġabo ve
Ġequ ations
im um
ri x
Ġst atis
ori th
on d
am il
Ġl ength
Ġe t
Ġapproxi mation
Ġdet ect
ec tively
Ġrepres ent
du c
o ut
Ġalg orith
Ġd es
at ors
Ġsin ce
id e
Ġfo ur
Ġmeasure d
i er
Ġtheore tical
Ġmod e
Ġth ose
Ġs l
Ġd ri
1 9
Ġrec ent
Ġd ark
Ġradi o
Ġm ed
Ġdet ail
Ġexperim ents
h i
Ġstudi ed
ter ial
Ġchan nel
Ġ ion
as tic
Ġpe ak
Ġse par
Ġcondition s
Ġe ar
ter n
Ġlow er
Ġto tal
Ġsever al
Ġrati o
Ġprovid e
ro magn
ig in
Ġabs or
Ġor igin
ut e
Ġ ti
ic e
Ġiden tif
Ġal ong
n ing
Ġlin es
Ġchar ge
Ġsp ati
r k
Ġmat rix
Ġsug gest
Ġaf ter
Ġassoci ated
ds h
ve ct
Ġ ir
Ġapp ear
pl es
in ation
Ġclust ers
Ġinde pend
ton ian
Ġob ject
res sion
Ġm ix
Ġclass ical
oun t
Ġneut rin
Ġeff ici
ĠĠ ĠĠ
os ity
Ġre dsh
Ġinvestig ate
r ight
g ies
Ġcalcul ations
Ġma terial
Ġsour ces
Ġpres ence
Ġc ir
ot rop
aus e
Ġtech ni
t ure
Ġext end
Ġext ra
Ġma x
Ġmod es
il ib
Ġd omin
i el
Ġent ang
Ġcoll is
r ing
Ġ }
Ġg ap
as ing
Ġne g
3 6
Ġb re
Ġfra me
Ġlar ger
Ġpo ly
Ġcompare d
Ġrep ort
ra m
Ġno ise
Ġgro und
Ġmethod s
Ġprop osed
Ġag re
Ġke y
Ġinter est
g ing
at ur
Ġocc ur
id ence
Ġge ometr
2 2
Ġregim e
Ġco uld
Ġi i
Ġmo lec
Ġresp ectively
Ġs elf
Ġexp on
Ġh amil
Ġphys ical
Ġpresent ed
g s
Ġcir c
Ġn ormal
Ġt un
b ility
ac tic
ar ch
ry st
ilib ri
n er
in d
an e
Ġex act
Ġs em
Ġpar t
Ġpro f
Ġw ould
Ġg re
Ġsolution s
Ġl aw
Ġplan e
} \
Ġs m
Ġsch em
Ġdepend ent
ir al
o ch
Ġdist ance
Ġwi d
Ġw ay
Ġa round
Ġhamil tonian
Ġsupercon duct
Ġ19 9
Ġthere fore
ay er
Ġn an
Ġan o
on al
Ġtrans p
ilibri um
ic ations
Ġprocess es
on e
Ġc ap
Ġcon n
Ġph en
Ġcompon ent
op e
2 3
Ġinclu ding
Ġv ol
c d
k y
Ġpul s
Ġa st
or d
g en
Ġdiscuss ed
Ġprob ability
Ġacc re
Ġf il
Ġanaly z
Ġa x
g round
v it
v al
Ġnucle ar
Ġin duced
ren gth
a ds
ro w
Ġst rength
Ġener gies
Ġsh ap
Ġfluctu ations
Ġcent ral
d ro
Ġexp ected
Ġfra ction
Ġdynam ical
om en
Ġmu ch
Ġdo es
Ġunder st
ur st
Ġer r
Ġma s
Ġs um
od y
Ġrel ation
Ġc ryst
Ġphen omen
Ġt re
Ġb os
Ġfur ther
{ \
t en
c i
Ġvi a
Ġbel ow
Ġbe am
ph ys
Ġan ti
Ġbec ause
Ġagre ement
Ġin di
r ation
Ġexpl ain
Ġgra vit
Ġindepend ent
Ġc y
Ġsur ve
ch i
o tic
Ġcalcul ated
Ġsh ould
Ġlumin osity
Ġmo tion
Ġc a
ti z
Ġd uring
hi bit
Ġ vect
Ġregion s
Ġh el
2 4
ab les
Ġrec ently
Ġbound ary
Ġdescrib ed
Ġd en
Ġs er
Ġsign al
line ar
Ġappl ied
Ġderiv ed
Ġferm i
Ġfeature s
2 6
b ers
Ġco her
Ġse ction
romagn etic
Ġcl ose
Ġc le
Ġb ul
Ġh ad
Ġrel ated
Ġconsider ed
Ġbre ak
Ġdec re
Ġa v
Ġmeasure ment
d ed
Ġim pl
Ġlin k
Ġaver age
3 5
ar s
Ġatom s
Ġwith out
Ġtop ological
Ġpro duction
p ut
Ġres pon
Ġt est
Ġgro w
ic ity
Ġfi x
Ġalgorith m
Ġen h
Ġvari ous
Ġquas i
Ġun it
Ġco un
Ġg au
Ġneut ron
6 0
Ġch ang
Ġl as
Ġhy dro
a ces
n s
Ġback ground
Ġlet t
Ġstrong ly
Ġex hibit
al ity
Ġequ ilibrium
w ard
Ġpolar ization
if ied
Ġdeterm ined
Ġexam ple
en ds
v ant
tic s
Ġg r
Ġdef ined
Ġampl itude
Ġdet ection
p re
Ġe l
Ġn ature
ig ur
ic k
Ġpre c
Ġinv ari
2 1
Ġs ensi
Ġk ine
Ġcont ain
Ġe ig
Ġcoupl ed
Ġunivers ity
Ġsh ort
Ġun c
a tic
Ġpo sition
Ġcent er
Ġradi ation
lo b
Ġtransp ort
Ġnon linear
Ġg ive
Ġy iel
Ġdis per
2 7
Ġconf igur
e ffici
Ġcorrel ations
Ġmolec ular
Ġallow s
Ġres olution
Ġstructure s
Ġstudi es
Ġm es
qu ence
Ġeig en
en cy
pp ing
Ġg lob
Ġabsor ption
Ġtim es
Ġscal ing
Ġmass es
Ġimp ro
Ġh ol
Ġredsh ift
Ġc ases
3 3
Ġb ran
Ġpres s
Ġspati al
od e
en ces
Ġch ain
Ġaccre tion
Ġpo ints
Ġa u
Ġdistribution s
Ġgal actic
od es
8 0
Ġg ood
Ġgau ge
Ġneutrin o
Ġre le
Ġre d
i ther
Ġcom m
Ġh ar
Ġfin ally
an sion
Ġcl o
Ġpro t
Ġle ads
Ġcon d
Ġacc ount
2 9
u sion
et er
Ġconc lu
ab il
o sition
Ġlo op
is otrop
am ent
Ġs n
Ġsupp ort
4 5
ly ing
roscop ic
Ġdire ction
i a
Ġconst ruct
Ġprop ag
g ed
Ġco effici
Ġbro ad
Ġan isotrop
ri ption
Ġexp ansion
Ġb ody
Ġwid th
Ġinf ra
ch ing
k ing
l ish
Ġcon ver
3 8
Ġv is
Ġpop ulation
2 8
fer ence
Ġdemonstr ate
or der
Ġcharacter istic
it ud
Ġpl as
Ġdescrib e
or ies
Ġch em
s on
Ġmagn itude
t y
Ġl os
Ġcont r
os ph
Ġre main
in ing
ab ly
Ġinfra red
Ġbe ing
ic it
Ġfix ed
Ġcontro l
Ġsc en
u ter
Ġs qu
Ġschem e
Ġmechan ism
Ġscen ari
Ġscal ar
Ġa chi
Ġg aus
war f
Ġindi vid
is ts
Ġp ri
Ġframe work
Ġne ed
or ds
Ġmas sive
p c
ane ous
or m
Ġreson ance
si an
Ġtheore m
Ġform ul
o id
Ġqu bit
r ate
Ġar g
Ġentang lement
Ġradi us
Ġvect or
Ġang ular
Ġmax imum
og ene
Ġsp h
Ġre ve
Ġobject s
om b
Ġco re
Ġd ust
Ġdisc re
Ġev idence
si ble
3 1
om es
m pt
Ġcond ens
Ġthe m
Ġrel ative
e ad
Ġf oc
Ġsy n
o th
u ble
Ġp rin
Ġfollow ing
v istic
3 7
Ġmet all
Ġm em
Ġs olar
Ġinter act
Ġb right
Ġof f
Ġfe w
Ġcompar is
- @
Ġsc i
Ġd warf
Ġlead ing
Ġchan ge
is ing
Ġelectron s
it er
Ġmed ium
Ġs ti
Ġh and
Ġdet ected
Ġpress ure
c ies
Ġapproxi ma
Ġcle ar
l ess
Ġfig ure
Ġre st
Ġf ar
Ġscal es
av y
Ġse arch
y ing
Ġindivid ual
Ġdeterm ine
Ġful l
Ġ ult
t ely
Ġdis order
el er
Ġunderst and
um p
Ġdo uble
Ġb ar
or ph
Ġbin ary
tion al
Ġgravit ational
Ġsmall er
l it
Ġestima te
Ġdo main
iv al
Ġcompon ents
ress ed
Ġtrans fer
3 9
le ction
Ġop en
ol ved
tic es
Ġang le
Ġatom ic
ar ies
Ġnetwork s
Ġorbit al
Ġder ive
Ġro le
Ġtemperature s
Ġprovid es
Ġdiffer ence
Ġed ge
Ġhad ron
3 4
Ġl ess
ect s
Ġg ev
Ġc ell
Ġph ases
Ġn ow
Ġhe avy
Ġe ither
Ġp atter
ra ph
Ġlos s
Ġde v
Ġdisper sion
Ġlas er
Ġd el
Ġuni verse
Ġcollis ions
Ġdesc ription
Ġcalcul ate
lect ed
Ġn atur
Ġfoc us
p id
Ġma j
Ġconf ir
Ġrel ations
Ġincre asing
s p
Ġent rop
Ġad d
Ġspec ific
Ġexist ence
Ġgaus sian
Ġh om
Ġh ard
Ġen v
Ġab und
Ġinter pre
Ġincre ase
Ġd own
Ġinvari ant
Ġt el
Ġsimul ation
n t
al u
Ġf und
ig gs
Ġpo si
c l
th ough
u ra
Ġv ac
at er
Ġmulti ple
Ġresp ect
Ġextend ed
Ġs w
m od
Ġresul ting
Ġa ff
Ġid e
du ces
Ġtrans m
Ġe le
Ġsurve y
Ġh iggs
Ġfor ce
Ġhy per
om p
Ġch iral
ir on
Ġup per
Ġrelati vistic
e matic
etr ic
Ġmaj or
o k
3 2
Ġg am
vel ength
Ġbos on
Ġexp ression
s y
Ġal though
ov a
7 0
ri d
Ġpro g
Ġstatis tical
Ġco ol
mmetr ic
Ġinf in
Ġprop ose
ing s
x t
Ġcon se
Ġr ates
in s
Ġphot ons
Ġenv iron
u le
Ġexpl icit
Ġperfor med
Ġasy mpt
Ġsignificant ly
Ġtel esc
ce pt
Ġim ple
Ġpredic tions
Ġ il
l i
Ġconstra ints
Ġtransition s
Ġbul k
Ġex tern
Ġca vity
Ġnot e
Ġelectron ic
t aneous
Ġli k
Ġrot ation
Ġsp lit
si de
Ġinvestig ated
vi ew
chan ge
Ġcomparis on
er n
man n
Ġst ra
Ġmagn e
ti mal
Ġpa th
r ated
Ġl ayer
Ġcalcul ation
Ġdi p
Ġm er
Ġbec omes
Ġd op
Ġst able
Ġc re
Ġev alu
Ġv an
Ġimple ment
] (
Ġshap e
Ġrel ax
e in
Ġse en
ot s
Ġaddition al
Ġch o
qu es
Ġfund ament
Ġre m
i ble
ra y
p or
res h
Ġop timal
iz ing
Ġsol id
Ġst ep
Ġcosm ic
rib ut
4 4
Ġexcit ation
Ġunc ertain
Ġt ur
qu id
Ġdes ign
Ġwa velength
Ġacc eler
t o
Ġrep ro
Ġerr or
Ġdiff usion
Ġextern al
Ġli quid
ensi ties
d o
Ġar bit
Ġcal led
Ġcosm ological
med i
c s
as h
Ġph on
Ġelect ric
Ġposi tive
Ġmet al
6 5
Ġc aus
Ġre n
Ġl og
Ġplan et
as si
Ġc r
Ġincre ases
as ed
Ġpro ton
Ġarbit r
Ġoper ator
Ġ est
Ġso ft
Ġequ ival
Ġc ertain
Ġq cd
Ġsymmetr ic
c k
an ced
Ġj et
atis f
Ġ end
5 5
Ġac tive
Ġex change
Ġcontinu ous
Ġwa ves
i ly
b y
ge b
4 8
Ġav ail
Ġt r
Ġentrop y
Ġflu id
Ġgiv es
Ġinterest ing
Ġdisc over
Ġre ach
Ġst ring
Ġcontinu um
_ {
Ġcar ri
Ġax is
n ova
Ġ "
4 7
Ġs atisf
Ġdiag ram
Ġ1 00
Ġst ability
Ġsu ffici
Ġestima t
it es
Ġneg ative
tiz ation
Ġinteract ing
Ġth resh
Ġdis pl
Ġre action
Ġfundament al
Ġcontr ast
4 6
g c
Ġtrans verse
Ġelect ro
ar t
Ġpredic ted
Ġwh ose
Ġnum bers
Ġchang es
at ory
Ġsim pl
re ad
Ġmagn et
Ġprin ci
w id
wid th
Ġev ents
1 10
4 9
Ġsh ock
Ġele ments
Ġg o
ynam ic
Ġplas ma
g in
Ġmean s
Ġsti ll
ogene ous
ut ure
Ġsuper nova
Ġdeg ree
Ġ $
Ġchem ical
Ġf er
ol ation
Ġprevious ly
Ġma de
Ġmin i
Ġquan tit
en ing
Ġdep ends
Ġperiod ic
Ġ ens
Ġext re
Ġtechni que
in i
Ġf uture
Ġcol or
7 5
Ġcur ves
Ġgeometr y
Ġm ust
Ġhal o
Ġra pid
h e
Ġn m
Ġavail able
Ġrespon se
Ġtak en
ab lish
Ġra ther
Ġs us
Ġam ong
Ġma rk
Ġest ablish
d es
Ġcorre ctions
duc tivity
Ġproble ms
Ġsuperconduct ing
Ġsug ges
Ġre view
pp ed
Ġpro duced
Ġinteg ral
ab or
Ġcomp act
Ġwi de
Ġappl ications
Ġp ure
Ġpro j
b ed
u ally
Ġdri ven
4 2
ati vely
is ion
Ġsqu are
Ġinf lu
Ġcur ve
Ġs low
e qu
Ġl ens
assi f
ri es
tic le
Ġobserv ation
Ġev ent
e lect
Ġcontribution s
Ġbas is
Ġre con
Ġrele vant
Ġil lust
Ġg lu
Ġnucle i
Ġse quence
Ġear ly
Ġinde x
Ġtechni ques
Ġferm ion
Ġo ri
Ġcoher ent
Ġy ear
ma rk
Ġgener ated
h z
k i
Ġcon duct
4 3
igh b
ru ction
Ġmix ing
Ġanaly tical
4 1
Ġfor mal
Ġcl assif
Ġ math
Ġren ormal
Ġtelesc ope
it s
Ġne ighb
pl o
Ġphot ometr
l ing
itud es
Ġfin al
Ġgra vity
Ġhigh ly
Ġa gn
Ġw ind
Ġt or
Ġe ll
if orm
Ġser ies
medi ate
Ġreve al
Ġpro ve
Ġle ast
es is
st ein
c o
Ġne cess
Ġoscill ations
ti l
Ġcomple te
Ġn gc
Ġt ens
Ġint ensity
Ġcom mon
m ost
Ġop tim
Ġdevelop ed
Ġdiffer ential
Ġal geb
ra ct
Ġdimension s
Ġtyp ical
Ġdeg ener
Ġacc ur
Ġexpon ential
5 7
Ġdetail ed
Ġradi al
g ence
Ġre duced
Ġmore over
Ġpul se
ber g
Ġhe at
ar g
Ġvac u
s ic
Ġconc ent
Ġglob al
Ġmon te
Ġoper ators
Ġem er
Ġprof ile
Ġscenari o
Ġc and
Ġl a
Ġthresh old
Ġcar lo
Ġh or
i e
at ely
Ġmic ro
Ġvol um
Ġassum ption
Ġarbitr ary
n o
i ant
Ġsh ell
al le
Ġgrow th
Ġh ence
th erm
Ġinv ol
l in
Ġenviron ment
Ġell ip
k s
Ġdec ays
Ġag ain
f aces
Ġg l
Ġsp e
Ġeffici ency
Ġpar tial
Ġval id
am p
Ġd ensities
roscop y
r im
iz es
Ġtun nel
mmetr y
Ġperfor man
b and
t t
Ġfl at
Ġb urst
Ġhal f
Ġadd ress
therm ore
o f
Ġb lu
Ġpair s
Ġse c
Ġs ky
5 3
Ġfur thermore
Ġb ary
ot t
b s
5 6
Ġins ul
ri e
Ġther mod
Ġperfor m
Ġfin ding
Ġt urb
Ġasympt otic
Ġun iform
Ġem plo
5 2
Ġme v
5 1
Ġvacu um
Ġprob e
Ġcand id
Ġult ra
Ġin put
Ġcryst al
war ds
Ġcomm un
for m
ore d
Ġman if
Ġins tit
id es
alle l
Ġkey w
Ġqu ad
, @
Ġt arg
Ġima ges
p ton
Ġe p
Ġrequi red
Ġintro duced
Ġdirect ly
Ġb est
Ġvi ew
5 8
Ġh ub
Ġinter n
b i
Ġe lement
in c
Ġb u
Ġinter mediate
Ġrelax ation
Ġfunction al
Ġturb ul
ific ation
Ġreport ed
Ġkeyw ords
Ġvari able
Ġre as
l d
Ġa ct
Ġlik ely
Ġ1 2
Ġqu es
Ġl atter
Ġcon ven
Ġde ep
Ġmin imum
Ġexp ect
g o
Ġcorre ct
Ġgeneral ized
ex t
t a
Ġsu c
Ġachi ev
Ġanalyz e
Ġphon on
Ġpossi bility
Ġsugges ts
Ġr ight
Ġband s
Ġin ner
a th
Ġneut ral
Ġtyp es
ar row
n e
it t
l ation
Ġro b
Ġr ich
Ġe as
if ts
Ġori ent
ce p
Ġmod ul
Ġperforman ce
Ġth ick
Ġinclu de
Ġgraph ene
Ġreg ular
5 9
m er
Ġ ess
Ġlimit s
Ġpro duct
Ġden ot
Ġconfigur ation
ear ch
c al
Ġcoun ter
Ġhol es
Ġd ra
mon ic
Ġma ke
Ġperturb ation
Ġformul a
ran g
Ġindic ate
si p
Ġexcit ations
Ġinst ability
Ġexperiment ally
ur al
Ġvolum e
5 4
Ġnatur al
Ġbreak ing
om ial
Ġgroup s
Ġdetect or
Ġfrequen cies
Ġth in
Ġequ al
Ġintro duce
Ġde vi
Ġpar allel
Ġn am
ribut ed
se ud
Ġcontro ll
Ġres earch
sion s
Ġchar ged
Ġappear s
ma ry
Ġc ut
^ {
Ġst och
Ġsh ift
Ġunderstand ing
Ġful ly
or ding
Ġexpl o
Ġrequi re
Ġnucle on
Ġbe y
Ġgener ation
Ġsam ples
Ġp seud
Ġdiscre te
Ġset s
Ġextra ct
Ġtrans formation
Ġbey ond
Ġal tern
tim e
w n
Ġano ther
Ġdeterm in
Ġo pp
9 0
Ġal most
ic es
Ġwh e
Ġpro ced
Ġdis sip
6 7
Ġgam ma
Ġare a
o int
Ġproced ure
Ġnumerical ly
Ġma r
Ġinterpre t
Ġf ast
et ries
is ms
Ġlevel s
Ġcont ext
il es
Ġh ot
Ġcoll ap
Ġspec ial
ab el
Ġne xt
Ġprovid ed
Ġco ver
Ġa ction
Ġint rin
e ma
Ġl if
Ġvari ables
Ġh ost
Ġexam ples
Ġl y
Ġc at
ic on
Ġspe ed
Ġv ary
Ġhor iz
Ġsm o
Ġast ro
vi al
b urst
Ġcorrel ated
Ġidentif ied
duc ing
Ġstoch astic
Ġassum ing
Ġmaterial s
Ġapp ly
Ġclo ud
Ġtech n
ib ase
do ibase
Ġrati os
Ġappl ication
Ġima ging
ur ity
Ġcorrespon ds
Ġg a
Ġa ble
Ġcool ing
Ġs ide
Ġr un
Ġblu e
i i
Ġs itu
Ġoccur s
ti v
av or
Ġwh at
l er
Ġcont act
Ġstatis tics
ay ers
ag es
Ġeffici ent
Ġobser ve
Ġvan ish
Ġra ys
6 2
Ġthe ories
Ġtransm ission
Ġunivers al
Ġbehavi our
Ġsyst ematic
Ġequival ent
en tion
Ġbet ter
Ġuse ful
abil ities
ra ction
Ġalgeb ra
Ġl h
Ġs ite
Ġat m
c ent
ort ex
Ġreson ant
p age
Ġbec ome
a pp
o und
Ġinfin ite
Ġwhe ther
os ite
Ġacc ording
Ġinflu ence
Ġmechan ical
ge ther
d en
6 4
Ġapproach es
n a
Ġdomin ated
w h
Ġn arrow
Ġestimat es
Ġfact ors
Ġess ential
Ġenh ance
s et
: \
Ġtak e
Ġimpl ies
Ġsub st
av ing
Ġcoeffici ents
Ġcomput e
Ġprof iles
Ġanisotrop y
Ġestima ted
Ġsmo oth
Ġatm osph
s h
Ġt ev
Ġg u
Ġma p
Ġyear s
Ġchannel s
Ġw all
ra ms
6 3
Ġdi rac
Ġg iant
Ġcorrespon d
Ġco ord
Ġsol it
Ġtens or
Ġfirst page
Ġcharacter ized
Ġcon ve
Ġv ortex
ura cy
c a
Ġrelati vely
Ġreas on
Ġe ver
Ġmini mal
Ġf ill
Ġp ic
on ic
Ġform ed
is ed
Ġdep art
Ġgra di
Ġsing ular
Ġano mal
ch ed
Ġexcit ed
Ġo x
Ġbe fore
Ġspect roscopy
Ġacc uracy
Ġfollow s
00 0
Ġl and
Ġco ul
cul es
Ġpro m
Ġimpro ve
Ġyiel ds
6 6
Ġto gether
Ġpoly n
ow led
Ġcollis ion
Ġem it
Ġdist in
Ġle ft
Ġlocal ized
ec k
Ġg en
Ġidentif y
Ġsyn ch
Ġcoul omb
Ġth ough
6 8
Ġdip ole
Ġmetall icity
er ic
Ġto wards
ti ties
Ġm ight
Ġcoupling s
Ġh o
Ġcon ser
6 1
Ġtunnel ing
Ġcl os
Ġprinci ple
en se
Ġcomb ined
Ġsph erical
Ġinde ed
Ġpo st
ce ed
Ġens em
Ġwe ight
Ġrepresent ation
Ġhoriz on
in stein
Ġanaly tic
Ġsensi tive
Ġsensi tivity
Ġsepar ation
Ġw r
Ġk ev
Ġp ers
ac s
Ġpolyn omial
e e
Ġext ension
Ġa ut
Ġvari ation
8 5
Ġenh anced
8 7
Ġrob ust
Ġcur v
Ġpolar ized
ign ed
Ġsci ence
Ġen c
6 9
Ġanal og
Ġtak ing
Ġhydro d
o b
Ġpro duce
Ġtarg et
Ġintrin sic
Ġe instein
ing u
Ġmo le
ri z
Ġlimit ed
Ġst atic
Ġferm ions
Ġsign ature
Ġgraph s
re es
am b
Ġl ag
elect ric
Ġimp act
Ġy oun
Ġd ot
Ġima ge
Ġdiff ic
Ġmole cules
Ġo uter
k n
Ġcy c
Ġmagne tization
Ġvari ations
Ġpatter n
lec tive
Ġremain s
Ġ1 5
g ment
Ġel astic
Ġpropag ation
Ġ. -
Ġsimul taneous
Ġlh c
is es
Ġt ru
Ġindic ates
Ġsu it
Ġr ise
Ġno vel
Ġ3 0
Ġprop or
ti tion
Ġelect romagnetic
ingu ish
Ġ ?
h om
s m
Ġmes on
Ġcoeffici ent
Ġdec o
7 1
Ġsplit ting
Ġconn ected
Ġma xi
Ġtre at
Ġin side
Ġinter fer
Ġr ing
Ġgre en
Ġsur faces
Ġformal ism
st ellar
gh t
Ġto ol
Ġcurv ature
Ġp ub
b ly
al it
Ġinter ference
ynam ics
Ġastro phys
Ġc ode
Ġrest ric
Ġdepend ing
Ġaccur ate
p r
f ig
b on
Ġdiffer ences
Ġeigen val
et y
Ġampl itudes
Ġa ge
ric es
Ġkine tic
Ġnucle us
Ġcoord in
_ .
Ġsem i
Ġwhere as
Ġst ri
Ġcl osed
Ġnecess ary
g an
Ġform ing
Ġdepart ment
Ġabund ance
Ġp ump
Ġdeg rees
ch es
Ġma g
7 7
Ġdynam ic
Ġpl ot
Ġunder lying
Ġconfigur ations
w ays
Ġch a
Ġinter face
Ġspin s
if y
Ġcol d
Ġdistin ct
Ġen ough
y r
8 8
Ġfre ed
b ol
Ġc ru
Ġw al
Ġre mark
Ġu v
Ġradi ative
Ġcomb ination
Ġpredic t
Ġle pton
Ġs i
Ġst re
Ġsub ject
Ġbu il
Ġsh ar
Ġpotential s
Ġhar monic
Ġth ir
Ġphenomen a
Ġst ation
f rac
Ġanalyz ed
l a
Ġon es
Ġprot oc
Ġp acs
Ġconn ection
Ġb al
f low
Ġh all
n ed
or ing
Ġm id
Ġma ps
um ent
Ġtri ang
Ġv ir
Ġsuc cess
7 9
Ġbi as
Ġglu on
Ġfreed om
Ġintern al
Ġ20 10
Ġw or
Ġwh ite
Ġdemonstr ated
Ġ {
c ial
Ġhydro gen
in ary
Ġinst ead
Ġpro of
Ġqu alit
Ġast ron
Ġlif e
re v
Ġconsider ing
Ġp ion
Ġrequi res
Ġbound s
Ġassum e
Ġexc lu
Ġdetail s
u ds
Ġm etric
in al
Ġmod ified
7 3
7 2
7 8
Ġexpl ore
Ġear l
Ġm ill
Ġassum ed
Ġar ray
Ġvol t
Ġm is
Ġse ctions
Ġsupp lement
Ġex cess
Ġpar ton
Ġs il
Ġh aving
7 6
Ġcoll id
Ġdomin ant
Ġexist ing
Ġever y
Ġprotoc ol
Ġbin aries
Ġphot o
Ġconclu de
Ġquan tities
Ġf am
a ma
Ġd ual
Ġques tion
Ġachiev ed
ul ations
Ġclear ly
Ġobserv ational
Ġrenormal ization
8 2
Ġm orph
quen ces
Ġpic ture
Ġdef ine
Ġperturb ative
Ġrecon st
Ġaver ag
h ip
b ack
7 4
Ġsuper sy
Ġprec ision
r m
Ġasy mmetry
Ġexam ine
110 3
Ġdiag onal
ure s
r as
k es
fer red
Ġcomput ation
Ġev ol
Ġtra ject
Ġerr ors
Ġ1 4
ead y
Ġreson ances
Ġconfir m
Ġanomal ous
Ġres olved
Ġse lected
Ġnear ly
Ġkine matic
} }
Ġdi ver
Ġrot ating
Ġdist ances
Ġn or
c om
Ġac tivity
Ġdecre ases
Ġp rac
Ġp ur
Ġcollap se
Ġh ist
ter s
Ġdisk s
Ġpl ace
Ġre duction
Ġmat rices
Ġbl ock
8 9
Ġapproxima tely
Ġem bed
Ġl iter
Ġpair ing
Ġac ross
ant s
Ġm m
Ġk m
en sive
Ġanti fer
Ġs ites
Ġclo uds
f ect
Ġmechan isms
Ġs atur
Ġyoun g
Ġpl ay
Ġgener ally
Ġc as
Ġpeak s
Ġc d
Ġsw it
Ġout put
Ġalgorith ms
Ġreal istic
Ġabs ence
re g
no op
Ġexhibit s
di ab
w ise
Ġden se
Ġemplo y
p ri
Ġearl ier
Ġst eady
Ġup on
t z
Ġqu en
are nt
Ġfe ed
Ġin equ
Ġinstit ute
Ġliter ature
Ġ1 1
Ġcap ac
rac tive
Ġal ways
Ġcontain s
read y
8 4
Ġst rate
Ġal ready
par t
Ġappro pri
Ġre pl
Ġdep th
Ġqu ite
Ġnam ely
f lu
Ġcorre ction
id ent
Ġtem por
Ġbin ding
Ġexpon ent
Ġc p
Ġexplain ed
r s
Ġgeometr ic
Ġbar ri
Ġo d
Ġse em
Ġs ect
Ġproper ty
o per
i ally
Ġdiffic ult
Ġl ast
Ġexact ly
Ġma c
Ġp ack
Ġp ol
mm etries
Ġconven tional
Ġor th
Ġd m
Ġex ists
Ġl ayers
qu ently
Ġn odes
p ec
Ġre t
8 1
Ġsl ight
Ġcoher ence
Ġclassif ication
Ġstruct ural
Ġthir d
Ġg ain
Ġin verse
Ġcomput ed
w ay
Ġis s
Ġyiel d
u th
Ġ20 11
Ġpri mary
Ġcondens ate
Ġmic row
og raph
Ġplan ets
Ġp ass
Ġsupport ed
Ġm il
ac ed
Ġhom ogeneous
Ġ ions
Ġs oc
Ġr ul
Ġpredic tion
Ġ5 0
Ġ20 12
ol ated
te x
Ġentang led
Ġp erm
u k
Ġstation ary
Ġcon ject
Ġuncertain ty
Ġ1 3
Ġlow est
all en
Ġcharacteristic s
Ġdef ini
ti re
st er
y l
Ġhy b
oci ties
Ġpropor tional
Ġas p
Ġide al
g u
Ġco inc
b e
Ġvel ocities
Ġp an
ul i
Ġbas ic
Ġthermod ynamic
Ġcat al
Ġcomple tely
phys rev
Ġpuls es
Ġen g
8 3
Ġad j
Ġallow ed
Ġanisotrop ic
Ġconduct ance
Ġof ten
Ġb ose
Ġfam ily
Ġen tire
Ġoscill ation
8 6
Ġspec ies
o ff
Ġb ra
Ġse lection
Ġdist inguish
Ġver sion
Ġa diab
Ġsh ear
Ġad v
Ġsuggest ed
Ġch allen
Ġgl ass
Ġsubst an
Ġs un
Ġconst ruction
s ch
Ġj ust
Ġdecre ase
Ġam ount
Ġuni que
s ing
Ġt ail
Ġro ugh
Ġspect roscopic
us e
Ġy et
o h
Ġagain st
Ġad ap
Ġpatter ns
Ġmaxi mal
9 9
Ġloc ated
a res
Ġs at
Ġocc up
ol ds
Ġcol um
Ġdiag rams
Ġvary ing
Ġw ater
Ġtak es
Ġmicrow ave
d a
Ġcompar able
Ġmom ents
Ġii i
th m
le y
Ġshow ing
. @
p ir
Ġcosm ology
Ġvari ety
Ġcr iter
flu id
in es
Ġre si
Ġun st
Ġcol lective
Ġensem ble
o u
er ing
Ġg ate
Ġk er
Ġdev ice
cep ti
Ġj ets
Ġesti mation
Ġgradi ent
Ġtri vial
Ġsuffici ent
Ġperturb ations
Ġneutrin os
Ġorder s
Ġdec omp
l and
Ġr ule
1 00
Ġj unction
Ġtur n
Ġst e
Ġcho ice
Ġout flow
Ġconstruct ed
Ġcomp an
e z
ari ties
owled ge
f unction
Ġsubstan tial
op es
in o
Ġvari ability
Ġrelations hip
Ġsus cepti
Ġtru e
Ġfit ting
Ġsuffici ently
Ġorbit s
a f
Ġcap ture
Ġd amp
Ġper fect
Ġcons ists
Ġtyp ically
Ġdel ay
Ġlat er
h il
Ġinterpret ation
Ġacceler ation
Ġmic roscopic
Ġimpl ications
Ġau th
Ġvolt age
Ġfer romagnetic
Ġachi e
Ġphenomen on
Ġh yp
Ġcon cept
Ġcirc ular
Ġis otrop
Ġabund ances
0 5
Ġ ic
Ġma kes
d imension
le ft
Ġrep ul
Ġmix ed
Ġfi ve
Ġ1 6
Ġorigin al
Ġcon ductivity
Ġtri ple
k en
Ġa im
Ġinclu des
rie f
Ġsp iral
Ġexplicit ly
g a
Ġbary on
Ġdescrib es
Ġconse quence
an cy
Ġb rief
it ten
Ġcontroll ed
Ġsign als
Ġinf lation
Ġexp and
Ġenhance ment
a z
o ma
om orph
Ġcomput ational
Ġdist ributed
v ari
Ġd ash
it z
Ġion ization
Ġb er
Ġh u
Ġdegener ate
Ġtempor al
Ġland au
Ġobserv ables
Ġturbul ence
a h
s ki
Ġset ting
Ġappropri ate
Ġin hom
Ġextre m
Ġl ore
Ġflow s
Ġlong er
Ġover all
Ġear th
l oc
Ġp rim
Ġs f
ro up
Ġimpro ved
Ġconstra int
Ġneed ed
i or
Ġl abor
Ġmo ving
Ġphotometr ic
Ġastron om
Ġem pir
Ġfeed back
Ġv ib
Ġtran si
Ġsuper fluid
Ġimp urity
Ġhel p
Ġvis c
Ġconject ure
Ġcomplex ity
on ical
os en
Ġmin im
Ġg et
Ġsy m
Ġk pc
Ġincre ased
Ġmechan ics
Ġclass es
Ġb on
Ġd im
Ġsyn th
Ġf ac
ni hil
Ġparticular ly
Ġpop ulations
iz ations
Ġbright ness
h ood
Ġcaus ed
Ġb ol
Ġcirc um
Ġconcent ration
is ation
Ġst ress
Ġad vant
Ġnear by
Ġbos ons
Ġin ver
Ġinteg rated
Ġpuls ar
od ing
are d
Ġr h
Ġinc or
Ġsub se
ier arch
dimension al
Ġne b
al igned
/ /
Ġtra p
Ġapp arent
, \
Ġh ierarch
Ġdev ices
p ro
ac y
Ġes pec
Ġch osen
Ġz h
Ġp s
Ġre vers
l abel
Ġquark s
Ġconstant s
Ġset up
Ġespec ially
Ġcarri ed
Ġ6 0
Ġrepres ents
es ts
Ġconver gence
Ġsl ope
el astic
Ġsp on
: //
an a
Ġh tt
Ġcomp ound
Ġ200 8
Ġdop ing
Ġl ate
Ġcons tit
Ġver tex
Ġav oid
Ġestablish ed
Ġredsh ifts
Ġlog ari
Ġod d
ph as
Ġchain s
Ġhe ating
Ġrec over
Ġan nihil
Ġquas ars
Ġexpression s
Ġf ain
Ġspon taneous
Ġvi olation
Ġsol ve
Ġco oper
Ġb ott
ari ly
Ġquan tif
Ġcar bon
l s
Ġus ual
Ġmem ory
Ġshar p
Ġfor ces
Ġan s
Ġmo tiv
Ġimport ance
a ir
al e
Ġslight ly
Ġsat ell
Ġh i
Ġspati ally
Ġunst able
g al
Ġs ix
Ġsam pl
Ġradi i
Ġlocal ization
or ts
Ġregim es
Ġem phas
Ġqubit s
Ġarg ue
Ġuncertain ties
b ran
Ġr ig
Ġorder ed
par ticle
Ġp c
} {
Ġh er
Ġqu ality
Ġgener ic
Ġdwarf s
Ġeas ily
Ġdissip ation
Ġhtt p
) @
Ġadiab atic
Ġdash ed
Ġor gan
Ġli e
Ġfl avor
Ġcompar ing
Ġsepar ated
Ġv or
Ġtr ig
Ġlat tices
Ġm ir
Ġsurve ys
Ġabs ol
Ġmodel ing
Ġopp osite
Ġ200 9
Ġsupp ressed
b a
Ġu til
Ġinvol ving
Ġextrem ely
Ġdescrib ing
Ġt ree
Ġhub ble
Ġsecond ary
Ġweak ly
Ġsuit able
Ġsh e
in ement
Ġmulti pl
Ġin str
m c
ub e
_ {\
Ġto o
Ġref lection
Ġneighb or
Ġdiscover ed
are st
Ġsupercon ductivity
Ġvi ol
Ġrot ational
Ġgre at
r ical
aw a
Ġcomp uter
nt z
rib ute
Ġcatal og
Ġdiscover y
Ġsub s
( \
le t
Ġfor ward
9 5
Ġanaly tically
Ġlore ntz
Ġis ing
Ġrel i
Ġrepro duce
Ġinsul ator
Ġad op
ig u
og en
Ġ ^
Ġeng ine
Ġinter val
Ġ20 13
Ġcyc le
b les
Ġhyp oth
Ġsem icon
Ġg hz
tiz ed
tim es
Ġfraction al
Ġpar ity
Ġed ges
pl er
Ġsur round
Ġapp lying
Ġisotrop ic
9 1
Ġmath ema
Ġb ond
Ġdri ving
Ġscenari os
th is
Ġform s
Ġmod ulation
Ġapproxima te
Ġoscill ator
Ġma king
Ġwh ole
Ġstar ting
Ġdeterm ination
Ġf ron
el i
. ,
en berg
Ġschem es
Ġlong itud
Ġsemicon duct
ma t
ber t
Ġcandid ates
l ap
Ġon to
Ġstra in
o res
Ġburst s
Ġcal ib
Ġphotometr y
Ġcandid ate
Ġcolum n
Ġquantit ative
Ġsuccess ful
Ġasy mmetric
Ġaltern ative
Ġfluctu ation
Ġbarri er
ro t
Ġmetall ic
Ġsect or
p i
Ġhadron ic
Ġst abil
9 3
Ġne arest
Ġinclu ded
ul a
c ing
id el
Ġc e
Ġg er
k ov
Ġfil ter
Ġc odes
Ġar ch
Ġre ference
Ġrespon sible
Ġprec ise
ometr ic
o si
Ġunderst ood
Ġprog ram
Ġlogari thm
Ġw in
Ġtreat ment
Ġpres er
um ents
Ġus ually
Ġb r
Ġmeasure s
Ġwave gu
k er
Ġsupp ression
Ġle ar
Ġtrans form
Ġbro wn
Ġop t
Ġiden tical
Ġplanet ary
Ġcluster ing
9 2
a i
Ġcryst als
Ġar ticle
Ġsingle t
Ġref lect
Ġti ght
Ġv ers
Ġcru cial
it ed
ic ular
Ġbran ch
9 6
Ġm n
Ġ2 5
Ġdetect ors
Ġdire ctions
Ġp en
f s
w ave
Ġz one
Ġ4 0
Ġar ise
Ġsupernova e
Ġempir ical
et a
Ġsitu ation
Ġgener ate
Ġsimul ated
g roup
Ġd ur
Ġsc re
par ti
el ess
l ig
Ġgr b
Ġoptim ization
Ġfour ier
Ġpan el
Ġglob ular
Ġachie ve
9 8
p ite
Ġde formation
pl an
Ġspec if
Ġconfir med
Ġabsol ute
9 4
Ġw ar
Ġne ver
Ġaff ect
Ġcomp osition
Ġpo or
Ġincor por
Ġaverag ed
Ġdiscus sion
rang ian
b o
Ġf ail
. -
Ġkn owledge
Ġs ens
Ġw ords
Ġits elf
oid al
Ġa way
Ġcan onical
Ġtim esc
pend icular
Ġre ce
Ġper pendicular
Ġtheore tically
Ġlens ing
Ġlag rangian
Ġvir t
ul ated
it ing
Ġposition s
Ġ0 5
Ġconclu sion
Ġd one
Ġm ut
Ġfit s
9 7
Ġcommun ication
Ġsimultaneous ly
Ġdisorder ed
Ġpro ject
Ġfra gment
magn etic
Ġbran ching
Ġillust rate
Ġrul es
Ġsp aces
Ġsub str
Ġnatur ally
Ġlongitud inal
Ġ200 7
Ġco st
Ġproj ection
Ġit er
Ġdispl ay
ra tic
Ġcomput ing
on t
Ġconf ined
Ġellip tical
Ġsuperconduct ors
Ġma ch
Ġsuscepti bility
Ġti d
Ġfinding s
Ġs ense
Ġf r
Ġpro te
Ġbound ed
Ġtra pped
Ġre duce
l at
Ġd ed
Ġd il
Ġpar ts
Ġindic ating
Ġsph ere
e q
re l
om eter
Ġmain ly
Ġcomb in
j ection
Ġst age
Ġconstra in
Ġdevelop ment
Ġthick ness
Ġb h
Ġdes pite
Ġdefini tion
Ġlabor atory
Ġbott om
Ġobserv able
ap e
Ġresi du
Ġexpl an
Ġg over
Ġwor ld
igh ts
Ġunit ary
li ke
Ġus a
Ġs izes
Ġgre ater
Ġprocess ing
Ġext in
og onal
Ġrec o
0 1
u ed
Ġsp read
Ġres is
Ġtre nd
Ġcontain ing
Ġis olated
u g
Ġrem n
Ġconser v
Ġsp an
Ġ200 6
Ġtop ology
Ġinter stellar
Ġevolution ary
Ġpur p
Ġmix ture
tif ic
Ġd est
Ġof fer
Ġm s
Ġa ds
Ġembed ded
Ġantifer romagnetic
or g
Ġsuperconduct or
n on
Ġ2 1
Ġcm b
Ġimplement ation
ic ated
Ġmes ons
Ġreve als
g raph
Ġex ceed
Ġallow ing
p a
Ġcharacter ize
Ġlumin ous
Ġc ub
Ġin elastic
Ġen velop
id den
Ġeigenval ues
Ġp d
Ġin si
Ġrapid ly
Ġcoll abor
Ġd ig
Ġconstra ined
Ġcirc u
Ġstar burst
Ġcapac ity
i re
Ġcryst all
p ly
Ġspace time
Ġpar am
ic a
Ġneg lig
Ġassumption s
Ġneb ula
f e
Ġover lap
e ger
Ġexc ell
Ġho pping
Ġwi re
Ġsuggest ing
Ġsynch ron
0 2
que ez
for mal
Ġreal ized
Ġacc oun
Ġreaction s
c m
z e
Ġsol ving
Ġbro ken
Ġmolec ule
Ġ1 8
Ġlar gest
Ġphenomen ological
Ġis m
ap s
Ġdiff use
Ġinitial ly
Ġatt ention
Ġmir r
Ġorient ation
Ġspecif ically
Ġdop ed
Ġextract ed
Ġplan ck
Ġeigen st
Ġcell s
Ġs queez
Ġcha otic
ist ance
Ġb ath
Ġmeas uring
Ġorth ogonal
our s
uc l
Ġdef ects
Ġver tical
Ġevalu ate
Ġ200 0
Ġl ack
Ġbo x
b l
Ġver tices
= "
Ġn ode
Ġorder ing
b ard
ar se
Ġpossi bly
Ġmathema tical
Ġdecomp osition
Ġmod er
Ġep och
Ġdi electric
Ġto ward
Ġhydrod ynamic
b r
Ġextin ction
Ġar ising
Ġn a
Ġch eck
Ġt ests
Ġoptical ly
Ġphoton ic
Ġoper ation
Ġhub bard
Ġsingular ity
Ġpl ate
Ġpoly mer
Ġb or
it ted
Ġappl ic
Ġfil m
Ġbeam s
Ġcross over
Ġra re
Ġmajor ana
Ġtraject ories
Ġloc ation
Ġmon it
Ġd ots
Ġint eger
Ġop tics
Ġconve x
y si
Ġ1 7
ac ing
Ġ2 4
Ġinvestig ation
Ġannihil ation
Ġf all
Ġdispl ace
g ers
Ġextre me
is enberg
Ġcont ent
Ġdevi ation
Ġstudy ing
Ġi a
Ġar ises
Ġquad ratic
d el
Ġide a
Ġsupersy mmetric
Ġd ays
Ġma pping
Ġf ore
Ġplan ar
Ġfill ing
Ġtid al
ati ble
Ġform ulation
her ence
Ġexp ressed
Ġsuper p
Ġwavelength s
Ġpub lish
Ġe u
im eter
Ġ200 5
Ġlinear ly
Ġcurrent ly
Ġc u
ran ge
Ġhal os
Ġmon ot
Ġevalu ated
id s
i th
os p
Ġsy mmetries
Ġwork s
ure d
ds s
Ġinterpre ted
Ġp b
Ġre ad
Ġexpon ents
Ġwr itten
il ities
Ġrep e
Ġexcell ent
Ġhe isenberg
Ġra man
Ġneglig ible
qu ark
Ġcollid er
Ġhyb rid
Ġturbul ent
ren ce
Ġp ast
ren ts
Ġunder go
gal actic
Ġger man
Ġmac roscopic
Ġfain t
Ġsol ved
Ġinc om
Ġhypoth esis
ti ma
Ġt able
ru p
Ġstre am
Ġconsist ing
Ġatt ractive
Ġquas ar
Ġst at
Ġbrief ly
Ġcomp ton
Ġsub t
Ġinteg ration
Ġ ul
a ves
Ġstrong er
Ġtw ist
Ġdamp ing
Ġad m
. [
it al
Ġl itt
Ġprovid ing
Ġab el
Ġox y
qu ent
Ġang les
g ra
Ġk in
) -
Ġf ru
v ent
Ġtransi ent
k in
rid ge
Ġs dss
Ġn i
Ġv ic
en di
ib ility
olog ies
is s
Ġdecre asing
Ġre duces
Ġcomb ining
Ġwe yl
Ġval ence
Ġcompan ion
Ġdeco herence
Ġun kn
Ġobserv atory
r ations
Ġre fer
/ @
Ġcomple ment
osi ties
Ġmanif old
. (
j ected
us ing
os c
Ġ20 14
p o
Ġcon formal
Ġsur pr
Ġpro gen
l im
Ġcom pl
Ġco res
Ġemploy ed
Ġpl us
Ġquantit y
Ġfermion ic
um ber
ous ly
for med
Ġchang ing
Ġimplement ed
Ġreveal ed
Ġrem ov
Ġasp ects
Ġastrophys ical
Ġf as
Ġt as
Ġini ti
Ġoxy gen
tic les
Ġprac tical
Ġir re
Ġfil ms
Ġp ut
Ġsum ma
Ġj oint
Ġsampl ing
Ġlumin osities
Ġpuls ars
Ġkinematic s
or tion
Ġb all
Ġout burst
Ġcon duction
Ġout side
Ġcy cl
Ġcre ated
Ġlitt le
Ġo ct
Ġdi amet
Ġtrig ger
Ġp r
Ġinequ ality
Ġstrate gy
Ġprogen it
op h
Ġtur ns
Ġrough ly
Ġstra ight
rot ron
Ġabel ian
Ġhist ory
Ġext ensive
Ġch and
Ġlet ter
Ġvanish ing
Ġsignature s
Ġb ell
Ġsh ifts
Ġcur rents
Ġinst ance
Ġessential ly
Ġsolit on
Ġpublish ed
is son
Ġfi ber
Ġcont ribute
Ġer g
Ġcub ic
ding er
Ġmu on
Ġpar tition
Ġmo ve
Ġir on
Ġloop s
Ġalgebra ic
Ġis ot
Ġsn e
c u
Ġn s
Ġs ight
Ġm c
Ġsim ply
Ġadvant age
Ġrevers al
Ġmem bran
Ġboson ic
Ġa ctu
it ter
v a
Ġinst ant
Ġtest ed
Ġmat ching
Ġvari ance
Ġcross ing
Ġconver sion
Ġexpect ation
Ġex cept
ri al
Ġac ous
ap or
Ġq d
Ġellip tic
Ġunkn own
Ġseem s
Ġt end
Ġloc ally
Ġrepresent ed
l ic
ond o
Ġsc an
in ity
Ġstar t
Ġprob abilities
Ġdegener acy
Ġcon j
Ġconf inement
Ġqualit atively
al y
Ġmer ger
Ġg old
Ġsolit ons
12 5
Ġhe ight
Ġsynch rotron
os ing
Ġfron t
Ġb ur
Ġm g
Ġpredic ts
Ġpower ful
Ġb ub
Ġcar ry
um ps
Ġac cess
Ġlife time
Ġhel ium
a de
ex ist
h ar
Ġreg ard
Ġdo ub
Ġtechn ology
ra di
Ġpos s
Ġsurpr ising
Ġs r
ol es
Ġvari ational
Ġexplan ation
th eless
Ġprinci ples
Ġf idel
Ġper c
ul l
Ġsch r
Ġener ge
Ġexcit on
Ġfra ct
) \
0 3
Ġstri p
Ġresis tivity
Ġhigh est
Ġpseud o
Ġsubstr ate
Ġbound aries
Ġpers ist
Ġse quences
Ġvirt ual
Ġdiff u
Ġf u
Ġf m
Ġmath ematic
h d
Ġo ld
Ġcoordin ate
Ġres our
Ġk ondo
Ġlogarithm ic
er a
Ġsatisf y
del ta
_ #
Ġin ferred
Ġvor tices
Ġgener ating
Ġsatur ation
Ġdomain s
10 1
Ġoper ations
Ġhol ds
Ġpurp ose
Ġpo isson
Ġaff ected
g r
Ġis o
Ġtun ing
parti te
Ġp ec
w are
Ġmoment a
we ak
Ġgeneral ization
Ġco vari
if ted
ole t
Ġpartial ly
c ation
Ġshow ed
Ġunit s
ent ric
Ġtriple t
Ġus es
Ġvis ible
bol ic
Ġd rop
Ġanalys es
Ġnormal ized
Ġpo in
Ġvect ors
v o
ass ical
Ġdiff raction
Ġ200 3
Ġins et
Ġauth ors
r ich
Ġco p
Ġdur ation
Ġcomp e
Ġcomp atible
Ġconc er
Ġstep s
w ell
od al
ad ing
Ġh eter
ra ble
Ġproj ected
z z
Ġcon e
Ġon ce
d le
Ġparam etric
Ġb if
Ġflux es
b ur
Ġk ind
Ġstrength s
il bert
Ġ200 4
Ġcarri er
Ġinvari ance
Ġreason able
Ġmorph ology
Ġacous tic
en ed
Ġdeterm ining
Ġatt em
Ġinhom ogeneous
Ġconf idence
Ġenvelop e
Ġs al
Ġcan c
Ġbel ong
os cal
Ġt a
Ġb il
Ġinc ident
Ġillust rated
Ġmed i
Ġschr dinger
g reg
m o
11 1
Ġal ign
Ġar c
Ġnan o
in a
iv ed
Ġsurround ing
Ġco exist
re ct
Ġp in
Ġ9 0
Ġatt ract
Ġfragment ation
Ġgerman y
Ġres ol
Ġl ang
Ġdenot es
Ġatmosph ere
Ġinstr ument
2 00
Ġdesign ed
Ġposs ess
Ġdevi ations
Ġag ree
tit le
Ġfru str
b f
Ġvisc osity
h o
10 2
Ġvers us
ul arities
Ġwave function
sp ace
} $
Ġh d
Ġperiod s
Ġsepar ate
Ġtra ce
Ġf ran
Ġderiv ative
Ġdenot e
Ġmed ia
Ġdiscre p
Ġwi l
Ġlimit ing
Ġinver sion
Ġqualit ative
Ġastronom y
ti sm
Ġb ig
Ġapproximation s
m ma
Ġelectro weak
Ġpro ved
ak e
Ġmirr or
Ġpro duces
Ġlear ning
Ġf amil
Ġb ase
si gn
ul ate
Ġeff ectively
Ġmo tions
Ġsur vi
Ġwidth s
Ġatmosph eric
b ig
Ġcent re
b ar
k o
Ġv l
Ġfidel ity
a im
Ġrec ur
Ġgiv ing
Ġ200 2
Ġvic inity
Ġb en
ar ity
Ġexponential ly
. +
Ġwid ely
Ġimp ly
Ġintro duction
Ġb a
Ġconse quently
Ġf ab
Ġcoordin ates
Ġsatell ite
c ome
c tive
Ġorbit als
Ġdes i
Ġext ent
Ġrestric ted
Ġreconst ruction
t ri
her ent
Ġextra p
Ġf av
Ġb es
ate g
pl ay
ema tically
v in
Ġa ir
Ġm ention
Ġor d
Ġen ables
Ġbif ur
Ġc am
ric tion
Ġreconst ruct
ograph y
Ġun us
Ġpri or
Ġiss ue
Ġchand ra
ers on
Ġsupplement ary
Ġc are
Ġprob ably
Ġprop os
Ġcriter ion
g g
Ġeq s
Ġc s
Ġsimilar ly
Ġquasi particle
Ġwavegu ide
Ġpres ents
Ġrepul sive
Ġshap es
x iv
Ġdef ect
Ġcomp osite
Ġidentif ication
Ġpar a
Ġsumma riz
Ġpec uli
m ing
gn er
Ġprec is
Ġremain ing
Ġpl ays
Ġpure ly
Ġ2 3
w ing
Ġm i
Ġtra ck
yp e
Ġs k
Ġsoc ial
Ġmil ky
Ġmotiv ated
Ġmodel ed
Ġac kn
b h
Ġn ational
ator ial
Ġclos ely
endi x
Ġc n
vi olet
Ġmathematic s
Ġa z
Ġun til
10 4
ici ties
Ġhorizon tal
Ġfollow ed
om er
Ġemit ted
w er
Ġappear ance
Ġc ause
Ġexam ined
Ġultra violet
Ġfas ter
Ġdiamet er
Ġcomp osed
Ġsil icon
eli hood
Ġon set
Ġweight ed
Ġker nel
m ers
Ġran k
Ġrelati vity
Ġnon loc
Ġl an
Ġelect rical
Ġtra c
Ġlik elihood
Ġt et
Ġmod ification
Ġsuperp osition
ol i
a gn
u i
Ġmem bers
Ġvalid ity
Ġconserv ation
0 6
Ġcut off
Ġl abel
Ġwind ow
osp in
Ġdet un
Ġpre p
Ġprom ising
Ġinter play
g ent
Ġarg uments
Ġbol tz
le tt
Ġh idden
Ġ esc
on a
Ġh ilbert
Ġan n
Ġmagn itudes
Ġeigenst ates
Ġprecis ely
Ġlength s
Ġswit ching
w s
Ġfl are
0 4
Ġcharacter ization
Ġtr un
ax ial
Ġinv olved
Ġtra dition
Ġlo ok
Ġfit ted
Ġgap s
p oint
Ġh st
ra ys
10 6
it ely
Ġman ip
Ġprog ress
Ġcollabor ation
Ġe cc
ther mal
Ġrec omb
Ġreal ization
Ġapp endix
Ġke ep
Ġion ized
Ġcre ation
Ġconse quences
Ġass ess
Ġanalog ous
Ġscal ed
it a
Ġax ial
Ġhyper bolic
r ates
Ġboltz mann
Ġst ack
Ġbul ge
} )
Ġf ine
op ic
Ġindic ated
Ġadap tive
an s
un g
for d
Ġpropag ating
ort un
Ġass em
at z
Ġactu ally
Ġg yr
Ġfl av
Ġ9 5
l ight
Ġj ose
Ġgo al
Ġaccur ately
Ġ200 1
et ers
Ġv s
Ġbran e
Ġintro ducing
Ġph ysi
Ġperc olation
Ġreson ator
Ġgr bs
Ġband width
Ġpre lim
Ġform er
Ġmoder ate
Ġ199 8
Ġsubs tit
Ġc f
Ġun like
ph a
Ġfe as
b ody
Ġno tion
Ġ\ \
Ġwal k
Ġ199 9
Ġd ay
Ġresidu al
i ver
Ġmax im
Ġr g
Ġran ging
Ġtre ated
Ġse y
Ġparamet riz
Ġsing ularities
10 5
Ġ20 15
Ġjose ph
Ġf le
Ġ2 2
10 3
10 9
Ġsubse quent
Ġf avor
osph ere
Ġasympt o
Ġgr ant
w w
ol l
Ġeigenval ue
Ġcol ors
Ġvanish es
Ġsemiconduct or
Ġp ie
Ġinstit ut
el s
el d
ce ption
Ġcl aim
for ms
Ġsearch es
Ġmanif est
Ġscre ening
ap an
Ġup d
Ġenviron ments
Ġelement ary
Ġdisplace ment
ot e
iz able
Ġrepresent ations
Ġdetermin istic
Ġdig ital
Ġe cl
or di
s es
st em
Ġdirect ed
Ġcompound s
Ġc ateg
Ġrun ning
Ġima gin
Ġmark ov
non umber
) (
, ^
Ġgra ins
Ġal ice
Ġcal l
Ġaut oma
Ġcircu it
u ple
Ġd c
Ġsub m
Ġreli able
Ġord inary
Ġtra pping
es ian
g re
Ġb ay
Ġpar ad
Ġinvol ves
Ġj apan
Ġpath s
Ġnever theless
Ġimagin ary
10 7
Ġ3 5
Ġarg ument
Ġm hz
Ġnon tri
Ġti l
Ġdisc rim
Ġ0 3
Ġh und
Ġd ro
Ġg ates
Ġex otic
Ġinst abilities
Ġded u
Ġg ran
Ġde ple
Ġpro x
Ġunivers ality
Ġremark able
Ġas sign
Ġindepend ently
Ġadj ust
ma ly
Ġprelim inary
Ġecl ip
Ġprin c
Ġprim ordi
ur ities
Ġlaw s
Ġtim ing
Ġano maly
Ġcover ing
Ġra m
Ġ8 0
Ġjoseph son
ph i
Ġmar gin
Ġsey fer
Ġm ott
ch ang
Ġprimordi al
ut es
Ġexpand ing
Ġg ases
Ġtrans l
Ġindic es
g ments
Ġi v
Ġeffici ently
an o
Ġ0 4
Ġdri ve
Ġshock s
Ġinterfer ometer
Ġd na
ces sible
Ġsupp ress
r ational
Ġimp urities
.( [
Ġcoun ting
physrev lett
l ayer
omp an
Ġasympto tically
Ġf ock
Ġother wise
ok es
Ġmer gers
Ġk a
Ġbl och
h l
Ġrh ic
h ed
Ġevalu ation
Ġrepro duced
Ġremark ably
st ra
Ġwh y
Ġexper i
Ġtet ra
Ġs ed
Ġsci en
f act
Ġwi gner
Ġderiv ation
ont inu
Ġacc ompan
Ġthere by
Ġti p
Ġpro ceed
Ġ rie
Ġdissip ative
Ġnontri vial
ruct ure
Ġman ner
b ilities
qu et
Ġextend ing
osph eric
Ġplot ted
. .
Ġit aly
Ġdisc ontinu
Ġdi vid
Ġinc l
Ġbe gin
Ġel im
Ġzh ang
ub es
Ġ6 5
Ġads or
ig m
Ġmass less
Ġcol our
Ġfig s
Ġtor us
r t
Ġphys ically
al ing
_ -
th ers
Ġab ility
Ġintegral s
Ġst range
Ġun f
Ġhe x
Ġatt ributed
Ġdis app
Ġro ot
Ġ7 0
Ġnew ton
12 0
Ġsus y
en cies
Ġcom es
ati ves
Ġdri ft
Ġproton s
Ġviol ating
Ġlink s
( @
Ġcalcul ating
Ġb cs
Ġh app
Ġtransformation s
Ġwall s
Ġdeco upl
10 8
Ġbroad ening
Ġst ric
Ġpolynomial s
Ġs d
Ġan ten
Ġcommon ly
Ġsuper c
Ġpotential ly
Ġar ri
Ġconclu sions
Ġqu ies
Ġin fer
Ġt ension
Ġcalib ration
o plan
Ġint ra
Ġexpl ored
Ġsyst ematically
g low
Ġf usion
Ġmax well
Ġf riction
ec ti
Ġconsist ency
Ġcondens ates
Ġres er
Ġob vious
Ġques tions
Ġ ri
Ġw ays
Ġfocus ing
Ġo thers
Ġrecomb ination
end ing
Ġar xiv
Ġy ang
ex p
ine ar
ic l
ell ing
Ġspect ro
Ġeas y
Ġimprove ment
Ġremn ant
Ġpeculi ar
Ġp ron
un e
Ġgeometr ical
Ġcenter ed
Ġact ual
z ero
Ġm im
11 5
Ġproduct s
Ġcorrespond ence
Ġsuccessful ly
Ġcomm ut
Ġref s
Ġsubstantial ly
Ġh erm
Ġc up
Ġro s
ad es
00 1
Ġl ies
Ġmajor ity
11 2
Ġoscill ators
Ġconn ect
al es
Ġv aries
Ġmin or
Ġke pler
Ġafter glow
Ġemplo ying
i k
er es
om ic
Ġy r
chan ical
tif ied
Ġphon ons
Ġdiffu sive
Ġin er
Ġtriang ular
Ġrie mann
Ġo h
Ġal one
Ġexp ress
Ġcondens ation
Ġbal ance
Ġapplic able
avi ties
] @
a der
Ġsh or
ometr y
Ġ199 6
Ġinsul ating
Ġus er
Ġ2 20
Ġmet als
Ġslow ly
Ġmembran e
Ġde ph
Ġcirc le
Ġtimesc ale
Ġstric t
p ective
Ġcriter ia
Ġiss ues
Ġseyfer t
Ġmain tain
a di
o y
Ġcontr ary
Ġquantit atively
Ġ199 7
Ġreach ed
Ġcompl icated
en ced
Ġf ri
Ġf lo
Ġinclu sion
Ġvis ual
Ġthrough out
vect or
Ġhierarch ical
st atic
Ġsimpl est
s r
w o
on es
Ġdat as
Ġgra in
Ġp as
ot o
Ġst okes
Ġdist ant
Ġm el
im uth
o vi
Ġm yr
ion ization
Ġquad rup
Ġdim er
Ġconj ug
for ward
go ing
Ġprom in
Ġmost ly
Ġsatisf ies
Ġaz imuth
Ġd a
Ġvib rational
Ġconstit u
Ġcircum stellar
Ġdisapp ear
Ġco ur
Ġdi v
Ġchar m
Ġste ep
Ġcre ate
Ġacceler ated
m u
Ġob e
Ġfra ctions
Ġtraject ory
Ġlang u
Ġprog ra
Ġcho ose
Ġmat ch
Ġevol ve
Ġin duce
Ġbrown ian
it ron
Ġse lect
Ġso und
Ġno va
our n
Ġsupersy mmetry
^ {\
ver si
Ġres istance
ruct ures
Ġcaus es
ti ll
ch e
Ġult rac
lin der
Ġquantif y
d is
r ating
Ġc um
Ġquan tization
Ġshap ed
Ġbo b
Ġno tice
Ġrapid ity
b m
or ous
Ġret ur
Ġac qui
Ġb are
Ġext ends
Ġdeph asing
Ġw ang
om etries
oun ced
Ġtool s
vo ir
Ġt ang
equ ilibrium
Ġengine ering
s k
Ġet c
Ġhar t
Ġnan ot
Ġsupplement al
Ġrig id
Ġreser voir
Ġd ate
Ġl ist
ow ski
de pend
Ġmean ing
Ġexplo sion
} (
icl assical
Ġcounter par
vi ties
Ġp n
el ine
ific ations
Ġmulti p
st ract
si vely
Ġnon zero
Ġ ill
Ġm hd
Ġr ational
Ġran ges
o ul
Ġconcer ning
Ġd on
Ġg rid
y d
Ġ ve
Ġma ster
Ġ2 6
Ġl ying
Ġun ity
Ġag es
Ġbes ides
m es
o ft
Ġpl aced
Ġar m
Ġemer gence
Ġprinc ip
Ġsh all
Ġj ump
Ġecc entric
Ġch rom
Ġz ee
Ġsci ences
Ġchar ges
Ġbi ological
Ġanalyz ing
Ġneed s
Ġfill ed
Ġn ull
Ġdis s
Ġthermod ynamics
am e
ome ga
Ġcondens ed
Ġad ded
Ġe ject
Ġsp her
Ġtradition al
Ġch ern
Ġr ings
Ġnecess arily
Ġadv anced
Ġfract al
Ġs a
ss m
Ġac cessible
Ġemit ting
Ġalign ment
Ġpos itron
Ġp p
se c
Ġ3 00
Ġgra du
Ġf air
il d
Ġagre es
Ġstrate gies
Ġker r
Ġsh ifted
Ġ9 9
Ġquen ched
Ġcounterpar ts
Ġt en
Ġn at
Ġdist ortion
Ġc ern
Ġag b
Ġmagnet o
Ġres em
Ġcare ful
Ġp u
Ġsimul ate
0 8
al ities
Ġcont ribut
Ġperform ing
Ġunus ual
Ġp at
Ġsu d
Ġr f
Ġdiscus sions
Ġsum mary
i ent
Ġis ospin
Ġr us
Ġinclu sive
Ġpri ma
im ity
Ġ7 5
Ġpre fer
Ġloss es
Ġscatter ed
Ġcy linder
i tion
Ġare as
ynam ical
Ġcoun t
Ġsym bol
Ġh et
Ġcrystall ine
sy stem
Ġm ess
Ġdi agn
Ġaddition ally
Ġmon op
Ġstraight forward
Ġprox imity
Ġsh ad
w a
Ġe ucl
11 3
Ġinsi ght
Ġl ad
Ġconsider ably
Ġgrow ing
itz er
Ġmention ed
Ġin duces
Ġte x
Ġso uth
Ġcoun ts
ad a
ther n
Ġreach es
ma nd
c ence
Ġge odes
Ġtun ed
Ġm pc
Ġgam e
Ġshor ter
Ġcomp r
c n
Ġsome wh
Ġinteresting ly
Ġact ing
Ġtas k
Ġpo le
Ġhadron s
Ġpron ounced
Ġcompe tition
Ġmedi ated
Ġm ig
Ġl s
Ġrandom ly
Ġpro ducing
Ġpre par
Ġconsider able
Ġbehavi ors
Ġcounter part
j ective
ul er
igh ter
ec ond
Ġfactor ization
Ġdetermin es
Ġans atz
Ġmis sing
Ġmo bility
Ġacc um
Ġsch war
sy mmetric
Ġorient ed
i vers
Ġh op
Ġob sc
Ġun ified
Ġexpl or
Ġweak er
Ġstring s
omorph ic
Ġfamil ies
Ġmon ol
Ġcyc les
Ġstre t
Ġprogra mm
ma s
Ġsp acing
Ġequival ence
ab ol
t in
Ġf ish
Ġand erson
Ġcol lected
oc al
11 4
Ġzee man
Ġpres c
Ġconsist ently
Ġsignific ance
Ġinvariant s
Ġaff ects
Ġdemonstr ates
Ġcirc les
Ġnon equilibrium
Ġnum er
Ġsub set
Ġtra vel
- \
Ġs s
iel d
i ous
romagn e
Ġelim in
Ġcl ump
Ġinfin ity
Ġevent ually
Ġal igned
Ġar rays
ev ed
Ġcor onal
Ġnew tonian
Ġconve ction
Ġmonit oring
Ġkn ot
Ġne matic
Ġdynam ically
Ġprotocol s
Ġjunction s
Ġp ix
ar ding
Ġinter ior
Ġro om
Ġ ign
Ġthough t
ag onal
Ġimp lying
ĠĠĠĠ ĠĠĠĠ
ca de
Ġoutflow s
Ġ ice
Ġnan op
Ġfil ament
l as
Ġhigh light
Ġbuil ding
Ġprincip al
v als
Ġobserv ing
Ġrec ord
uk awa
Ġprogenit or
Ġb ir
et ing
Ġfl ares
Ġu k
Ġcap able
Ġgrow s
Ġdiscrep ancy
Ġs gr
Ġgu ar
amb da
Ġex ception
g am
Ġh old
Ġdiver gence
Ġwar m
Ġh is
et o
Ġcarri ers
Ġbay esian
Ġst or
Ġesc ape
Ġh z
Ġsp itzer
Ġsqu ares
Ġmanif olds
Ġcorrect ed
v s
Ġreco gn
h at
ff er
elect ron
Ġhydrod ynamics
Ġge ometries
ide an
Ġun con
g ely
Ġ ur
Ġcomp res
Ġaf m
Ġtelesc opes
Ġhierarch y
ma tically
. \
Ġac tiv
Ġen rich
Ġsimilar ity
Ġbub ble
Ġcon v
Ġsitu ations
Ġwil son
ovi an
Ġeucl idean
Ġevol ving
Ġsomewh at
an cies
Ġinter p
Ġlar gely
Ġte le
Ġdesi red
f ine
id ing
Ġcl ar
Ġdi am
Ġspher es
} ,
Ġc avities
Ġkn ow
Ġbifur cation
Ġscien tific
Ġeject a
Ġdiagn os
Ġlad der
Ġt m
Ġus ers
Ġfab ric
im ir
Ġvi rial
Ġunivers it
Ġhamiltonian s
Ġcle an
Ġbuil t
Ġe ight
em ents
Ġprote in
Ġgover ned
d m
Ġenc oun
Ġsynth esis
Ġguar ant
Ġpa uli
Ġ9 8
Ġsky rm
Ġiniti o
Ġc oding
Ġto m
ome chanical
Ġdomin ates
d ay
Ġy ukawa
b ing
Ġbl az
Ġinvestig ations
Ġinsul ators
s ed
ogene ity
Ġgradi ents
Ġhu man
} _
Ġquan tized
Ġrepresent ing
Ġdispl ays
Ġr r
Ġasy mmetries
Ġdip olar
Ġnonloc al
in ite
Ġt s
Ġam bi
Ġagn s
Ġrepul sion
Ġwin ds
Ġm or
Ġst ages
ph ot
Ġad ding
Ġ0 2
duc ible
Ġmodel ling
Ġac cept
Ġdop pler
Ġev olved
Ġd ic
im et
ist ry
k a
Ġtest ing
Ġsimpl ified
Ġcour se
od ed
per turb
Ġne u
bur g
Ġdro ple
i mal
ro matic
Ġdisc s
Ġide as
Ġcom e
Ġchallen ging
Ġsp arse
Ġinequ alities
Ġhe p
Ġschwar z
en ti
Ġref lected
Ġperm ut
Ġn n
Ġl mc
Ġneg lect
Ġrepro duces
Ġbor n
Ġultrac old
es h
11 6
Ġindi rect
Ġdual ity
ti an
Ġd ft
ur ate
Ġse p
Ġun b
ni a
Ġgo es
wh ere
Ġazimuth al
Ġno is
ri ly
Ġconsider ation
Ġkn ots
Ġmut ual
Ġstor age
Ġg s
Ġobtain ing
it ect
Ġver ify
Ġq s
Ġwr ite
Ġsqueez ing
si l
Ġwe ights
Ġuniform ly
Ġcas imir
Ġchallen ge
Ġbon ds
,^ ,^
Ġper cent
Ġh a
Ġcomp ression
Ġnonlinear ity
Ġsn r
Ġhyper fine
Ġsimpl icity
Ġoptim ized
Ġplate au
Ġsurprising ly
Ġp t
Ġcom ing
reg ular
osc opic
tif ication
Ġpolar it
Ġbi partite
ag ger
Ġcondition al
Ġderiv atives
Ġarch itect
l ind
Ġobser ver
Ġt er
ell an
Ġev apor
Ġ4 7
Ġfl ip
Ġpump ing
Ġcam era
0 9
ac tive
Ġag greg
Ġsem iclassical
Ġformul as
Ġly man
Ġcha os
Ġadj ac
Ġcont in
Ġpre d
Ġsquare d
Ġin jection
Ġm y
* {
os es
Ġte xt
s ph
ĠĠ ĠĠĠ
Ġbuil d
Ġsynth etic
gre di
Ġline width
Ġflu ores
Ġcy lind
Ġpropag ator
0 7
Ġin gredi
le in
Ġproper ly
Ġgeneral ize
Ġdetect able
Ġsynchron ization
p olar
Ġc us
Ġb ri
Ġb ene
Ġaverag ing
Ġ2 9
Ġvisc ous
y a
Ġbary ons
Ġmark ed
ograph ic
Ġhyb ri
z y
Ġanaly se
Ġon line
Ġpow ers
Ġinc omp
Ġsatisf ied
Ġextension s
11 9
Ġmet ast
Ġbreak s
Ġe uler
Ġn it
Ġadop ted
Ġprima rily
d own
al ed
un ov
11 7
Ġsupp orts
Ġplas mon
Ġprep ared
Ġquies cent
Ġt ends
at ron
Ġ1 10
ec tivity
Ġpl at
Ġmag ellan
Ġfish er
+ \
Ġsub system
Ġr is
Ġextra galactic
Ġgreat ly
Ġambi ent
b all
s u
v ance
Ġ !
Ġ2 8
Ġx mm
Ġnan ow
Ġconser ved
gam ma
Ġb ars
Ġm os
Ġen able
Ġnew ly
Ġassoci ation
" ,
ax is
ura ble
Ġdot ted
Ġs tim
Ġh olog
am ents
par ticles
Ġarg ued
Ġestimat or
physrev b
tific ial
Ġan tic
Ġsatisf ying
Ġnor th
Ġackn owled
Ġoccur rence
Ġch en
Ġans wer
Ġincl ination
Ġd r
Ġar tificial
Ġinteg rable
Ġir radi
lat tice
Ġdep ic
Ġthan k
Ġgo ing
Ġdenot ed
Ġdiscrim in
Ġb an
Ġmo ves
Ġanal ogy
Ġenerge tic
Ġpromin ent
h am
m id
Ġt ube
lust er
Ġbeh ind
Ġstand ing
Ġdetun ing
Ġinter se
Ġdomin ate
Ġcombin atorial
Ġquadrup ole
_ _
r ho
Ġs ke
ero id
Ġlo ad
Ġemphas is
Ġbil ayer
Ġrele vance
Ġcover age
Ġtimesc ales
Ġde uter
Ġneg lected
Ġmini ma
Ġcas cade
if ying
di z
Ġdimension less
Ġhe avi
Ġnormal ization
Ġdouble t
Ġl ed
Ġr s
Ġint ensities
Ġ5 00
et ary
Ġbel ie
Ġtarg ets
Ġb ring
p ort
Ġb und
n ection
Ġacc om
Ġdat ab
Ġfour th
Ġsec urity
Ġsoft ware
o x
t ru
if ies
cd m
Ġval ley
ma p
Ġ3 7
Ġasp ect
Ġcomp ens
Ġmark ovian
i ma
Ġe lu
Ġis land
id ed
Ġapproxima ted
Ġfocus ed
[ \
Ġcl ock
Ġgener ates
Ġatt ach
Ġpara magnetic
c os
Ġoper ating
Ġst o
Ġma il
Ġde mand
Ġinter faces
Ġ199 5
Ġinvol ve
b re
el ves
adi ly
c p
} _{
Ġs ay
Ġk u
Ġac ad
rel ated
us h
ter ed
Ġimp osed
Ġag ents
tit y
Ġprot ot
Ġtev atron
in er
Ġsp ir
Ġcont am
Ġ2 7
Ġmod ern
Ġpossi bilities
Ġsf r
Ġhet ero
d ynamics
Ġrel ies
Ġampl ification
y c
Ġl ab
Ġcor ona
Ġreg arding
o ol
Ġo l
Ġne ur
Ġyiel ding
Ġstat us
f ill
Ġs itter
Ġint ense
Ġpa rent
12 3
Ġmer ging
re h
Ġinter s
ff ic
Ġj us
Ġspect rom
11 8
ucle ar
Ġcomput ations
Ġla pl
Ġensem bles
Ġrepresent ative
Ġmach ine
Ġlangu age
Ġhart ree
Ġexplain s
Ġauth or
Ġsatell ites
g ma
Ġin d
Ġnon e
Ġf is
Ġcontain ed
Ġgran ular
Ġa per
oscal ar
Ġsp ring
Ġresp ective
u de
Ġre qu
Ġinc ons
pt y
Ġdetection s
Ġaccompan ied
i j
r g
Ġspectro graph
Ġcum ul
Ġcommun ity
Ġmonot on
pl ess
Ġen ab
Ġtun able
Ġtrun c
Ġ %
Ġw ol
Ġm ission
Ġfound ation
Ġsol v
Ġoscill atory
Ġdecay ing
Ġopp ortun
f ield
Ġo wn
al low
al pha
Ġh b
il i
Ġint ui
Ġtor que
Ġholog raph
ces sion
Ġar rang
p e
Ġprot ost
lin k
Ġincons ist
Ġmod ifications
Ġne ural
Ġaccre ting
Ġcomplement ary
Ġben ch
ti vities
Ġembed ding
Ġprepar ation
Ġrec ip
Ġstri king
Ġc amp
Ġcent ers
Ġfil aments
omorph ism
Ġm ot
Ġg h
Ġpro sp
Ġtra ffic
Ġstatis tically
sch ild
Ġreview ed
Ġsubse quently
Ġhand ed
Ġlog ic
Ġsud den
Ġn l
Ġk h
Ġinter vals
Ġhel icity
Ġadd ressed
Ġproj ective
Ġcomp reh
12 2
Ġfluid s
Ġoccup ation
Ġb it
Ġle e
Ġpl au
Ġga pless
Ġcycl ic
Ġscan ning
Ġsub space
Ġappl ies
Ġindividual s
do i
Ġmultipl icity
ph e
13 0
Ġtopological ly
Ġemer ges
Ġd id
Ġj o
Ġhel ical
Ġpers pective
i o
Ġp y
Ġt al
esc ence
Ġm d
Ġver ified
Ġ |
os yn
Ġfe yn
Ġ7 4
Ġpoin ted
Ġdeple tion
f old
Ġse ven
Ġq ed
Ġview ed
Ġga as
Ġoccup ied
abol ic
Ġn odal
Ġarbitr arily
Ġbene f
Ġat tain
12 6
man if
Ġ8 5
Ġcomb ine
Ġrepl aced
Ġr u
Ġinc o
Ġstrict ly
Ġs we
Ġrele ase
Ġmodul ated
Ġclos er
Ġresol ve
n et
Ġ 00
Ġsqueez ed
y mmetric
op ed
Ġreal ize
Ġfran ce
l or
oid s
Ġmodul us
Ġdef ining
p m
} ^
Ġqu ick
Ġar p
Ġoscill ating
Ġcylind rical
Ġl d
Ġbe the
Ġr yd
romagn et
Ġoccur ring
Ġrequire ment
Ġquad r
Ġquen ch
Ġherm i
Ġbench mark
Ġp ort
Ġle g
ens urate
ar ds
Ġsu p
Ġalgeb ras
Ġemer ge
Ġe ch
ot ed
ap unov
Ġprob abil
Ġmetast able
12 4
Ġmic roscopy
^{ -
Ġcombin ations
Ġcoexist ence
Ġre ducing
si m
em ic
amb igu
Ġcd w
Ġresour ce
Ġar t
Ġcomparis ons
b or
Ġde con
Ġrel ate
Ġ3 4
Ġconnection s
Ġass ist
Ġtre es
Ġrobust ness
Ġs ig
12 1
Ġphenomen ology
Ġinstant aneous
Ġhybri diz
er os
Ġmagellan ic
Ġne ither
Ġunivers itt
Ġneighb oring
Ġrequire ments
ten ess
m ut
p ts
Ġs ad
ir ing
Ġabs ent
Ġmodul i
l ens
Ġra bi
12 7
Ġoff set
cep ts
chang ed
Ġbo h
t es
ensi vely
Ġevol ves
Ġl am
Ġprob ed
Ġ8 2
Ġmaximal ly
Ġexceed s
Ġd os
Ġnanop ar
an i
Ġbo ost
Ġdetect ing
Ġact s
) ^
k h
Ġp ions
Ġwh o
Ġra d
Ġemer ging
Ġoffer s
Ġphysi k
Ġf s
Ġv on
Ġlimit ations
Ġhar mon
Ġspan ning
Ġs lo
Ġidentif ying
Ġse gment
Ġbel i
Ġformul ated
Ġflav our
osyn th
Ġam b
Ġopen ing
Ġfrustr ated
ch er
Ġk im
Ġhex agonal
de part
Ġcomplex es
Ġcontinuous ly
a ult
Ġbo g
Ġpaper s
Ġshe et
b al
r b
Ġa part
Ġl ond
Ġr x
Ġneighb our
Ġremn ants
Ġde formed
Ġtechn ical
Ġp al
Ġz e
Ġrecon nection
Ġly apunov
Ġin ser
Ġl ut
Ġun ambigu
Ġrem o
Ġryd berg
Ġse qu
Ġtex ture
Ġfeyn man
h aps
Ġextra ction
Ġkin ds
ita ev
e an
n es
Ġper haps
Ġastrophys ics
Ġl b
Ġco uple
Ġtrend s
Ġbeli eved
Ġga pped
Ġrenormal ized
Ġop ens
ang le
Ġir regular
Ġtransm itted
Ġcontact s
Ġentire ly
Ġwe b
Ġplan es
m p
Ġco arse
Ġexclu sive
Ġn orm
k ed
Ġnucle ation
Ġperm it
Ġber ry
Ġdiam ond
Ġh f
Ġconn ectivity
Ġadvant ages
mas sive
h ol
Ġattem pt
Ġschwarz schild
' '
math rm
Ġresour ces
Ġr ash
Ġ3 2
Ġsmall est
Ġag o
Ġiden tity
Ġdisper sive
Ġsens or
Ġsub group
Ġax es
Ġser ve
Ġlan ge
ourn al
Ġhermi tian
Ġslo an
th eta
Ġdiffer s
Ġwork ing
Ġrash ba
c or
le pton
Ġse a
Ġk lein
Ġinter galactic
Ġim m
Ġprob es
Ġregular ization
Ġaccoun ts
tima te
Ġsh allow
Ġse ed
Ġ100 0
Ġanten na
Ġadjac ent
Ġde al
Ġcont ra
Ġam oun
oci ation
Ġatt ack
Ġconstruct ing
g iant
l ambda
Ġ4 5
Ġcoll inear
Ġemphas ize
Ġremov ed
Ġbri ll
Ġl ati
ut ing
vers ely
Ġcell ular
Ġreach ing
si gma
Ġj ac
Ġy b
12 8
Ġris k
Ġinter m
Ġ6 8
Ġelectro static
Ġpreser ving
Ġob jective
gh ts
Ġgravit ation
Ġexpect ations
Ġnois y
ĠĠĠĠ ĠĠĠ
Ġhel i
Ġfigure s
ma ss
od ies
Ġpre cession
Ġpoly t
Ġ199 4
Ġdiagonal ization
Ġlond on
Ġf ace
Ġj am
Ġj oh
Ġsl ab
Ġmagne tized
en kov
Ġb ill
Ġfluores cence
Ġl u
ut ed
de f
Ġim per
Ġso le
Ġsuc ces
Ġirre ducible
at a
Ġe ps
ah ed
Ġa ust
si vity
Ġmorph ological
Ġquen ching
Ġill umin
m n
Ġpl ots
Ġso u
Ġover come
Ġtriang le
Ġshad ow
Ġper i
Ġbas eline
Ġnucle ons
Ġatt en
c tic
c id
om eters
il it
Ġtrans lation
Ġrecover ed
Ġreconstruct ed
depart ment
in ter
Ġl v
Ġcon cepts
ates t
Ġprobabil istic
Ġw map
ro duction
Ġsp ot
ub ov
ip olar
Ġlink ed
Ġsubstit ution
Ġcup rates
ri pt
ver sible
Ġch ip
Ġequ ally
Ġ8 7
Ġfin an
Ġtrans it
rang le
c ur
Ġin ference
Ġclassif ied
Ġpersist ent
i tive
Ġar row
Ġgro ss
Ġpass age
p d
atter ing
Ġdra wn
Ġsubm ill
os h
Ġcollid ers
Ġfac ilit
Ġinsi ghts
Ġint r
Ġbran ches
Ġsequ ential
ul y
Ġbet a
Ġabsor bed
Ġtheore tic
Ġmes oscopic
Ġfer ro
Ġpack et
Ġinflation ary
Ġ3 3
Ġbright est
Ġwal ks
i ro
Ġloc ations
Ġdamp ed
Ġcompreh ensive
Ġinco herent
Ġlati t
k owski
Ġre ferred
Ġad di
Ġsti ff
Ġpropos al
} {\
Ġe os
etr y
Ġcompan ions
Ġastronom ical
Ġcol lection
Ġconfir ms
Ġprogramm ing
Ġc t
Ġd y
ic ate
xi ble
Ġestima ting
Ġgen us
Ġspherical ly
Ġm ssm
Ġnebula e
Ġhapp ens
as hi
Ġ20 16
omin ant
Ġmetall icities
Ġval ued
Ġintro duces
oft wo
Ġax ion
b ach
ell er
Ġvari ed
Ġconnect ing
Ġmig ration
n y
Ġth m
Ġre adily
Ġbary onic
h a
ed u
Ġch ina
Ġcomp eting
Ġexclu ded
Ġval u
Ġred d
Ġneighbor hood
Ġopt omechanical
Ġfeas ible
Ġbrill ou
Ġf ro
Ġt ab
Ġh ours
Ġfol d
Ġsepar ately
Ġre tain
Ġfin ds
r is
Ġb c
ent ed
Ġnot ed
Ġreson ators
sil on
Ġc amb
Ġcom ment
Ġsh ot
Ġstar ts
30 2
Ġtransm it
Ġlange vin
d x
Ġcharacter izing
Ġins ensi
Ġdest ro
Ġpie ce
Ġshow er
Ġion izing
Ġatmosph eres
com ing
Ġspectrom eter
Ġbrillou in
Ġtem pl
Ġlater al
Ġrig orous
Ġnumer ous
z a
Ġc i
Ġle mma
Ġmul tic
Ġdra matically
Ġfinan cial
Ġfo ot
Ġ8 9
Ġmid dle
Ġblock s
Ġce phe
Ġp ric
Ġabsor bing
Ġpub lic
Ġchallen ges
Ġiso thermal
Ġcovari ance
Ġintr igu
f v
Ġf al
Ġt ag
13 3
Ġback ward
Ġinterse ction
j y
re cent
Ġj up
Ġequ i
Ġmargin al
Ġamoun ts
Ġc c
Ġconsider ations
Ġdatab ase
o king
Ġb ending
Ġsh are
ec m
Ġchang ed
Ġexplo it
Ġrepe ated
Ġdoub ly
Ġaper ture
Ġatten u
Ġpar abolic
Ġen ds
Ġli u
Ġpop ular
Ġquasi particles
Ġaxis ymmetric
Ġdil ute
Ġintrigu ing
a o
Ġperiod icity
Ġsupport ing
Ġneighb ors
Ġholograph ic
Ġl ived
ep s
Ġorigin ate
Ġbroad band
Ġnm r
il le
Ġmat ched
Ġenvironment al
Ġheter ogeneous
Ġsymbol s
Ġcamb ridge
g p
ur i
ting er
Ġg c
Ġconcent rated
Ġsummariz e
Ġpu zz
k l
Ġcl umps
Ġcoinc ides
Ġmonol ayer
if or
Ġqu ar
Ġinf all
Ġ4 2
Ġlas ers
Ġbr ighter
Ġtele port
Ġa ms
Ġn lo
te xt
Ġliquid s
Ġtrigger ed
Ġcovari ant
s um
Ġin n
ak i
Ġerg od
Ġassist ed
Ġe con
Ġpre vent
ster esis
pro cess
Ġeccentric ity
Ġpix el
Ġsad dle
Ġre ct
Ġab stract
Ġsuper massive
Ġcoinc idence
y dro
en g
Ġl ig
Ġpro mpt
Ġde x
Ġdra g
Ġland sc
Ġma pped
Ġatt raction
a ff
Ġ nd
Ġo m
etr ics
Ġconst ru
Ġgra nd
Ġins pi
Ġchem istry
li k
Ġsens ing
Ġfri ed
Ġ rib
Ġc v
Ġfor b
Ġop ac
Ġnucle osynth
Ġhy steresis
Ġcho ices
ch ar
Ġdedu ced
n as
} ^{
Ġachiev able
re st
Ġre verse
Ġtw ice
Ġreg ression
Ġfore ground
h aus
Ġmod ify
Ġlight est
lec tivity
Ġpoly mers
Ġmark et
Ġmicro lens
Ġperfect ly
f l
Ġh ii
Ġfil ters
til de
Ġconven ient
Ġreco il
Ġisot opes
Ġbur ning
Ġint rac
Ġconcent rations
Ġdist urb
12 9
Ġther m
Ġt d
un ivers
Ġdiffer enti
Ġpeak ed
Ġinstr uments
Ġquadr ature
Ġwavegu ides
Ġskyrm ion
\ \
Ġsw ift
wh m
Ġprac tice
Ġreflect s
Ġlut tinger
c omes
at o
Ġover view
rac k
Ġsepar ations
Ġplau sible
: ",
are n
Ġy u
Ġcons um
Ġexcit ons
Ġ6 4
Ġunc or
Ġlepton s
oll ary
pl ane
Ġmonop ole
or tions
ing er
Ġn v
Ġ1 50
Ġco al
Ġcan ada
Ġout come
Ġmes h
Ġaff ine
Ġexplo iting
Ġpen etr
mid t
b u
s en
Ġthe ms
Ġt au
ell ed
Ġgener ator
Ġorigin ally
Ġiter ative
Ġdiv ision
t ype
Ġprot ected
13 6
Ġthems elves
Ġd ir
Ġb odies
Ġfluctu ating
Ġexhibit ing
s in
at on
math cal
Ġn p
Ġel ong
Ġmagne tism
Ġplasma s
Ġfair ly
Ġcus p
Ġske w
Ġcol le
Ġ3 1
Ġhalo es
Ġshell s
Ġb s
Ġimportant ly
Ġmed ian
ati vity
ree v
Ġreal izations
k d
Ġ >
Ġob st
Ġpre ferred
Ġpass ing
ifor nia
Ġm etrics
um b
Ġprocedure s
si a
Ġpro ven
Ġz eros
Ġfilter ing
Ġrecord ed
Ġd u
Ġterm in
Ġdevelop ments
Ġsimpl er
Ġcontroll ing
Ġwell s
Ġ8 1
Ġthermal ly
Ġp omer
ch en
sc aled
Ġdel ocal
z er
Ġw orm
Ġdimensional ity
s ky
ul ating
vers ity
14 0
Ġspec ified
i res
Ġres um
ru pt
Ġexp os
Ġmagnet ores
Ġprote ins
Ġre nd
ur s
ple ctic
Ġtra de
Ġq so
z en
re c
Ġapp e
Ġover d
o ti
ro gen
ding ton
Ġperturb ed
Ġeigen function
Ġprogenit ors
Ġe pid
Ġag ent
13 1
Ġmixture s
Ġdivid ed
Ġpas sive
Ġmel ting
m ber
} }\
Ġco vers
Ġ5 5
Ġtail s
Ġrequ iring
Ġf whm
Ġsol vent
Ġrev is
Ġconve ctive
oli ubov
Ġinspi red
Ġm r
Ġlin eto
Ġanalog ue
Ġbarri ers
Ġcoinc ide
Ġtrac king
Ġiner tial
Ġconjug ate
Ġqs os
Ġinsensi tive
av en
i ence
Ġa de
Ġ3 6
Ġpolar on
Ġed dington
Ġpuls ed
Ġcateg ory
Ġw f
Ġsh ed
Ġexpansion s
Ġcut s
Ġadop t
Ġarp es
Ġcal ifornia
Ġassem bly
_ \
Ġre ly
Ġev id
Ġj e
Ġthan ks
Ġli th
Ġcur ved
Ġfol ding
Ġimpro ves
Ġcorrect ly
Ġgeodes ic
Ġinfin itely
Ġspread ing
Ġundergo es
Ġt ay
Ġnon perturb
Ġbi ased
Ġrece iver
Ġtom ography
Ġtrunc ated
Ġredd ening
Ġl en
Ġj ournal
Ġanalys ed
Ġnit rogen
g l
Ġs b
re lation
Ġgr ating
Ġchiral ity
Ġtriang les
Ġdecoupl ing
Ġbog oliubov
scaled width
Ġh an
Ġy ork
Ġglu ons
Ġnucleosynth esis
Ġb at
Ġand reev
si bility
Ġeff ort
Ġdec ision
Ġinterest ed
ii i
Ġapplic ability
Ġdynam o
com mut
Ġball istic
Ġquick ly
ar ing
Ġmon th
Ġunit arity
Ġaltern ating
k al
Ġsp ac
Ġinter layer
Ġun less
Ġsch ool
Ġ7 3
Ġhybridiz ation
Ġpar is
Ġqu i
Ġr ms
Ġdispersion s
band s
Ġintern ational
Ġfrustr ation
Ġpresc ription
Ġvi able
Ġcentral ity
Ġelectro des
Ġc er
Ġe jection
Ġun ification
Ġsus p
lik ely
Ġan ne
Ġun likely
Ġpartic ip
Ġem pty
Ġdef ines
Ġtor oidal
Ġneu mann
Ġg pa
Ġim f
Ġext ensively
Ġdeg ra
Ġapparent ly
Ġsem imet
Ġpub l
Ġwire less
Ġextrap olation
n u
Ġshow ers
ky o
Ġdra w
Ġconstitu ent
Ġwol f
Ġ <
Ġde b
Ġmethod ology
Ġcent ro
Ġast rom
Ġfle xible
Ġspin or
Ġbeh aves
Ġformula e
Ġsole ly
Ġo wing
Ġemer gent
Ġdetermin ant
Ġdifficult y
polar ized
Ġrecip ro
q cd
Ġp ay
Ġb ern
Ġdec ades
n ers
Ġl m
Ġn el
Ġhom ology
Ġinconsist ent
Ġsig ma
Ġdec oding
Ġ6 2
Ġ199 2
Ġcho osing
Ġreas ons
Ġsou thern
le mma
Ġch er
13 2
Ġanomal ies
Ġaut o
Ġmanip ulation
Ġpred ominant
Ġto ler
Ġac cep
Ġeff orts
Ġdep os
Ġrec all
Ġnan ost
tima tely
in till
Ġl ac
Ġwi res
Ġon going
res olved
rel ati
Ġ1 11
ell ation
Ġvac ancy
Ġpseud oscalar
Ġnanot ubes
Ġguarant e
phot on
math bf
Ġconc ern
medi ately
Ġsetting s
Ġcircu its
Ġread out
Ġparad igm
Ġtal k
p rop
Ġadsor ption
Ġma ser
Ġk o
Ġsc intill
Ġacc ord
Ġgaus s
Ġep is
Ġharmon ics
Ġg ib
Ġsym plectic
Ġeu rop
Ġregard ed
Ġg m
Ġun exp
Ġdemonstr ating
Ġ199 3
Ġr b
ak ov
Ġnot ation
Ġq ds
Ġrus sia
romagne tism
relati vistic
Ġs ides
Ġw d
Ġre ionization
Ġi b
Ġnon commut
Ġslow er
Ġimprove ments
Ġincom ing
Ġevapor ation
p b
Ġn b
Ġmod est
Ġtrans formed
Ġeq n
Ġ7 1
Ġimpl icit
Ġarch ival
Ġfail s
Ġtay lor
Ġ title
Ġdi versity
Ġj an
Ġbas es
Ġgrow n
Ġau x
Ġvir go
Ġprosp ects
b ib
Ġb un
Ġl iv
Ġsp i
Ġdec eler
Ġinterfer ometry
rib ed
Ġassum es
Ġampl if
Ġenc oded
Ġret ri
Ġincomp res
Ġin herent
Ġg ar
Ġex oplan
ot ential
Ġun resolved
Ġmo b
Ġmagn on
Ġlayer ed
Ġdepic ted
Ġp m
am i
Ġim mediately
Ġimp os
Ġsign s
Ġther mo
Ġsolid s
Ġmill s
Ġincom ple
Ġtwist ed
fact or
t os
Ġin jected
Ġg ut
Ġfi bers
Ġev ident
Ġover la
Ġappear ing
Ġgam es
Ġrun s
Ġdatas et
Ġobsc ured
Ġarchitect ure
s n
Ġk hz
Ġar ms
Ġsch midt
Ġsepar able
Ġsuit ed
Ġprim e
Ġpin ning
Ġelu cid
Ġcontra dic
b eta
Ġst em
st and
ra b
Ġprob ing
Ġapproach ing
Ġinteg rating
Ġcollision al
Ġaddi tive
Ġunexp ected
Ġg p
ph er
Ġdef inite
Ġconf ining
15 0
Ġtransp aren
Ġelectro dynamics
Ġwin ding
Ġnonperturb ative
g onal
Ġb ipolar
Ġg ets
Ġ1 20
13 8
Ġorigin ates
Ġwavefunction s
Ġqu int
Ġinvestig ating
Ġpolar iz
Ġrecover y
r d
Ġb ang
Ġde e
Ġpri ori
Ġparametriz ation
Ġcont ract
ist inguish
roscop ically
Ġdel ta
Ġextre mal
Ġcapture d
Ġded icated
13 4
Ġ9 3
Ġorigin ating
Ġshar ing
Ġwar p
Ġprefer ential
Ġal ter
Ġvis ibility
Ġconduct ing
Ġepoch s
Ġsucces sive
Ġteleport ation
Ġade qu
z ing
Ġsuper giant
Ġregard less
j et
Ġ ub
Ġth z
Ġ4 9
Ġmin kowski
Ġsec re
ak ing
Ġ8 6
Ġ9 7
eli ke
Ġmonot onic
Ġdon or
Ġarrang ement
Ġth or
Ġm l
Ġg ene
Ġinter f
ort ed
Ġclassif y
Ġkin k
Ġclar ify
Ġuncor related
= @
w r
al th
Ġestimat ors
Ġdra matic
Ġcover ed
Ġstrip e
m ic
Ġh am
Ġg ase
one yc
Ġconduct ed
Ġcooper ative
Ġcatalog ue
Ġbegin ning
Ġg d
Ġrot ations
Ġreason ably
Ġadv ances
Ġfail ure
Ġs ized
math group
Ġout comes
Ġtheore ms
Ġfree ze
Ġconver ges
Ġv apor
Ġun pre
Ġbel t
Ġcaus al
Ġdelay ed
Ġrece ived
Ġsurvi val
Ġind istinguish
oneyc omb
c r
Ġa ctions
Ġl atest
Ġuni versi
Ġaccoun ting
Ġexperi ence
Ġh em
40 1
Ġsm c
Ġbelie ve
Ġspir als
Ġmob ile
Ġre ads
Ġcarry ing
Ġamb igu
Ġf p
Ġbeh ave
Ġanisotrop ies
er ed
Ġd w
Ġn ir
ur rent
em ission
de g
13 5
Ġflo quet
Ġtransparen cy
Ġgase ous
e k
Ġre act
Ġl l
Ġn est
am s
Ġ3 9
Ġincreasing ly
en ess
Ġperiod ically
Ġdevelop ing
ama terial
Ġmicrolens ing
Ġpomer on
in z
Ġ5 7
Ġer up
Ġdevelop s
Ġneutron s
ogene ities
Ġpseud og
Ġminim ization
u ch
Ġfor cing
Ġfra gments
Ġdiff ractive
Ġtor sion
Ġadap t
d if
Ġd ama
Ġh aw
Ġens ure
Ġlepton ic
Ġlorentz ian
Ġs oci
ra nd
Ġmeas urable
Ġ4 3
Ġ7 8
Ġdiscontinu ous
Ġfis ica
Ġsolv able
Ġvalu able
Ġaccep ted
Ġto day
Ġv la
gra vity
Ġunb ound
Ġnanopar ticles
b es
Ġw ise
Ġd f
Ġ0 6
Ġmet amaterial
Ġir as
Ġprot oplan
Ġgen u
Ġsemiconduct ors
Ġobe y
ma r
Ġw it
ic ial
Ġn ak
Ġco hom
end ed
Ġ10 5
Ġmaxi ma
Ġsatur ated
Ġpol es
Ġbub bles
Ġretur n
Ġconv olution
Ġlandsc ape
n ected
t ally
Ġs and
Ġb n
Ġto kyo
Ġinc idence
Ġ7 7
Ġsl ip
Ġdust y
Ġpressure s
oscal e
p si
Ġk ar
Ġbo un
Ġpl ates
Ġ8 4
Ġpack ing
Ġpoin ting
f r
le igh
Ġn ic
ol ating
Ġequ ilib
Ġro ll
Ġam orph
Ġ4 00
Ġpropag ate
af ter
p ath
Ġspace times
Ġacceler ator
Ġaltern atively
Ġconfirm ing
^ \
i ers
Ġp et
Ġg w
Ġfi re
Ġpl a
Ġcal or
Ġconc re
Ġkine tics
Ġlife times
oh ydro
bo x
Ġarri val
Ġrect ang
at t
st one
Ġobtain s
Ġdistinguish ed
ww w
Ġbir th
Ġremo ve
Ġm ich
st ate
Ġver sions
Ġ8 3
Ġser v
Ġsph eroid
Ġsec ure
Ġhund red
Ġgradu ally
Ġdrople t
iv ari
par tial
ero ids
Ġcool ed
Ġinterfer ometric
Ġmagnetores istance
Ġop in
Ġel se
Ġdiffic ul
Ġmil d
Ġminim ize
br is
Ġs z
Ġt in
Ġle p
Ġz ig
Ġray leigh
Ġwal ker
Ġlabel ed
Ġqui et
at s
Ġh oneycomb
ol ding
Ġphot od
Ġstructure d
Ġmagne tically
Ġdifficul ties
Ġdep osition
Ġimpl ied
sic a
ski i
Ġconstit ute
Ġcontribut es
Ġjup iter
ed ge
Ġr m
yn e
Ġro und
uc k
13 7
Ġq po
Ġpolar izations
Ġcritical ity
Ġneutral ino
Ġorgan ized
f ir
Ġv o
Ġmill is
Ġfain ter
Ġka on
Ġhetero st
Ġw ord
om ers
un ct
Ġ5 3
Ġech o
i ar
Ġde bris
Ġmod ular
Ġdemonstr ation
lin es
Ġgen etic
pr int
Ġaccoun ted
Ġcher enkov
Ġx y
Ġ4 8
Ġher a
Ġstabil ized
Ġadm it
Ġdrop s
Ġc cd
an ov
Ġse es
Ġdisplay ed
th ing
ma il
Ġst op
st re
ur face
Ġres cal
Ġformul ate
Ġspontaneous ly
Ġeclip sing
ti s
Ġb ridge
at omic
Ġun changed
Ġlinear ized
ven ess
Ġbra gg
Ġdatas ets
Ġdee per
Ġd ich
Ġh r
Ġcon formation
vect ors
Ġbreak down
Ġcapac it
Ġcareful ly
) =
or relation
Ġdis e
Ġsl it
Ġconver ge
Ġaut oc
Ġeps f
Ġphot op
Ġhe ated
ins ki
Ġparton s
Ġtrack s
Ġdecon f
w ith
er t
Ġdec ade
Ġpower ed
Ġdetermin ations
Ġcd m
ili ary
Ġc ri
ell ow
Ġdist ortions
Ġab rupt
Ġ4 6
Ġtransfer red
Ġcre ating
Ġox ide
Ġkeep ing
esh bach
Ġpseudog ap
Ġphot ospheric
Ġinput s
Ġenrich ment
Ġforb idden
Ġaux iliary
h ole
t au
Ġf eshbach
Ġm w
Ġmonoton ically
Ġamorph ous
Ġ igm
Ġo s
Ġb its
ge v
Ġ6 7
Ġsqu ark
Ġmagnet ohydro
Ġswit ch
Ġreflect ing
Ġsubt ract
Ġpolarit on
Ġpla quet
Ġd ressed
ru ption
Ġindic ation
Ġsl opes
Ġion ic
Ġopac ity
Ġdis loc
Ġtra ps
13 9
Ġsepar ating
Ġmem ber
Ġgu ide
Ġsampl ed
Ġdedu ce
k m
Ġat las
Ġse lective
Ġrel ay
Ġsupp ose
Ġlo ud
Ġprog rams
Ġth oma
Ġcomp ac
Ġk r
Ġk eck
Ġabsor bers
Ġbackground s
Ġpropor tion
Ġrelationship s
wing er
] \
Ġk ick
Ġcoupl es
Ġlo st
Ġorient ations
Ġincom m
Ġfeas ibility
g ap
Ġhydrod ynamical
Ġincorpor ate
r ally
Ġit iner
Ġall oc
Ġsch winger
Ġhost s
Ġfle x
Ġpro l
Ġch ap
op y
Ġj ones
Ġrel ic
con ds
Ġstrong est
Ġcoll oidal
Ġ9 1
Ġabsor ber
Ġopportun ity
Ġst er
Ġpro c
Ġeurop ean
Ġt ubes
10 38
Ġdisc ord
Ġcap abilities
Ġdecre ased
Ġmill ion
Ġplat form
Ġa le
is tically
ul es
Ġas c
Ġar tif
Ġsk et
Ġdestro y
ut rin
Ġadm its
Ġpric e
Ġk ol
Ġwhen ever
Ġrul ed
depend ence
c an
Ġf ed
Ġqu e
Ġ100 00
Ġenc oding
b ons
Ġb ud
Ġan t
Ġdeformation s
Ġcycl ot
Ġnova e
Ġ uc
Ġa xi
on ov
Ġn ucl
Ġgiant s
Ġmill imeter
Ġdiver ges
Ġrepl ace
Ġcontam ination
Ġe c
Ġcont our
Ġchar mon
Ġful fill
Ġreli ability
+ (
q s
u ma
Ġh in
Ġg em
Ġ1 60
Ġ3 8
on om
Ġp ortion
Ġb b
ch y
ch el
Ġdel ays
Ġupd ate
h s
Ġp ock
Ġt ry
Ġst ock
Ġsu st
Ġk s
Ġpo inc
Ġj umps
Ġhe ad
depend ent
Ġattach ed
m in
ma tical
Ġ9 6
Ġ199 1
Ġpd f
Ġimpos sible
al geb
Ġt an
Ġm k
Ġ7 6
Ġutil izing
Ġdiagnos tic
h igh
Ġst m
Ġsh ared
Ġ5 2
Ġemit ters
Ġconjecture d
Ġactiv ation
Ġincompres sible
Ġsust ain
Ġf sica
Ġ1 15
ant om
Ġfunction als
Ġsimil arities
Ġcollid ing
y er
Ġd ru
it ch
im er
Ġse greg
ens us
ph ase
Ġim bal
Ġglob ally
Ġstring ent
Ġthresh olds
Ġsect ors
)- (
Ġa val
Ġst ored
Ġexplo ited
Ġps r
Ġconserv ative
Ġdiss ociation
p os
Ġqu er
Ġmodel led
Ġterm inal
Ġcre ates
Ġphoto emission
Ġplay ed
Ġnoncommut ative
ac ian
Ġtrans forms
ast ro
Ġinf n
ex am
Ġtas ks
Ġtrun cation
Ġpredominant ly
Ġb acter
ar a
ic o
Ġl da
ess el
Ġderiv ing
Ġattem pts
Ġoverla pping
Ġw et
Ġg cs
Ġmat ches
Ġfall s
Ġtransl ational
Ġprotot ype
Ġan c
Ġshe ets
Ġsubt raction
stre am
ra e
Ġle aves
Ġcol s
Ġsome times
Ġla un
Ġcapture s
Ġbill i
m d
re ci
Ġsuper gravity
Ġsch ematic
Ġrandom ness
Ġcir cul
Ġbran es
gin o
Ġcd f
Ġcheck ed
Ġros at
Ġmultip ole
Ġpre v
Ġexclu sion
Ġmis mat
Ġitiner ant
Ġb low
Ġm f
Ġwi der
Ġdiscre tization
Ġdev oted
Ġstabil ization
Ġgover ning
Ġattenu ation
ti le
Ġw est
ur g
Ġch am
Ġun id
Ġcomple teness
14 1
Ġnan oc
Ġiter ation
^ -
y le
es e
qu ely
Ġminim izing
Ġackn owledge
Ġaval an
f eld
t r
in te
it ation
Ġequ atorial
Ġhe ur
iod ic
Ġdeuter on
Ġm t
Ġsu ff
Ġz n
Ġins p
Ġelectro de
Ġst agger
Ġsp s
Ġgener ically
Ġexcit onic
Ġsi o
Ġavoid ing
Ġquantif ied
Ġpermut ation
Ġeigenfunction s
Ġg inz
Ġgener ators
Ġmoder ately
Ġoutburst s
Ġunf ortun
Ġcohom ology
c ol
Ġc me
Ġf ash
Ġcur ie
Ġnan oscale
Ġf f
Ġkine matical
Ġwit ness
om m
em ical
Ġtra ces
Ġformal ly
Ġbal anced
Ġdefini tions
Ġsynth es
Ġrefer ences
Ġblaz ars
Ġcyclot ron
s q
ment o
Ġunder es
ov ich
Ġexcit ing
Ġmin us
Ġoccur red
Ġunpre ced
i qu
t ron
Ġe jected
Ġreg ge
Ġout per
14 5
Ġincorpor ated
Ġsubmill imeter
Ġanc ill
Ġunpreced ented
h al
at om
Ġbe g
Ġ6 1
Ġeigenst ate
Ġc ry
it ous
Ġg ri
id a
Ġle pt
Ġapp reci
Ġequ als
Ġprob able
Ġsch ed
Ġ7 9
Ġcomb ines
Ġsatisf act
bi ased
Ġgib bs
Ġginz burg
Ġf ading
is a
Ġl es
Ġle ave
Ġexplain ing
Ġimpro ving
Ġphoto ionization
Ġobst ac
Ġfash ion
s ol
Ġf em
Ġli br
14 2
Ġinflu enced
Ġincorpor ating
c ular
Ġd b
an cing
Ġdis ruption
Ġfl ight
Ġcontrol s
Ġpossess es
Ġnanot ube
Ġthoma s
d w
z o
Ġto y
Ġ4 4
Ġcomputation ally
s ically
Ġs an
re ll
em por
Ġdec line
Ġvari ant
Ġacceler ating
Ġwor th
Ġbol ometric
Ġoct et
Ġantic ip
Ġergod ic
Ġb im
Ġn ine
Ġsp ain
Ġse gments
Ġfre quently
parti mento
Ġelliptical s
Ġfav ored
Ġheavi er
a tically
n ature
Ġs g
at ch
Ġpair wise
Ġsin us
ob ser
Ġproof s
hl ung
Ġhaw king
Ġphotop roduction
Ġt ric
ber ts
Ġsm bh
Ġbul ges
Ġmag ic
Ġexpand ed
Ġinver ted
Ġnanow ires
Ġstiff ness
+ @
re ction
Ġg ord
om ing
Ġsp ots
Ġdomin ance
wh ile
Ġpanel s
Ġriemann ian
Ġacqui red
Ġlapl acian
a ign
Ġ um
Ġd s
Ġcont raction
Ġcol ours
Ġout l
14 4
Ġ9 2
Ġplas monic
Ġvolt ages
Ġprac tically
Ġingredi ent
l ar
Ġ1 80
Ġch e
de c
Ġsub lattice
Ġtra ced
Ġwa als
Ġcap ability
omorph isms
Ġaust ral
b ased
h n
16 0
Ġmar ch
Ġferro electric
c as
e xc
it able
Ġuni quely
Ġintrin sically
Ġunfortun ately
qu ad
Ġcomp ressed
ac c
Ġle ak
ni kov
Ġtransp arent
Ġhist ories
Ġbelong ing
Ġhop f
ol ate
Ġun biased
Ġinv is
Ġsum mation
Ġbund le
u v
Ġre yn
Ġconsider s
Ġcorrel ator
Ġcolle ge
Ġpoinc ar
h t
Ġsp ite
Ġal fv
Ġsu ffer
ab s
Ġk ra
Ġmulti f
Ġ8 8
Ġtun e
Ġconver ted
Ġspeed s
Ġinhom ogeneities
Ġexplor er
Ġexpos ure
on ium
Ġ1 30
Ġgra ined
ev al
ish ed
Ġref ractive
Ġthermal ization
Ġn t
Ġmodul es
Ġcas c
Ġpreser ved
Ġinstant on
Ġmess age
Ġincomm ensurate
Ġre wr
osc ow
Ġremov al
Ġcanc el
tru ecm
d f
ti a
Ġp f
qu is
Ġrel ating
Ġorgan ization
Ġgh ost
Ġconcre te
Ġalfv n
* (
Ġenh ances
Ġcru st
Ġglass es
Ġsummariz ed
um er
Ġutil ity
stra hlung
Ġdecoupl ed
Ġt f
or ov
Ġout line
Ġvac ancies
Ġequival ently
Ġvib ration
Ġcanc ellation
Ġtravel ing
Ġfal se
Ġub iqu
l umin
Ġh ill
Ġlet ters
Ġcoinc ident
Ġfore st
Ġaccom mod
Ġgravitation ally
Ġto tally
ri l
Ġ2 50
Ġsimul ating
ven tional
Ġ7 2
duc tive
Ġflat ten
Ġregular ity
ogen ic
Ġsens ors
Ġdisplace ments
v ille
Ġm oscow
Ġl f
14 6
40 2
Ġrespon ses
Ġevalu ating
Ġfavor able
Ġdisappear s
Ġol der
Ġneur ons
; \
o ys
Ġs af
Ġc ms
ar ray
Ġfra mes
Ġnam bu
Ġrestric tions
Ġbelong s
Ġp ent
Ġl p
Ġk ag
Ġi ee
Ġlens es
Ġswe ep
Ġdepos ited
Ġheur istic
c ra
Ġm ol
el le
Ġdis ag
ph ysi
Ġtra ining
Ġmulti vari
Ġmembran es
Ġattract ed
Ġenab ling
fir st
] -
c il
Ġm it
Ġph antom
Ġro d
Ġhand le
Ġmorph ologies
ogen esis
Ġpoor ly
v an
} (\
is ph
Ġsub jected
Ġlo oking
Ġer a
Ġke pt
Ġ9 4
Ġrele ased
Ġdel iver
Ġexceed ing
}) $
j oint
Ġm b
Ġh ab
Ġg y
Ġal pha
Ġfirst ly
Ġcontr as
Ġep it
Ġtechn ologies
Ġpost er
Ġsurround ed
Ġst ro
im etric
Ġimp ed
ard ed
Ġmet a
Ġsm ith
Ġmonit or
Ġstack ing
Ġirradi ation
Ġstagger ed
Ġreyn olds
Ġ1 25
Ġphot osphere
Ġloc ked
Ġman ag
Ġemission s
Ġ5 6
Ġcross ings
Ġinterfer ometers
Ġconstit utes
Ġtil t
Ġepid emic
Ġrectang ular
Ġc od
Ġe f
Ġpar ti
ak a
Ġaver ages
Ġrelax ed
Ġreveal ing
Ġachiev ing
Ġsubt le
Ġth ous
im p
Ġmic roscop
Ġbon ding
Ġgenu ine
g et
Ġst r
Ġro ute
Ġatt ribute
Ġmu ons
Ġhom ot
Ġsec ular
Ġundergo ing
Ġbifur c
Ġkepler ian
Ġthous and
c ell
z ag
Ġsh rin
di rection
Ġimplement ing
Ġul timately
Ġtend ency
Ġupd ated
Ġtetra gonal
Ġsubsystem s
Ġcamp aign
t p
Ġst ee
Ġr ic
Ġlo ading
Ġsun sp
Ġadap ted
mat rix
Ġresem bles
Ġd ub
og ram
Ġcalcul us
Ġconf lic
Ġlo be
Ġlens ed
Ġhu ge
Ġjac o
Ġlatit ude
Ġprotoplan etary
r me
Ġns f
Ġcontin ue
Ġintrac luster
ur l
Ġwave let
Ġ6 3
Ġcontinu ation
Ġmar tin
Ġhelp ful
Ġautoma tically
0 10
Ġb is
Ġn ag
od yne
Ġdis till
Ġ1 40
se cond
Ġdep ar
Ġref lectivity
Ġdescription s
Ġlog ical
Ġdest ruction
Ġtetra hed
Ġboh m
Ġincomple te
Ġgord on
der s
Ġstar k
Ġdepend encies
14 3
Ġprec urs
Ġentrop ic
Ġcommun ications
Ġaccording ly
Ġrestric tion
Ġachie ves
Ġpropos als
Ġlv y
= \
in os
Ġ5 8
Ġadop ting
Ġgold stone
Ġanten nas
g ue
m ev
Ġrel ates
Ġ10 8
Ġconcent rate
Ġexplor ation
Ġrecipro cal
Ġindistinguish able
Ġt b
Ġpl astic
Ġpump ed
Ġingredi ents
Ġintui tive
d ynamic
Ġpar all
ist ribution
Ġcol ored
Ġspin ning
Ġunder d
Ġuni axial
Ġclos ure
Ġcalib rated
Ġhem isph
ron t
Ġso on
sc attering
Ġ10 6
Ġ6 9
Ġpersist ence
c ar
Ġ ut
Ġle aving
Ġar cs
Ġimp ul
Ġdef ici
Ġthrough put
Ġsum s
Ġinflu ences
Ġsmooth ly
Ġthor ough
Ġzig zag
Ġn omin
im ent
Ġk k
Ġk il
Ġperfor ms
Ġblack body
he ating
Ġpack age
Ġrx te
c z
Ġe w
ru ctive
Ġdip oles
Ġproj ecti
Ġconser ving
Ġcommut ative
Ġmillis econd
e ties
Ġp ush
Ġgra y
Ġorbit ing
val ent
Ġrem in
Ġblock ade
Ġassem b
rest rial
Ġcharmon ium
Ġgeneral izes
Ġbin s
Ġsw im
Ġeclip se
Ġram p
ecti veness
f u
y m
ul ti
Ġver ification
Ġeffici encies
gen ess
Ġhypoth es
Ġuncon ventional
Ġf b
Ġun polarized
Ġrep orts
Ġclass ically
Ġbre ath
Ġtransi ents
Ġutil ized
Ġstee per
. _
Ġb p
tic ity
Ġsh an
ist or
Ġ10 9
Ġmas ers
Ġorgan ic
Ġattract or
stand ing
Ġparall ax
n ucle
Ġw aven
Ġd ras
Ġover es
Ġsup pl
Ġquint ess
f ast
Ġro ad
ms strahlung
Ġpri v
Ġrough ness
Ġdesi rable
Ġacad em
Ġs q
Ġan har
Ġlin d
Ġast eroids
Ġanti symmetric
Ġstarburst s
Ġdras tically
, #
t ran
Ġh h
Ġ1 13
ac ial
Ġscal ars
gh z
Ġ4 1
18 0
Ġimplement ations
Ġtur ning
Ġunambigu ously
t or
Ġfin itely
Ġtop ics
Ġbro ader
Ġser ves
amp ed
Ġvib rations
Ġfac ility
Ġshadow ing
Ġf ano
Ġal le
and er
Ġeff ectiveness
Ġexpl oring
Ġindic ative
Ġhar v
Ġdiver gen
Ġparad ox
Ġmargin ally
Ġautoc orrelation
re ds
Ġtop ic
40 3
Ġbre msstrahlung
Ġsplit ter
Ġtur ned
Ġcaus ing
Ġster ile
Ġmultivari ate
c ast
ll er
Ġincorpor ates
Ġremov ing
Ġobvious ly
Ġf ault
or th
Ġe it
Ġl c
ur y
ion al
Ġ199 0
Ġdirection al
Ġsky rme
Ġavoid ed
Ġhund reds
Ġmim o
}, -
Ġb z
Ġh ope
ig er
iz er
Ġrepl acing
Ġdic ke
def ini
d c
m odes
Ġc au
Ġin her
Ġb f
us c
ose ism
Ġout going
Ġx x
Ġpuls ation
Ġdm rg
ab stract
Ġk el
Ġen cl
Ġoptim ize
Ġsubm itted
Ġfabric ation
) $
Ġc en
Ġw u
Ġd oc
Ġr pa
Ġj uly
Ġdes y
Ġgre st
h r
Ġc ft
ic ti
Ġst an
Ġ0 7
Ġdri ves
Ġau g
Ġmultiple x
Ġly rae
Ġcooper ation
bo ard
lat on
Ġconj unction
Ġcompe ti
}) +(
Ġcontribut ing
manif olds
Ġa ri
Ġb ow
Ġexhibit ed
Ġrestric t
Ġf cc
or ption
op le
ag o
Ġ0 8
Ġy an
Ġinf laton
Ġent er
Ġpack ets
Ġsubstr ates
Ġassign ed
h ead
in f
Ġn y
Ġcomp il
Ġdepend ences
Ġanti quark
romagne tically
n ormal
Ġdep t
Ġsuper ior
15 1
ci a
Ġsignal ing
Ġellip so
Ġw an
qu ant
Ġj une
Ġab ell
Ġlocal ity
Ġmon och
Ġindic ators
Ġsynchron ized
Ġvl bi
Ġst ran
Ġk oh
Ġcor ner
Ġbo ard
Ġdist orted
Ġimp ose
Ġall oys
Ġcr yp
Ġoptim um
Ġscre ened
Ġgs ave
Ġgrest ore
n elling
ell i
Ġbi ases
Ġamplif ier
Ġiee e
Ġn c
oc entric
Ġdi verse
Ġpl ayers
Ġstar ted
Ġprop osition
Ġpredic tive
Ġbel le
Ġdiscrep ancies
wa velength
cor ollary
Ġelong ated
sq rt
] [
k ker
Ġp ick
Ġfor th
Ġal kal
Ġpar k
ss on
ak es
Ġen umer
Ġindepend ence
lin ic
Ġsplitting s
Ġnor thern
Ġfabric ated
Ġnanow ire
Ġs ent
Ġc ast
ell a
ec ube
Ġbal mer
Ġic m
Ġinhom ogeneity
lat tices
cm in
Ġstret ching
Ġp ne
em ber
Ġad ve
ov ing
Ġq kd
ator ies
Ġconstra ining
Ġexplo sions
Ġdepth s
Ġmut ually
Ġarrow s
Ġmonth s
utrin o
cra ft
n eg
Ġp le
Ġb d
Ġ5 4
30 1
Ġaim ed
Ġmotiv ation
Ġclaim ed
Ġisland s
Ġpenetr ation
Ġc ard
Ġp urity
Ġsim ons
Ġpos ed
ip s
Ġstand s
Ġaim s
Ġprojection s
Ġsurvi ve
Ġtil ted
Ġheavi ly
manif old
Ġnanost ructures
Ġconcern ed
Ġaccord ance
Ġc rab
le ctions
Ġk ing
ys h
Ġro ots
Ġswit zer
Ġpreser ve
Ġdiscrimin ate
Ġlith ium
defini tion
on ds
Ġm sc
rom e
Ġdi partimento
Ġmagn ets
Ġequ ality
Ġpolar isation
Ġpoly g
Ġshort est
Ġvolum es
Ġcollision less
Ġsuppress es
Ġinterp olation
Ġswitzer land
e f
Ġe mail
Ġl ot
Ġdi quark
00 2
Ġ10 7
Ġplas m
plan ar
Ġstat ement
Ġstim ulated
Ġserv ice
Ġmismat ch
Ġp ad
Ġb essel
Ġe ve
ow er
Ġr na
Ġro berts
Ġmulti layer
au er
Ġstatis tic
Ġadj oint
Ġdil aton
Ġopin ion
Ġquintess ence
b b
h es
l og
on i
Ġun s
Ġy ama
Ġfre ely
Ġ19 87
Ġorigin s
Ġtor ic
Ġdrople ts
Ġpiece wise
Ġanne aling
ti o
Ġp g
Ġtre ating
Ġantifer romagnet
Ġic ecube
Ġdim ers
Ġadjust ed
rec ently
k b
m og
Ġas k
Ġparameter ized
Ġpe ople
Ġiner tia
Ġexception al
Ġsees aw
Ġt ent
Ġma nd
Ġse conds
Ġfl aring
Ġindic ator
ci ally
Ġgravit ating
Ġsed s
Ġter restrial
e ch
Ġqu oti
ich let
Ġpres uma
Ġpredic ting
Ġoper ate
Ġtun nelling
Ġpart ly
Ġhel m
Ġsearch ing
rim e
le ton
Ġdis ent
Ġassoci ations
Ġhyper s
Ġtens ors
Ġmach ines
Ġdiscontinu ity
Ġdir ichlet
Ġ ys
ti ves
Ġp itaev
Ġw ant
Ġe y
Ġh ome
00 3
ful ly
Ġstran geness
Ġf ring
Ġre versible
Ġma l
res sive
15 5
Ġsecond ly
cl assical
Ġmirr ors
Ġenerge tically
Ġphysi que
Ġtempl ate
Ġsusp ension
Ġpresuma bly
Ġmar t
Ġcateg ories
Ġrevis it
Ġsecre t
Ġcl on
14 9
ni er
Ġinteg ers
Ġgeometr ically
ins tit
Ġhoriz ons
Ġcoord ination
Ġaccom pl
d ad
Ġp ip
Ġse man
Ġim mediate
14 7
Ġcharacter izes
magn e
Ġsever e
Ġunc over
] #
k el
Ġd ar
Ġd ys
Ġt ro
Ġex er
oc linic
Ġ5 1
Ġcross es
Ġinst ances
son ic
Ġvl t
Ġpermit tivity
Ġperi pher
Ġfro zen
prop osition
Ġthermo electric
Ġinterf acial
Ġpitaev skii
Ġs izable
Ġt ach
Ġb ist
Ġb ag
ve c
ac ly
Ġro w
quen ess
Ġfit ness
Ġbreak up
Ġcorrect ing
Ġna ive
Ġdiscrim ination
Ġgeodes ics
i us
Ġc row
Ġb ru
el es
Ġr v
Ġr ub
Ġbec oming
Ġparameter ization
Ġfl ash
Ġgaussian ity
sm ic
Ġdiver gent
Ġadsor bed
Ġobe ys
Ġale x
Ġb uck
Ġbo ok
Ġq gp
Ġcar t
Ġsubst ructure
acly smic
i red
n uclear
Ġc b
Ġ. ..
Ġb ab
le ar
il ab
chan nel
Ġlo bes
Ġextract ing
Ġlif sh
Ġpers ists
Ġcoal escence
Ġremin is
p eter
t l
Ġn as
Ġn ls
Ġr ising
Ġau gment
Ġens ures
Ġexclu de
Ġrepe at
rup ted
Ġenab led
Ġsinus oidal
Ġjaco bi
Ġpresent ly
Ġund et
Ġdifferent ly
Ġmodul ations
Ġtechn ological
Ġneb ular
Ġarc sec
h en
o ot
p ass
Ġp i
Ġex ter
ect ing
Ġdis joint
Ġcom oving
Ġmo v
Ġreg ul
Ġspin less
Ġimp osing
Ġran ged
Ġtra ct
ryst all
Ġmac ro
Ġadiab atically
Ġaccum ulation
Ġconstru ctions
Ġmicroscop e
h an
p n
em pl
id al
Ġtw in
Ġcat aclysmic
Ġperm its
Ġcatalog s
Ġrecogn ition
Ġequi pped
Ġaug ust
ar at
Ġre ar
Ġsp ur
Ġfac ult
Ġreservoir s
Ġneglect ing
Ġalloc ation
Ġs en
Ġre in
Ġk itaev
Ġent ers
Ġlapl ace
& =
e ff
Ġex it
Ġuni queness
Ġ10 4
Ġima ged
ire ction
Ġdiagnos tics
Ġsatisfact ory
] ,
_ /
b os
r ically
res on
Ġinf low
Ġmulti partite
Ġmin utes
Ġeigen vectors
Ġfer romagnetism
Ġpol and
Ġpreser ves
Ġcop ies
Ġnonloc ality
Ġpat ches
Ġacadem y
Ġreminis cent
n ame
Ġs aw
Ġo k
Ġas ca
ant ed
ad ay
Ġmo un
Ġwave vector
Ġsubs ets
Ġaccept ance
Ġprotost ellar
Ġassemb led
quant um
Ġlifsh itz
z i
Ġk p
Ġun re
Ġgraph ical
Ġu h
Ġoct ahed
Ġfamil iar
Ġstret ched
Ġadequ ate
Ġdivergen ces
l ich
Ġs ant
Ġf ission
Ġp ore
Ġac s
Ġnot ably
Ġtrans iting
Ġvari ants
Ġhy d
Ġstack ed
Ġcontin ues
ma g
Ġw ake
Ġfi b
Ġman gan
17 0
Ġox ford
pro ton
Ġelimin ate
Ġoutl ined
Ġcryp t
ent r
Ġcon es
se y
Ġpl aces
Ġfo kker
15 2
Ġfer romagnet
Ġillust rates
app a
Ġimbal ance
l angle
Ġpresent ation
Ġtop ologies
Ġpuls ations
Ġdeep ly
Ġrevers ed
Ġeu v
Ġappe ared
it ting
Ġwi mp
Ġelectron ics
Ġgeneral ity
Ġreal izing
Ġferm ilab
Ġref raction
Ġcontinu ity
Ġcy g
Ġclos est
Ġglass y
Ġcircular ly
Ġsal peter
Ġmim ic
Ġelse where
Ġfor ced
Ġi rac
Ġgeneral izations
Ġmul tim
50 1
Ġfix ing
omb ic
Ġconse cu
Ġcaus ality
Ġafterglow s
} _{\
or h
Ġv ide
Ġun ion
Ġvol ati
Ġaccre ted
Ġindi a
Ġcy gn
Ġentrop ies
ras olar
Ġmultipl ic
Ġblaz ar
w ide
Ġf d
Ġb rid
ro s
Ġis omorphic
Ġob li
ev a
Ġif x
Ġtra cing
Ġoper ational
Ġtrac er
Ġparametriz ed
Ġmonop oles
Ġpermut ations
Ġplaquet te
Ġsegreg ation
el a
Ġfoc al
Ġcontroll able
Ġbra in
Ġmaxim ize
Ġsoci ety
Ġubiqu itous
Ġa har
Ġs v
Ġp ed
Ġpro ving
Ġde ce
Ġindic ations
50 2
Ġthermod ynamical
Ġasymptotic s
Ġfac ilities
Ġexplan ations
Ġprep are
l ab
v ation
Ġs as
Ġma ts
ich i
ac ies
Ġle ct
Ġro ut
Ġsub graph
Ġspace craft
Ġag ing
Ġau ger
Ġpropag ators
Ġori on
bran e
Ġvor ticity
Ġsd w
Ġacknowled ges
Ġfacilit ate
Ġspheroid al
Ġsched ul
b if
Ġth om
ter m
ad ed
Ġcol lect
Ġar cmin
Ġz en
Ġsn ap
Ġoccup ancy
Ġguarant ee
Ġcephe ids
Ġfried mann
il ing
Ġinter band
Ġpa ul
sc ience
15 6
Ġfar aday
by e
Ġox ides
Ġmanifest ation
Ġhomot opy
Ġexter ior
rystall ine
s is
Ġs ort
is ter
es imal
Ġd ress
Ġb ore
le ts
Ġst ein
Ġex chang
Ġtrans c
Ġext rasolar
Ġhamil ton
mod el
Ġvalid ate
Ġpol ic
Ġacqui re
Ġprotot yp
v ar
al c
Ġapp arat
Ġdet ach
15 8
Ġmon od
Ġestablish ing
Ġreli ably
Ġrecur rence
Ġmeaning ful
Ġavalan che
Ġcau chy
{ {\
Ġ ig
Ġc ust
Ġin hibit
Ġb rack
Ġh v
Ġcon ference
Ġma d
Ġde bye
ov sk
Ġ6 6
Ġsearch ed
he ight
Ġultra fast
Ġsuit ably
Ġpurp oses
Ġisot ope
Ġretur ns
Ġdru de
b ru
m i
ra bility
Ġal t
Ġop tion
ber ger
pon ent
Ġq pos
Ġhydro static
ites imal
Ġadv ance
sch e
Ġtight ly
Ġastrom etric
Ġapparat us
l n
um e
Ġk ram
du st
Ġinter ven
Ġclass ic
Ġcross ed
Ġsecond oftwo
Ġunc lear
Ġrepro ducing
Ġcollap sing
oph ys
Ġrg b
Ġfire ball
first oftwo
s ite
re f
Ġse pt
Ġsub c
Ġlimit ation
Ġcons ensus
Ġq c
Ġent ering
Ġinfin itesimal
Ġplanet esimal
Ġswit ched
Ġcup rate
Ġk y
Ġspect roscopically
ile pton
Ġcorrel ators
Ġset t
sp aces
Ġign ored
Ġactiv ated
Ġpolarit ons
Ġjoh ns
Ġpubl ication
o ber
is sivity
Ġt c
erm ost
ole cular
Ġq mc
ier ls
Ġcommun ities
Ġsal t
Ġhapp en
Ġdiv is
Ġpreferential ly
Ġdys on
} ,\
Ġwe alth
Ġde ath
Ġli ou
Ġent ries
romagn ets
Ġstra nd
Ġorth orh
Ġfall ing
Ġcop per
Ġkol mog
f ont
w an
x s
Ġin effici
con t
Ġz ones
20 1
Ġassoci ate
Ġnormal ly
Ġhom odyne
Ġconcer ns
Ġflav ors
Ġencoun tered
su per
b ling
Ġw ish
Ġv ast
Ġ0 9
Ġvi olated
Ġdiff e
Ġdomin ating
Ġillust ration
Ġstream s
Ġtang ential
hol tz
Ġquar tic
Ġliv ing
Ġdise ase
a e
Ġa id
Ġs ma
ap es
Ġreal ity
Ġhel ps
Ġsn rs
Ġcircum st
Ġtang ent
Ġaccum ulated
Ġcompres sible
Ġlm x
Ġkolmog orov
Ġis ra
Ġsp ars
Ġra w
Ġpre print
Ġvari eties
Ġsub d
Ġcorrel ate
Ġlight cur
Ġexam ining
Ġprot o
Ġappropri ately
Ġirre le
Ġclaim s
Ġcompr ising
Ġbund les
Ġunambigu ous
c omp
s b
Ġb id
Ġre ma
Ġh amb
et e
Ġsh if
yn ch
dis per
j i
Ġc km
ol is
Ġex empl
Ġconc ur
Ġlag range
Ġdeceler ation
Ġelucid ate
inte g
h ard
Ġt p
Ġsuper radi
Ġspec ulate
Ġmic ron
Ġback scattering
Ġir res
Ġarg on
Ġhard ware
Ġeas ier
Ġcontam in
k ev
Ġb us
im etry
Ġco ma
Ġch ir
Ġ5 9
tiv ated
Ġelastic ity
Ġsil ica
Ġcomputer s
Ġenvelop es
cu o
Ġextrap olated
Ġproceed s
Ġarri ve
Ġcompeti tive
m ode
Ġpe ierls
Ġopp osed
Ġautoma ta
Ġenrich ed
Ġom itted
Ġrib bon
Ġartif act
Ġdepar ture
Ġprojecti le
[ #
e y
Ġf if
Ġd t
Ġex ec
Ġmod ule
Ġim mers
Ġglu e
Ġinterpret ations
be it
Ġutil ize
Ġoct ober
Ġb ump
et te
Ġk ur
^{ (
Ġhist or
Ġprim itive
Ġresum mation
Ġmonoch romatic
irection al
Ġisra el
d y
f i
p in
Ġs oph
Ġl ighter
Ġph osph
Ġplan ned
Ġap ril
14 8
ok ed
Ġyoun ger
Ġmot or
Ġboun ce
Ġcri tically
d agger
n ew
is on
as ure
Ġ1 17
Ġnon classical
Ġscal able
esc ent
her tz
Ġoptimal ly
Ġpock ets
Ġconsecu tive
Ġsoph istic
a ther
Ġb cc
ot es
act ing
Ġradi ally
phys ical
Ġcomm ensurate
Ġrig or
Ġinn ermost
Ġsynthes ized
Ġirrele vant
o ured
Ġs ag
Ġh ers
Ġv es
Ġbi ology
Ġperturb atively
Ġequilib ration
Ġadve ction
Ġdece mber
Ġ ridge
per iodic
Ġr c
Ġcoll ima
Ġmet ro
cd ot
Ġmicro st
Ġdistinguish ing
Ġdim in
Ġresol ving
Ġretri eval
Ġmultiplic ative
Ġrema ined
Ġo c
en ko
ar u
Ġn av
Ġh air
Ġsu z
Ġall oy
ish ing
Ġinteg rability
Ġcontinu ed
Ġfocus es
Ġhom ogen
cl ic
ourn als
Ġtin y
Ġe ast
Ġn w
Ġmagn ification
Ġgeneral izing
Ġwave f
rop ic
avi er
ep silon
Ġoutput s
Ġperm e
Ġconcept ual
Ġstrip es
Ġinstrument al
Ġoh mic
Ġworm hole
Ġuniversi dad
Ġbifurc ations
Ġhelm holtz
alc ogen
Ġorthorh ombic
b as
Ġal beit
Ġdi lepton
Ġthere in
15 7
Ġnan or
Ġnam ed
Ġconstitu ents
Ġresem ble
Ġspring er
Ġbilli ard
Ġsunsp ot
d ot
h y
m os
n m
Ġw es
Ġd sph
le vel
Ġ- .
Ġres c
Ġcor ro
sp ec
bo ok
Ġsa id
Ġjus tif
Ġdama ge
Ġhamb urg
an k
ul sion
Ġv ice
Ġr atch
Ġper man
Ġman usc
ection s
Ġinteract s
Ġaffect ing
Ġmonot one
Ġpuzz le
ilepton ic
w in
Ġo ce
Ġe g
od er
Ġal umin
ir gs
ke ley
Ġtri al
Ġanti proton
Ġred und
Ġcarri es
Ġep r
Ġpen al
Ġpresc ribed
Ġimmers ed
Ġc ep
et t
os econd
ect rum
Ġsu ble
Ġobser vers
Ġevolution s
Ġhere after
Ġ19 89
Ġ6 00
Ġresult ant
Ġmon omer
ĠĠĠĠ ĠĠ
Ġser ious
Ġrem ote
Ġdesign s
Ġview point
Ġorient ational
Ġste ering
ah n
Ġiniti ated
Ġchrom ospheric
Ġwan nier
) /
or ation
Ġn r
Ġpre ced
Ġem b
Ġ10 2
Ġel abor
Ġfundament ally
Ġdegener acies
Ġsetup s
Ġstabil ize
Ġirre versible
Ġbeg ins
Ġparti tions
Ġmanusc ript
Ġm jy
Ġst ated
Ġsh iel
Ġor bif
Ġes o
au ber
Ġbroad ened
Ġhard ness
Ġempir ically
mo tivated
Ġjus tified
univers ity
physi k
* .
c in
d et
v are
et riz
ear ing
Ġnan ob
Ġcop y
ato ire
Ġimped ance
Ġdoc ument
k pc
l ity
Ġd l
Ġt ell
Ġper ovsk
Ġar ran
Ġcomple ted
Ġsil icate
Ġpass es
Ġunus ually
Ġahar onov
Ġirres pective
d ane
u ary
Ġh en
et ti
Ġsc ope
Ġpa h
Ġexp osed
Ġspin tron
con dition
par tition
Ġsupp ly
Ġrepl ica
Ġlie b
Ġprote ction
Ġfav ors
Ġproceed ings
Ġdegra d
Ġpolariz ability
Ġflex ibility
Ġis och
Ġpar ties
Ġch i
ag raph
ast ron
Ġid ler
Ġsol ver
15 3
Ġmon omers
Ġsmooth ing
Ġdistin ction
Ġincor rect
po ints
Ġdestroy ed
Ġmultif ract
Ġc lu
ro v
Ġcom ments
Ġi p
00 5
Ġro les
Ġpop ulated
Ġmove ment
Ġincl ined
Ġcompres sibility
Ġsemimet al
Ġrigor ously
f m
l en
m pc
Ġthe or
Ġg n
ur us
Ġout ward
ole an
Ġoper ated
Ġsem ileptonic
Ġcoher ently
Ġconclu ded
Ġdecomp osed
Ġbor on
Ġencoun ters
Ġbenef it
Ġunbound ed
Ġlibr ary
Ġjohns on
Ġhers chel
f inite
Ġt l
Ġno tions
ub a
rough t
Ġhal dane
Ġindivid ually
Ġcertain ly
iss ner
Ġrecur rent
imet re
inter acting
Ġreact or
Ġheterost ructures
n ot
or bit
Ġh aus
Ġg ave
Ġiden tities
Ġmer ge
Ġve h
Ġcumul ative
Ġguarante es
Ġnest ed
Ġtach y
Ġnon thermal
Ġphot oc
Ġhe ights
Ġphoto electron
Ġcalor imeter
can onical
2 10
l ag
is per
Ġb rought
Ġch ance
Ġbo olean
Ġcl if
Ġequ ilibri
Ġtrans vers
Ġ10 3
Ġlinear ity
Ġcost s
bl ock
Ġheter ogeneity
Ġselect ing
algeb ra
Ġbim odal
Ġnomin al
d or
Ġac tivities
Ġtim elike
Ġso f
Ġup ward
Ġdiscuss ing
Ġampl ified
Ġmas k
Ġgain s
Ġstress es
Ġball s
Ġdetun ed
Ġassign ment
Ġcylinder s
Ġjan uary
Ġmagnetohydro dynamic
})+( {
b eck
Ġ 001
Ġp ks
Ġd as
Ġk ore
Ġsimul ator
Ġsoft ening
Ġintern et
Ġside band
sh ell
Ġber keley
Ġresis tive
Ġaccept able
Ġdelocal ized
Ġin dust
Ġb ad
Ġwe iss
un iform
Ġsuper lattice
Ġx u
Ġdef icit
Ġref ined
Ġrev ised
Ġgr ate
Ġsplit s
Ġrecur sive
Ġbring s
Ġs ic
Ġf an
Ġin versely
Ġn ight
Ġpro ves
il s
Ġal ma
Ġmod ifies
Ġ1 12
Ġk i
Ġk l
Ġli ps
Ġdo ing
Ġref inement
Ġphoton ics
Ġfree zing
Ġgravit ino
Ġhydro ph
Ġconfir mation
li e
Ġgo als
Ġfab ry
Ġdeple ted
Ġmaintain ing
Ġrecogn ized
Ġcapacit ance
Ġl isa
Ġh g
st ar
ad ic
Ġnon relativistic
og rams
Ġgener ations
Ġast eroid
Ġsimpl icial
Ġmagnet ar
Ġfron ts
Ġinterm itt
Ġdeconf inement
Ġshan non
Ġsept ember
x x
Ġs od
Ġs ine
Ġf aces
Ġme et
Ġco gn
Ġfi bre
Ġloc king
Ġmin d
Ġspati o
form ing
Ġisot opic
Ġlist ed
Ġconsum ption
Ġadapt ation
Ġmetamaterial s
Ġcham ber
p y
r ist
Ġ tit
Ġin ev
ul ts
ig roup
ud es
au x
15 4
Ġresolution s
Ġpath ways
Ġmagnet osphere
app ro
Ġstream ing
Ġexperi enced
Ġrigid ity
Ġgradu al
Ġaggreg ation
Ġirradi ated
exam ple
Ġepit axial
Ġprecurs or
n n
Ġw at
Ġsub spaces
cl ass
Ġhost ing
Ġvers a
Ġattract ors
Ġarchitect ures
Ġecon om
Ġfacult y
Ġequilibri a
ut o
Ġgover n
po ly
Ġta uri
Ġcoexist ing
oul ess
Ġcompr ises
Ġlig o
Ġlig and
Ġb ian
Ġb ps
Ġm rk
ak en
00 7
Ġpresent ing
aw ay
Ġer gs
Ġcorresponding ly
Ġvis co
Ġox id
Ġsil ver
Ġobstac le
Ġplasm ons
Ġsophistic ated
Ġcorro bor
n um
Ġth ouless
re mark
Ġin duction
Ġd d
Ġres ist
Ġle v
Ġresul ted
Ġour s
Ġrec omm
Ġfact s
Ġhel d
Ġabund ant
Ġglu ino
Ġaddress ing
Ġmanif ests
Ġsuscepti ble
Ġclump y
Ġdisag re
Ġunderd oped
Ġwaven umber
Ġharv est
a vity
l ights
en cing
Ġd av
Ġd la
ati bility
ub o
Ġq cp
Ġrandom ized
40 5
physrev a
Ġviol ate
Ġsto pping
Ġimper f
Ġtempl ates
Ġalkal i
Ġf ellow
ing ly
Ġre side
Ġh cn
Ġsp aced
Ġch ec
Ġpoly hed
Ġoff s
Ġcru cially
Ġelliptic ity
Ġdoub ling
Ġencoun ter
Ġmanag ement
Ġquoti ent
bru ary
an n
Ġm ri
ch t
Ġmod al
Ġnon interacting
Ġro uting
Ġtri axial
Ġdesign ing
Ġdevi ate
Ġdevi ates
Ġgu ided
Ġtrac ers
mes on
Ġposter ior
Ġric ci
Ġhemisph ere
Ġcollima ted
o ly
s al
en ger
Ġc g
Ġe aves
Ġh c
Ġfor t
Ġv oids
Ġop tic
Ġen for
Ġdec l
16 5
pend ed
Ġhyper on
Ġdepart ament
Ġcompres sive
ynch ron
u er
Ġd h
ed a
Ġb ak
Ġb order
Ġn avier
ur n
Ġcon ical
Ġde ad
Ġun p
Ġval le
Ġinteg rate
Ġflow ing
Ġrecon c
Ġsuperfluid ity
Ġps f
Ġviol ations
tima ted
Ġelimin ated
Ġskyrm ions
Ġdic t
Ġnone theless
Ġwet ting
) .,
Ġk g
ion e
Ġhigh lights
Ġ10 1
Ġfl ag
ord an
Ġgl auber
Ġbon n
Ġul timate
Ġkernel s
Ġhb t
Ġimper fect
obser v
dec ay
u x
Ġa k
Ġs om
Ġs id
Ġc ed
Ġk as
Ġinter con
Ġdi ode
sc ale
Ġfir m
Ġfe bruary
lo gy
Ġir s
Ġpropag ates
sp in
Ġparton ic
thm etic
Ġshad ed
Ġtract able
Ġarran ged
p silon
t wo
Ġh m
fer m
Ġrep ub
Ġwa iting
Ġemplo ys
}, {
Ġillumin ation
Ġdisloc ations
Ġaustral ia
f a
Ġf el
Ġf inger
Ġ- \
Ġg i
10 16
Ġpa id
mm etriz
Ġz eld
Ġup coming
Ġgeneral ised
tiz e
Ġult ras
Ġevery where
Ġmaintain ed
Ġkoh n
Ġsnap sh
Ġoce an
Ġc w
Ġd g
Ġl te
Ġv oid
ther land
Ġen zy
Ġno ve
Ġimpl ication
Ġreview s
Ġblock ing
Ġmathema tically
Ġsemiconduct ing
Ġfu v
.. ..
ny i
h oles
k appa
Ġt eller
ra tive
Ġra ised
Ġk ir
Ġradi ated
ugh t
Ġstud ents
Ġgraph ite
Ġhol omorphic
Ġult ral
Ġmonit ored
vare psilon
Ġlink ing
Ġcomm er
Ġrest oration
Ġrefer s
Ġiso vector
Ġprev ents
Ġ urb
Ġs ure
Ġf w
Ġh at
as ion
Ġz eta
par am
Ġti ss
Ġguarante ed
Ġcry ogenic
l ay
Ġh our
Ġdisc on
Ġsuper imp
Ġpot ts
Ġcharacter ised
ex pl
Ġavail ability
Ġdiffu sivity
Ġlabel s
Ġauto matic
Ġanticip ated
Ġanhar monic
Ġroberts on
Ġcircumst ances
v is
Ġc ant
it on
Ġde aling
Ġsol ves
Ġcluster ed
ins ky
Ġcollap sed
Ġgen es
Ġlag s
Ġpion e
Ġenerge tics
Ġban k
Ġsubgroup s
Ġcephe id
Ġari thmetic
Ġey e
Ġkram ers
Ġdegrad ation
0 30
Ġm v
Ġcon versely
Ġsp t
id er
ener gy
Ġmean while
Ġshap ing
Ġsimpl ify
Ġestablish es
Ġmicro canonical
Ġpie ces
onom ous
Ġspur ious
a pping
n ard
Ġl sp
Ġst ay
Ġk ob
Ġr ises
Ġdist inc
Ġno tic
Ġins u
Ġsl iding
Ġenhance ments
Ġsatur ates
Ġboh r
Ġwarp ed
ti st
Ġc nt
Ġp ier
Ġk alu
Ġac quis
Ġdi a
Ġem issivity
Ġro y
Ġli pid
Ġsub aru
Ġbl ast
17 5
Ġsever ely
Ġconduct or
Ġpat ch
Ġtexture s
Ġdeb ate
Ġbreath ing
Ġvide o
Ġnove mber
f in
m l
w ers
th ere
Ġg lit
Ġal ph
ver t
und er
Ġ2 10
Ġun perturb
Ġmo on
Ġchar ging
Ġray et
lec tively
Ġconstra ins
Ġsepar ates
Ġemphas ized
Ġinn ov
g i
p rime
Ġp qcd
an ol
qu bit
Ġ3 50
Ġ\ (
Ġref lections
Ġlower ing
ne y
Ġvirt ually
Ġiter ations
Ġinsu ffici
* *
h el
Ġo am
en h
ra w
ut y
Ġdiffer ing
Ġen lar
Ġtr uly
Ġsmooth ed
Ġfam ous
Ġlear n
Ġschedul ing
Ġzeld ovich
Ġunperturb ed
^ +
o ke
Ġf unct
Ġ2 35
Ġnot ing
Ġro ma
lust ers
Ġ19 88
Ġmon t
40 4
Ġsus pended
Ġemit ter
ob ic
Ġcomposition s
Ġrece ive
sph ere
Ġpy ro
Ġbenef its
Ġcircul ation
Ġs ax
Ġd ry
us s
Ġcomp ares
ay ashi
Ġdec is
Ġcm r
Ġlines h
60 1
Ġred istribution
Ġacceler ate
Ġshock ed
itt ance
Ġpseud ospin
Ġavoid s
Ġsharp ly
Ġhi pp
Ġunf olding
Ġecon omic
Ġquer y
Ġkag ome
Ġhypothes es
Ġkalu za
in ess
Ġl asing
Ġnon line
Ġy e
20 5
Ġquark onium
Ġchem ically
Ġdur ham
Ġmut ation
Ġadjust ing
Ġquies cence
Ġintermitt ent
Ġacquis ition
t w
ti er
Ġs ided
Ġd or
Ġb ic
Ġm ori
ur faces
Ġ1 19
ies t
Ġwill i
Ġpoly akov
Ġsem igroup
omp ass
pr l
Ġfu zz
Ġsubstit uting
Ġsket ch
Ġliou ville
Ġmetro logy
] $
f ix
Ġw er
Ġw itten
Ġe th
ic les
Ġj i
00 4
Ġnon neg
par allel
Ġbl o
Ġfew er
Ġbu oy
}} {
Ġacqui res
Ġcumul ants
Ġattack s
char ge
Ġscintill ation
Ġfem tos
Ġaugment ed
Ġnonline arities
} -
Ġp itch
Ġb j
Ġon t
ri a
ak u
Ġmulti dimensional
ost er
Ġalgorithm ic
80 1
Ġenc ompass
=" ^
Ġnn lo
Ġisoch ron
! \
^ (
o i
Ġf g
Ġp orous
Ġcent ury
15 9
Ġfol i
16 6
Ġrot ated
Ġorigin ated
Ġelement al
Ġhu ang
Ġdest ructive
Ġautoma ted
Ġri p
Ġwf pc
Ġexchang es
b el
Ġun iv
ad o
Ġcor on
Ġj ordan
Ġwhere by
Ġtra in
Ġsupp osed
16 1
Ġpoly disper
Ġeigen vector
Ġinterpre ting
Ġstra tified
Ġresidu als
Ġaggreg ate
Ġmy ster
Ġerup tion
Ġtric ritical
Ġclif ford
en a
Ġf t
Ġd rell
Ġre form
Ġg ir
res sively
Ġ1 65
Ġco in
Ġse ism
Ġnon con
Ġdef lection
Ġima ger
23 5
Ġextern ally
Ġclassif ications
Ġview ing
Ġconven tion
Ġsystematic s
Ġproject s
Ġsuperc urrent
Ġkel vin
Ġclon ing
Ġnanor ib
( {\
Ġp ra
Ġre ader
od ynamics
Ġun equ
Ġcomple tion
Ġpoly c
Ġdispl aced
Ġrenormal izable
Ġregular ized
Ġexclu sively
Ġdm ft
Ġoccup y
Ġyb co
Ġinvis ible
instit ute
) [
- )
Ġth ori
Ġt ori
it eness
Ġe h
Ġn ative
Ġph il
Ġun av
Ġemer ged
bi otic
Ġaccompan ying
Ġepis odes
Ġdisagre ement
p ack
q c
ti ble
Ġp il
Ġt t
Ġn u
as tically
Ġun aff
Ġev an
Ġloc ate
Ġmon d
Ġmon o
Ġend ow
Ġpseud op
Ġcollabor ations
Ġfu el
Ġlangu ages
Ġpn icti
Ġspir it
Ġquar ter
ivari ant
Ġf a
Ġl amb
ch n
Ġde ut
ec tic
man y
Ġq pc
Ġspec ify
Ġgre y
Ġcool er
co ol
Ġperforman ces
Ġblu esh
Ġnarrow er
Ġengine ered
Ġmess ages
,^,^ ,^,^
Ġleak age
Ġconcur rence
is en
Ġre vi
Ġl t
Ġresearch ers
Ġgen eva
Ġhist ogram
Ġjoint ly
Ġsuperposition s
Ġdeuter ium
Ġdistill ation
Ġunaff ected
z il
Ġt es
Ġt um
ent ation
Ġh n
Ġv a
ge ometric
Ġph r
Ġ1 70
Ġver tically
Ġgau gino
Ġgood s
Ġdouble ts
Ġthin k
Ġsolit ary
Ġwr iting
Ġcatal y
Ġcrystall ographic
Ġpix els
Ġbacter ia
Ġancill a
Ġrein for
Ġs ar
Ġn ut
ri an
Ġcl i
Ġbl r
Ġinv est
Ġuseful ness
ca vity
Ġstri pping
Ġdiver ge
Ġant ine
Ġaccommod ate
Ġuh ec
e le
k le
Ġf ren
Ġp us
Ġint ensive
av a
Ġtransfer s
Ġil c
Ġpers pec
Ġaxi ally
f oli
Ġp es
Ġt ack
Ġt ables
Ġl r
Ġh oc
Ġg b
ig matic
Ġli ve
Ġup gra
Ġhadron ization
Ġrun away
Ġsupplement ed
Ġcrystall ization
Ġcn rs
Ġros si
Ġcompens ated
Ġmand el
Ġimperf ections
Ġdistinc tive
Ġperspec tives
f re
Ġf un
ul us
ch ain
Ġsuper lumin
Ġexc ite
Ġtra vers
Ġconver gent
Ġros en
Ġleg end
Ġexoplan ets
Ġambigu ity
im ov
em e
Ġle m
Ġbo ot
Ġ8 00
80 2
Ġcolor ing
Ġdetermin ants
Ġreason ing
eric a
Ġbra id
Ġdiamet ers
Ġtherm op
Ġstem s
Ġwavef ront
Ġrepub lic
Ġf ad
Ġd p
Ġquant a
Ġz r
Ġterm ination
Ġdef in
lo op
Ġlower ed
och emical
Ġhar der
Ġtor ques
Ġvalid ation
Ġaddress es
Ġprom ise
Ġenc ode
Ġrece iv
Ġlack ing
Ġneighbour hood
Ġtoler ant
i able
m ention
y ama
ent y
Ġbe at
Ġch romatic
act ers
ib o
Ġtra v
Ġpolar ity
20 2
Ġge o
Ġyiel ded
Ġsubs am
Ġdil ution
Ġdest abil
Ġcateg or
Ġrescal ed
Ġconflic t
Ġo g
Ġin ducing
Ġv he
Ġfl i
16 3
Ġsn ow
Ġobservation ally
Ġsuc ceed
Ġminim ized
Ġta per
Ġminor ity
electron ic
Ġload ed
Ġbf kl
Ġbore l
Ġperman ent
param etric
mention ed
b one
in ar
on ia
Ġh od
ol a
ol umin
Ġco x
Ġch ic
Ġro ds
Ġfre quent
Ġsil ic
Ġpositron s
Ġprototyp ical
Ġinsuffici ent
d rop
th ms
Ġp or
Ġp ca
Ġre active
ur ation
Ġwh il
Ġal tered
Ġse z
Ġun im
Ġtrans loc
cess ing
Ġsuper h
Ġfra g
Ġmic rom
Ġcompar ative
Ġpack ings
ai th
bl ad
Ġassess ment
ivari ate
Ġaccompl ished
q md
s a
al ign
Ġh l
as i
st y
Ġas ser
Ġk al
Ġun able
Ġcor ollary
Ġhe art
Ġcorrel ates
Ġatt ribut
18 5
18 8
Ġgu ess
Ġcolum ns
quark s
Ġthousand s
ref ring
Ġwhil st
b old
f w
m ore
m ulti
Ġf os
or n
ul f
Ġ1 55
Ġsuper sonic
Ġrot ate
Ġneg ativity
Ġconver t
Ġwor st
Ġbelie f
Ġexoplan et
Ġa fore
ti sche
Ġd n
Ġd ang
Ġn ord
ous e
ther ed
Ġnot able
for ma
Ġbas ically
Ġinf ected
Ġwas h
16 2
Ġunit ed
ater n
Ġprog ressively
Ġaut onomous
Ġhyp o
Ġvers ati
Ġbh s
Ġdisappear ance
Ġforth coming
Ġpolyg ons
Ġresc attering
Ġced ex
j an
s ub
Ġa ven
Ġo t
Ġc ube
is sible
Ġw kb
Ġin as
Ġand re
Ġis olation
Ġst ays
Ġde plo
Ġno thing
Ġq i
Ġbec ame
Ġexam ination
Ġscattering s
Ġed uc
Ġsensi tively
Ġposi tivity
Ġtriang ulation
Ġret arded
Ġher al
Ġincomp atible
Ġbun ch
Ġstro ke
Ġineffici ent
p ot
v ised
in ely
Ġw ard
Ġcont ributed
Ġcal c
Ġloc k
Ġbl ind
Ġposi tively
Ġoptimal ity
Ġmagnet ost
Ġcatalog ues
Ġmi tig
Ġarrang ements
Ġld os
Ġsemimet als
Ġcentro id
dif f
nucle i
Ġnonneg ative
Ġfemtos econd
olumin escence
Ġs ac
Ġf id
Ġre heating
Ġn ash
Ġcomp atibility
Ġdi jet
Ġelect rically
Ġexp ects
Ġtrans istor
Ġchar acters
Ġund oped
Ġsing ly
av ed
Ġradio active
Ġcap ill
Ġtreat ments
Ġdivid e
Ġmot ors
Ġsubtract ed
Ġlind blad
Ġperipher al
Ġthermop ower
u chi
Ġs tic
Ġs lepton
Ġo rac
ro se
Ġre ver
Ġh s
un i
Ġit em
Ġobserv atories
Ġpl acing
Ġgal ile
Ġdep olar
str ing
Ġenh ancing
Ġbar red
gu in
Ġcu o
Ġpie zo
Ġfilament ary
ya ev
Ġban ach
Ġgem ini
Ġoutper forms
Ġorbif old
Ġkore a
Ġboot stra
Ġf aith
Ġw ing
ar cos
ul ly
st on
pl as
Ġr p
Ġun expl
ap tic
Ġunder t
rin sic
Ġcent a
Ġpart ners
phys ics
Ġdown ward
Ġzh ou
Ġfilter ed
Ġspan ned
Ġdecomposition s
Ġequi partition
Ġspi ke
b ell
p ul
p ectrum
le v
Ġre lying
ch a
ch itz
Ġk ane
ib ly
16 4
Ġbi refring
ival ent
Ġminimal ly
Ġphoto ion
Ġdil uted
Ġba o
Ġsegment ation
Ġsustain ed
Ġhab itable
Ġdepartament o
Ġp eters
Ġis omorphism
Ġcor ot
Ġpl ayer
Ġspect rally
ag on
ill er
Ġterm ed
Ġ19 85
Ġscatter ers
16 9
Ġconn ects
co ura
Ġgain ed
Ġbra zil
Ġmultipl icities
Ġcompac tification
Ġmultim ode
Ġsod ium
Ġcogn itive
3 21
; #
j a
r ast
Ġc eles
le b
Ġwe in
Ġr t
erm in
Ġen coura
Ġtheore tische
Ġgr ass
idel berg
Ġbox es
Ġpropos es
Ġprotost ars
Ġlips chitz
Ġdiscon nected
Ġafore mentioned
n z
} +\
Ġa e
it o
Ġk ubo
Ġr y
ac u
Ġsub hal
Ġam en
ensi le
Ġoptim izing
Ġvalid ated
ire ct
Ġdelocal ization
Ġcontradic tion
inski i
j l
q r
ra in
Ġ1 14
ay a
ag er
60 2
Ġbath s
Ġfore cas
Ġka ons
Ġpolyt ope
Ġtag ged
Ġalex ander
Ġratch et
dor ff
Ġhipp arcos
Ġa er
en tified
Ġc ad
es ium
Ġre ally
ri de
ot yp
Ġr he
Ġso i
Ġmat ro
Ġatom istic
Ġapproach ed
Ġmet e
Ġcontro versi
Ġcle o
Ġsensi tivities
Ġtransm itter
Ġsugges tive
Ġorient able
Ġgu iding
Ġmis align
Ġdiver ging
Ġrepl ic
Ġlear ned
Ġhighlight ed
Ġopportun ities
Ġspac ings
n l
ti k
Ġn az
ch air
Ġpar sec
Ġne pt
Ġint ended
ag ed
umin ous
Ġinteg r
Ġdiscre tized
Ġrotation ally
Ġmicro cavity
Ġret ro
Ġquantif ying
Ġencl osed
ef ined
) +
i mation
Ġa a
Ġh ung
Ġde als
Ġun physical
ru g
Ġmulti wavelength
Ġsch ematically
16 7
Ġiden tically
Ġmix ings
sp ect
ater al
Ġmultipl ication
Ġinterven ing
Ġglue ball
Ġhaus dorff
Ġvalle ys
Ġpseudop otential
d am
j unction
m hz
Ġp end
Ġd un
Ġd ell
ar c
Ġn g
Ġst ere
Ġincre ment
Ġmet er
Ġkine matically
Ġmultiple t
Ġmer it
Ġend point
Ġber lin
Ġcombin ator
Ġreco vers
Ġfas cin
Ġfract ure
Ġarm chair
Ġkh ler
k r
p ted
Ġs is
Ġin ject
Ġe gre
Ġpre ference
Ġro ss
Ġno v
Ġlim b
ian s
the ore
Ġ19 86
Ġprof ound
Ġimpact s
Ġwindow s
Ġram sey
Ġlen nard
Ġstan ford
Ġsuperimp osed
Ġegre t
n ote
Ġf q
Ġw en
Ġw ds
Ġn h
ch l
Ġinter atomic
Ġro ck
Ġflu or
Ġhe idelberg
Ġbin omial
30 3
Ġmodul o
Ġconject ures
Ġbil inear
Ġcart esian
Ġvolati lity
Ġfif th
^ #
o o
Ġin ac
Ġd las
an aly
ic z
Ġh int
25 0
Ġredsh ifted
Ġnan of
Ġbroad ly
Ġsugges tion
Ġillust rative
Ġrepe tition
Ġrecur sion
Ġmaxim ization
Ġcumul ant
Ġattain ed
Ġspac elike
Ġastrom etry
Ġgri ds
ran ce
Ġcont ex
Ġcent ri
Ġte lec
Ġcaus tic
Ġvl ba
Ġlaun ched
Ġhypers urface
Ġcontex ts
} ^{\
ic le
Ġh ong
Ġg el
Ġ1 35
Ġse x
Ġradi atively
Ġdef ault
20 3
Ġfol ded
Ġsee ing
26 4
lin ations
Ġrece ivers
Ġput ative
Ġmission s
Ġmangan ites
b ow
Ġt rop
Ġm ller
se v
Ġcal ab
Ġad atom
Ġup stream
Ġbec s
Ġinst all
Ġber g
Ġiter ated
Ġjam ming
Ġskew ness
Ġfring es
Ġrear rang
wide tilde
Ġperovsk ite
) }\
u ing
w ood
on y
Ġw ra
Ġh ump
ul ates
et z
Ġal bed
Ġ19 84
Ġoscill ates
50 3
Ġbroad cast
Ġdiscover ies
Ġsugges tions
Ġsuscepti bilities
Ġtradition ally
Ġprogramm e
Ġflatten ing
Ġhistor ical
Ġbian chi
Ġwer ner
Ġth read
Ġin ward
Ġqu d
ys is
Ġ2 30
ple x
te en
Ġext rinsic
Ġlat ent
20 9
Ġmechan ically
Ġbi om
19 5
Ġeigen modes
Ġmer ely
Ġaltern ate
Ġcollap ses
mat es
Ġpin ned
Ġmanip ulate
Ġcommut ing
Ġevid ences
Ġharvest ing
Ġhypo the
j p
l ers
o tion
t em
Ġs nia
Ġf c
Ġis oscalar
Ġcom et
Ġ1 27
Ġch rist
Ġper imeter
Ġgal act
amet er
Ġsub band
Ġmet rop
Ġcm es
Ġmer id
Ġexclu ding
Ġsun yaev
Ġexpand s
Ġshif ting
Ġcoron agraph
l ate
o gn
in k
re ads
Ġw ings
ro g
Ġm us
Ġn ac
Ġan ch
Ġde le
Ġ1 22
Ġloc us
Ġ7 00
Ġformul ations
Ġinstitut o
Ġpay off
Ġdisloc ation
Ġtransvers al
Ġdeplo y
Ġceles tial
, -
/ \
g m
t op
u ous
z h
Ġa o
Ġa ware
Ġn ps
Ġbe pp
Ġop to
Ġy ellow
20 10
Ġunivers es
Ġtri vi
Ġti ling
Ġremain der
Ġfav our
Ġmultip oles
Ġelu sive
Ġlb gs
Ġpuzz ling
empor al
Ġcrypt ography
Ġfascin ating
Ġs le
Ġp ati
Ġ. \
Ġt ensile
Ġto k
om y
Ġk en
Ġk am
and e
Ġchar gino
Ġ19 80
16 8
Ġclo ak
Ġmem ories
Ġcr s
Ġdra in
Ġlogarithm ically
Ġbig ger
Ġbud get
Ġfulfill ed
Ġlept ogenesis
sol id
Ġspars ity
Ġperme ability
b en
f ts
g d
x ico
| \
Ġl ay
od i
op tions
Ġpa ge
Ġpa ired
Ġprocess ed
Ġcosm ologies
Ġback bone
Ġamong st
Ġanalog ues
af e
Ġcircum nuclear
Ġlab elled
Ġmultifract al
3 00
n ell
p q
z n
} +
Ġd ens
Ġv en
Ġv ar
we ight
Ġcor rug
Ġpo v
ynam ically
cy c
ric k
Ġsingle ts
19 0
he ader
Ġnam e
den ed
com ponent
Ġpd fs
Ġparam etr
Ġlook s
Ġscaled width
Ġsom mer
Ġhypothe tical
= -
g ener
th al
Ġc iv
Ġw l
Ġb t
Ġb ss
Ġl ose
tic ular
ol o
am pl
Ġmod ifying
Ġqu atern
Ġra in
Ġk ms
Ġcont empor
ugh lin
Ġq w
}} $
Ġdistinguish able
Ġcanc er
Ġinterm itten
Ġnas a
Ġalph ab
Ġsez ione
) ,
j ournals
ti um
Ġm en
Ġl ap
Ġcomp os
ion ic
ari us
Ġphys ic
Ġen orm
Ġsuper b
Ġpow der
Ġsin k
17 2
Ġspati ot
Ġnan omechanical
Ġcr is
Ġestimation s
Ġminim izes
Ġmultipl ied
Ġphenomenological ly
Ġni k
Ġmaxim izing
Ġsubd warf
Ġultral uminous
: #
a a
d b
h ere
i op
Ġn ai
Ġg an
Ġcont ours
Ġro che
upl ed
all is
rop olar
Ġband gap
20 12
Ġfl atter
ex change
Ġhard ly
Ġcat astro
Ġtru ecm
Ġideal ized
Ġtransform ing
Ġfru it
oph ot
Ġexperi ences
Ġdon ors
Ġacknowled g
Ġimm une
Ġdefici ent
&= &
l ov
m ps
on ormal
ti tial
Ġs ak
Ġc pt
ot ing
Ġal tit
Ġr im
Ġtw enty
ist ine
Ġrec tification
17 3
Ġcoun cil
Ġapproxima ting
Ġrest ored
Ġexplo sive
Ġrh o
Ġpr istine
Ġdemand ing
Ġpy th
Ġfoot note
Ġretri eved
Ġsupergiant s
Ġappreci able
Ġkp z
Ġfuzz y
Ġcapill ary
Ġorac le
Ġintermitten cy
- _
_ (
b c
f ly
Ġ ud
Ġk ui
Ġle ver
Ġj ack
Ġnon uniform
Ġphot oluminescence
Ġwave forms
Ġwave pack
Ġmet as
ps on
Ġsm ectic
Ġdenot ing
Ġswit ches
Ġpoisson ian
Ġmembers hip
Ġstret ch
Ġconstru ctive
Ġundet ected
Ġpolic y
Ġoxid ation
Ġevan escent
Ġsuperlumin al
Ġth ings
Ġd an
Ġto ok
em pty
Ġse as
Ġgal ex
Ġchar med
Ġcoll oids
Ġwave form
Ġoper ates
Ġneg atively
Ġgravit on
Ġsw apping
Ġren ew
Ġslow ing
Ġconduct ors
Ġga ia
Ġlhc b
Ġvisual ization
Ġts allis
Ġsto ichi
Ġinters titial
pd f
Ġsubmill imetre
Ġn iel
st yle
Ġbe ij
Ġal i
Ġconf usion
Ġinv oking
Ġrot or
Ġ9 00
Ġsl ice
Ġpuls ating
Ġblu er
Ġsym biotic
Ġbon net
Ġspan s
Ġpartition ing
Ġmor se
Ġaggreg ates
Ġnanopar ticle
Ġunid entified
Ġpolyc rystalline
Ġphr ases
y stem
is c
Ġ2 40
Ġno ises
ke y
ib a
Ġq ss
Ġpolar ons
Ġhom ogeneity
Ġzh u
Ġplate aus
Ġeu ro
Ġcompton ization
Ġtrigger ing
Ġda vid
Ġchrom osphere
Ġdiss oci
Ġevid enced
Ġheterost ructure
Ġbootstra p
c ore
c up
o z
Ġf use
an al
Ġh ess
am n
os ov
de ev
Ġnon magnetic
Ġphys ica
Ġy ou
Ġdesc ent
Ġcondition ed
Ġscatter er
Ġunc o
Ġrepro duction
Ġseem ingly
Ġmn chen
Ġdisplay ing
Ġdig raph
Ġdr astic
Ġattach ment
Ġjoh n
Ġrescal ing
m g
Ġs ach
Ġc rac
Ġw rong
Ġb end
us ed
Ġimp rin
Ġden omin
80 3
Ġfull er
Ġmagnet ars
Ġstri pped
Ġpercent age
Ġinsp ection
Ġzen o
Ġchic ago
d h
Ġw is
Ġt uc
Ġspect ropolar
Ġ0 1
Ġsuper cool
ject ure
Ġcent rally
20 4
Ġoscill ate
17 4
Ġrob in
Ġsuperc ritical
Ġcompens ation
Ġtransloc ation
Ġamen able
Ġa ch
Ġc ot
Ġd q
ing ton
Ġm cc
Ġm bl
Ġn ick
Ġr k
Ġnot es
iv en
Ġopen ed
Ġmark ets
sh ip
Ġanalog s
Ġquen ches
Ġdiscontinu ities
Ġmess enger
Ġconv inc
__ @
Ġnotic ed
b ra
j k
re p
at en
Ġco le
Ġsc o
de x
ad d
Ġdiscuss es
Ġlong est
Ġred der
Ġhyper geometric
Ġnm ssm
Ġtrig gers
Ġarch ive
bh s
Ġkeep s
Ġacad emic
Ġrad ical
Ġremo ves
Ġheli oseism
Ġcasc ades
Ġpriv ate
name font
var phi
Ġsuz aku
Ġcommer cial
Ġgalact ocentric
* -
b inary
c q
f b
m yr
w ig
Ġs av
Ġl ift
Ġcom ets
Ġk ron
Ġfi le
Ġcont ents
Ġj ud
Ġmo ore
Ġelect romagnetically
10 63
Ġad ds
con jecture
20 11
Ġti s
22 6
bran es
Ġecc entr
Ġtoler ance
Ġnest ing
Ġreconc ile
Ġeccentr icities
5 00
g ru
in ner
Ġc ab
Ġt on
Ġh ints
om ent
Ġwe e
Ġreg ulation
Ġad hes
Ġconc ord
Ġbro ok
Ġextra ord
ryst als
Ġtransport ed
Ġstra ins
Ġtru st
Ġvir us
Ġplay ing
Ġbra king
Ġsf rs
plan etary
Ġdivid ing
Ġobsc uration
Ġjam es
Ġtent ative
Ġsuperradi ant
g iven
Ġf ly
Ġra ises
Ġus age
Ġsy mmetriz
Ġper ot
Ġnon parametric
Ġequ ivariant
Ġsub lattices
Ġdepend ency
Ġinf ection
30 5
Ġast er
Ġdown stream
Ġsimpl ifies
Ġorth onormal
Ġadm issible
Ġmg b
Ġcompens ate
Ġprotost ar
Ġshallow er
Ġdich ot
Ġplanetesimal s
Ġchir p
Ġthori que
Ġunav oid
Ġtrav elling
d om
Ġs me
Ġs kin
Ġc q
Ġc ity
Ġp am
is ations
Ġm p
Ġg ol
Ġcon ce
Ġex changed
ot a
ut ter
Ġdis f
und efined
Ġco planar
Ġdi ps
rop roduction
Ġanomalous ly
Ġshe ared
Ġstabil izing
Ġpd r
Ġcn ot
Ġsuperc ell
Ġcommut ation
Ġherm ite
Ġjac ob
Ġlatit udes
Ġpublic ly
Ġdisturb ance
Ġrend ers
Ġque ue
Ġog le
Ġmisalign ment
chl ore
a el
Ġa str
Ġp ev
Ġw s
ar xiv
Ġto wer
Ġis olate
ab und
Ġle x
Ġac tively
Ġper se
Ġpre condition
Ġ\ {
Ġsm earing
pre ad
Ġshort ly
Ġsqu id
Ġide ally
Ġele g
Ġsubst ructures
Ġclos ing
Ġexcess es
Ġlam inar
tis ation
Ġlept o
Ġinher ently
Ġys os
Ġmov eto
m no
o is
st ation
Ġres ort
Ġk oster
Ġtrans its
Ġflu ence
Ġspec ially
18 1
Ġidentif ies
}\ \
Ġmotion al
Ġtriang ulations
Ġje ans
Ġlen ticular
Ġib id
Ġasc ribed
Ġspintron ics
Ġfad deev
Ġeduc ation
0 50
z w
Ġ 000
Ġc ec
Ġc rack
Ġf at
es pread
Ġm ock
ent al
Ġsh am
Ġk ill
Ġk aw
Ġop tions
uc ial
hi re
Ġwid espread
Ġframework s
Ġmark s
Ġconven ience
Ġaim ing
Ġoverlap s
Ġul irgs
Ġimplicit ly
Ġbab ar
Ġdetach ed
Ġlmx bs
Ġkui per
c ati
u ki
ti mates
Ġp ose
Ġd end
Ġt ully
Ġg t
ch emical
Ġco ars
Ġk an
Ġ2 45
Ġun ve
ru ctions
Ġspect ator
Ġdec ide
Ġz o
Ġti o
Ġrich ards
Ġcontroll er
Ġtail ored
Ġresidu e
Ġsurvi ves
Ġquadrup olar
Ġuncon dition
Ġld pc
Ġoffs ets
d v
n b
r w
Ġa vi
an ge
ro ll
Ġl ane
Ġcomp elling
ens ure
Ġsystem ic
Ġgra ded
Ġsuper solid
Ġimp oses
20 13
Ġsee k
ura bility
ok a
Ġmicro c
wh en
oper ator
loc al
Ġbr un
versi bility
Ġrus sian
Ġinterp olating
Ġimm un
Ġdisent ang
Ġsag itt
Ġpyro chlore
Ġlinesh ape
Ġbeij ing
v d
Ġp ac
Ġt erica
or gan
Ġma ter
us er
ch o
Ġob j
Ġj ar
Ġout standing
Ġpul l
Ġsize able
17 1
Ġdes orption
Ġdra wing
Ġtarget ed
Ġpol oidal
Ġzh ao
Ġpen guin
Ġtid ally
Ġtransl ates
Ġnit ride
Ġscintill ator
Ġnak ed
Ġmild ly
Ġspatiot emporal
ensure math
a diab
y ear
} )\
Ġ rix
Ġs el
Ġt ls
Ġv ital
Ġsh g
Ġsc r
Ġacc ident
ici ally
Ġanalys ing
20 7
Ġke k
Ġhyper graph
Ġstra gg
Ġnecess ity
Ġfr w
Ġinstrument ation
Ġchrom odynamics
Ġneur onal
'' @
Ġoverd amped
- (
g ray
Ġp w
Ġdis rupted
Ġr nyi
Ġj in
Ġwhere in
Ġtem p
Ġy ba
Ġmulti scale
onal d
Ġcompact ness
Ġaltern atives
den se
Ġcolum b
Ġscre en
Ġseman tics
Ġmonod rom
Ġfid ucial
_ +
k ar
m box
o on
| ^
Ġp ain
Ġ. .
Ġw ars
Ġb ax
Ġn os
Ġh of
qu ist
Ġv ap
em er
Ġcomp ass
Ġk w
Ġac id
Ġran king
Ġ19 82
Ġins ets
Ġelectro ly
ob ar
Ġdur ations
Ġfail ed
Ġconformal ly
Ġelim ination
Ġda ily
Ġls b
Ġsquark s
Ġunid irectional
Ġcygn us
3 10
n an
o e
y an
Ġc si
as ov
ul ator
Ġma ry
Ġne therland
iz ability
Ġz ener
ub bles
Ġinvestig ates
str m
line width
Ġposition al
osph eres
Ġhard y
Ġtr imer
ini o
Ġexplo its
Ġtrig on
Ġsynchron ous
Ġmanifest ed
Ġinser tion
Ġbat se
Ġxx z
Ġunequ al
Ġnetherland s
Ġthe sis
er kin
an ium
Ġn il
as p
st ructure
Ġal to
Ġph yl
Ġsh i
Ġco il
Ġch u
Ġobserv es
00 6
Ġradi on
Ġz w
11 26
ft y
Ġmin ing
val ues
Ġpath way
Ġspe aking
Ġultra relativistic
Ġgen nes
Ġstat ements
Ġann ual
Ġperi astron
Ġpent a
Ġimpul sive
Ġsuble ading
Ġeaves drop
Ġji ang
Ġtrop ical
Ġsagitt arius
j o
Ġc oded
Ġp assi
Ġd al
Ġb g
Ġl sc
Ġ1 75
Ġqu art
Ġgal erkin
sc ript
Ġnew path
Ġup t
Ġset gray
Ġset linewidth
Ġmulti ply
Ġte am
right arrow
otrop ic
Ġpart ner
Ġclose path
Ġhad ama
Ġlas inio
lit z
Ġmultiple ts
Ġdiagram matic
Ġhot ter
Ġcapac ities
Ġps fig
Ġbott len
Ġintui tion
Ġfed er
Ġtiss ue
Ġcontroversi al
Ġrix s
p osi
Ġw edge
Ġt am
Ġre cept
od ec
Ġco ated
Ġch sh
Ġab er
Ġsub class
Ġmeth anol
12 12
Ġover sh
Ġhe alth
36 01
24 5
Ġlas ting
Ġsyn aptic
Ġboson ization
Ġalgebra ically
Ġpur s
Ġbon di
eld ysh
Ġladder s
Ġinters ecting
Ġpolyt opes
Ġappe aling
Ġthorough ly
Ġbuck ling
ogn a
add ress
adiab atic
in fty
Ġp de
Ġst a
Ġfor n
Ġcon duc
Ġv ill
Ġk eldysh
ag a
sc aling
Ġq m
Ġwork sh
Ġjet p
Ġinequ ivalent
Ġorgan isms
Ġsuppress ing
Ġconjug ation
Ġcompr ised
Ġneighbour ing
Ġpolyt ropic
Ġillumin ated
Ġdisturb ances
Ġconformation s
algeb ras
Ġalle vi
Ġky oto
Ġseism ic
Ġeleg ant
Ġbax ter
Ġhadama rd
Ġworksh op
t uring
re action
om s
im oto
ig an
Ġsp dc
Ġmeth ane
rin k
Ġes r
Ġmulti photon
Ġstra tification
Ġsimpl ification
Ġneutral inos
Ġsmooth ness
Ġbol ogna
Ġextrap ol
Ġesc ap
Ġdecon v
Ġworm holes
Ġbb n
Ġff lo
Ġcontras ts
bos on
Ġalumin um
Ġmori ya
h ad
h ep
m k
Ġo iii
en na
Ġt era
Ġn ern
Ġg f
Ġsh im
ruct ured
Ġexp ensive
Ġplan ning
ub ble
Ġ19 5
Ġresp ects
Ġconc ave
Ġinv oked
Ġgr ants
80 5
Ġisotrop y
Ġtriple ts
Ġrh omb
Ġgover ns
Ġclar ified
Ġstriking ly
Ġsket ched
Ġmultiplex ing
Ġhydroph obic
Ġbj ork
Ġendow ed
Ġconcord ance
Ġnern st
Ġc ach
Ġp od
Ġe k
ra d
os s
ut ely
Ġch im
Ġsim on
Ġj ona
10 88
Ġsch ech
Ġther mon
Ġinteg rand
17 9
Ġbre it
cd onald
Ġbeam ing
Ġden ser
Ġhar ris
Ġbu ffer
Ġresonant ly
Ġphoto exc
Ġher big
group e
Ġadjust able
oul os
Ġgradu ate
Ġrib bons
Ġje ff
Ġsuff ers
Ġshrin k
observ ations
Ġversati le
Ġthermon uclear
0 20
\ ,
b w
f c
en es
Ġb k
Ġm z
Ġan imal
Ġme ch
Ġqu oted
Ġco ating
Ġcor ners
Ġi x
Ġmo tif
Ġso v
Ġ19 83
ni k
sy mmetry
Ġdissip ated
Ġremark s
Ġgold en
Ġsuperc luster
hol m
Ġinfall ing
Ġergod icity
Ġsuspension s
Ġobli que
Ġartifact s
Ġelabor ate
Ġrecomm end
fre quen
Ġeavesdrop per
in vari
is che
Ġd yn
Ġb afe
Ġne ck
Ġcan tile
op oly
Ġper tain
Ġfo am
ms amn
ail s
Ġwork ed
Ġvel a
Ġ8 50
Ġtre m
Ġpack ed
Ġic os
Ġviol ent
group msamn
Ġautoma ton
Ġnotice able
ĠĠĠĠĠĠĠĠ ĠĠĠĠĠĠĠĠ
Ġdiam onds
Ġmos a
Ġelong ation
Ġepid em
Ġquer ies
Ġrewr ite
Ġimpul se
Ġgrass mann
Ġalbed o
b ound
h ov
w al
er c
en za
Ġp unct
Ġe e
Ġm ct
Ġm un
Ġn ights
Ġas ynchron
os ax
Ġ1 28
Ġ3 36
Ġinf rast
Ġman u
Ġpolar imetric
Ġcomput able
Ġcosm os
Ġquas ic
Ġocc asion
Ġu ma
18 4
ia o
Ġlore nz
pro duct
Ġans wers
Ġvor on
Ġvl asov
Ġcompr ise
Ġplat forms
Ġsubtract ing
Ġprol ate
Ġalt address
Ġfruit ful
y clic
Ġs end
Ġc av
Ġf ate
Ġe ft
Ġe ik
Ġph i
Ġ1 26
Ġpre factor
Ġ0 40
Ġ20 7
Ġhol low
Ġhyper nuclei
Ġmapping s
Ġsuperp otential
Ġelimin ating
Ġintui tively
Ġinser ted
Ġdifferenti ation
Ġshiel ding
Ġantine utrino
i ently
r ash
Ġc ze
Ġn ice
Ġg x
Ġg un
ol or
Ġex haus
ud a
Ġsymmetr ical
Ġhere in
Ġspec kle
Ġcm d
Ġcap turing
Ġhydro car
Ġele v
Ġstri ps
Ġcalib rate
Ġreconstruct ing
Ġneur on
Ġepis ode
Ġamplif iers
Ġmad rid
Ġoc cul
alcogen ides
Ġphyl ogen
Ġschech ter
b ary
t le
w ich
Ġa ma
Ġs on
en on
Ġc vs
Ġt n
Ġl ambda
Ġn cs
st ates
Ġsh en
Ġ1 37
Ġcomp rom
Ġun w
Ġint ric
Ġreg ister
Ġx te
Ġprocess or
Ġtra ding
Ġmon omial
Ġcos ine
30 9
17 6
Ġax ions
pc nt
Ġsti s
Ġsatur n
Ġsatur ate
Ġcp u
Ġlabor atoire
tru ein
Ġdisturb ed
Ġellipso idal
appro x
Ġbuoy ancy
Ġmete or
Ġbepp osax
Ġwee ks
Ġicos ahed
3 40
b x
p tive
Ġc ro
Ġf uk
et on
st ad
Ġbe ads
Ġbe aring
ot ti
Ġcl arity
Ġrec ording
Ġfact ory
Ġmulti block
duct ance
Ġsti r
Ġflat ness
Ġho ve
Ġlogari thms
Ġthickness es
Ġmanip ulating
Ġassess ed
Ġve v
Ġnois eless
Ġgp u
Ġlect ure
Ġurb an
Ġcox eter
Ġwein berg
Ġrain bow
Ġenorm ous
Ġniel sen
Ġkoster litz
Ġforn ax
Ġbjork en
) _
= =
al osh
Ġd zy
an ti
qu as
Ġon board
id ity
Ġor s
Ġsuper lattices
Ġx enon
xi mal
Ġinteg rations
Ġgr s
Ġprec ip
Ġthermod ynamically
Ġep ic
Ġconven iently
Ġcontroll ability
Ġdm r
Ġresi des
Ġpossess ing
Ġadsor b
Ġroot ed
Ġindirect ly
net t
Ġech elle
Ġtrade off
Ġcontradic t
Ġnic mos
Ġdress el
/ (
r ics
ed y
Ġre jection
Ġl ists
Ġg j
Ġst ressed
ra p
Ġor ange
iz ers
Ġk v
Ġsub di
50 4
tiz ations
Ġred dened
Ġtor ino
Ġla es
Ġess ence
Ġrestric ting
Ġsuperfluid s
Ġher tz
Ġabsol utely
chen ko
Ġanne aled
Ġpriv acy
Ġdisent angle
Ġgrate ful
Ġvisco elastic
Ġours elves
Ġchec king
ferm ion
Ġwilli ams
0 25
h u
l f
t ation
Ġc ow
Ġp it
Ġw ood
Ġl ub
Ġh co
ul um
Ġwi mps
if er
res ults
Ġ1 16
Ġ1 58
Ġsur ger
Ġsub mm
Ġproble matic
17 7
17 8
60 3
ok ande
Ġantifer romagnets
Ġdemand s
Ġresum med
ami okande
ht ml
Ġef imov
Ġbist able
Ġdimin ish
Ġwes tern
Ġpreced ing
Ġnanorib bons
irect ed
Ġsommer feld
Ġdzy alosh
d al
m ings
r ase
r iger
z r
Ġa w
Ġs ake
or a
it ably
Ġst ore
Ġcon gru
Ġme yer
Ġ2 25
Ġj ay
all ing
Ġzero th
Ġbi o
Ġsl ater
Ġdev ised
Ġpattern ed
Ġorthogonal ity
Ġbil ayers
Ġeuler ian
Ġtransc ription
Ġclu es
Ġsof ter
Ġphysic ists
Ġaster oseism
Ġmonodrom y
Ġeik onal
) ]
n stein
Ġp iv
Ġe ur
st art
Ġ1 34
Ġr as
Ġmagn ons
Ġequ ator
ll i
Ġnew s
Ġfound ations
18 7
Ġla ughlin
Ġsitu ated
awa ii
Ġcn ts
Ġinser ting
Ġdise ases
Ġdeconf ined
orbit al
2 000
d d
m ix
Ġa ur
er g
Ġs war
Ġh p
Ġ1 44
Ġcomp ete
Ġinter particle
ac ci
Ġdec oder
Ġrec ords
par ameter
Ġq h
Ġsch ur
Ġstand ards
Ġpart y
Ġphen ix
Ġcomm ission
elect rics
ches ter
Ġutil izes
ogen ous
Ġcam er
Ġdatab ases
sim il
Ġoutper form
fu gal
Ġpip eline
Ġjustif y
Ġunexpl ored
- .
5 10
or ld
Ġg ated
st able
Ġsu ite
Ġsh ares
Ġli p
Ġlocal ised
20 8
Ġrot ates
Ġsubst ellar
Ġpost ulate
Ġvib ron
Ġoffer ed
Ġadvantage ous
Ġparad igmatic
Ġnumer ics
Ġinterse ctions
Ġembedding s
Ġadequ ately
Ġobstac les
]- [
Ġmoun ted
Ġacknowledg ements
( #
is er
Ġl ud
Ġsp ar
Ġ1 57
Ġob late
ber ation
Ġspin ors
Ġz ol
Ġfir ing
Ġund irected
Ġover ton
Ġref riger
magn et
Ġhel ix
Ġrenormal isation
Ġlif ted
Ġfail ures
Ġsudden ly
Ġslab s
Ġtag ging
Ġoverd ensity
Ġbist ability
Ġregul atory
Ġfunct or
Ġtrigon ometric
Ġvoron oi
j s
l ayers
ti ous
Ġf es
Ġh awaii
ens en
Ġint ru
Ġreg ulated
Ġar n
Ġz b
Ġcent res
Ġcompar atively
30 7
19 3
Ġrich er
Ġcut ting
Ġfast est
Ġtempor ally
oma r
Ġcircum binary
Ġacknowled gments
Ġpenal ty
Ġuhec r
diff usion
Ġhung ary
Ġsupercool ed
Ġtera hertz
i as
k har
r c
s l
Ġ ~
Ġs ir
Ġf sr
Ġl n
Ġl ic
ff man
Ġle vit
end link
Ġmo ved
yn ting
Ġradi ating
ome chan
Ġx r
Ġif num
Ġkn ee
Ġpolar imetry
Ġquas iclassical
Ġfactor ies
18 2
Ġsem il
Ġlaw rence
sp ort
Ġide als
Ġillust rating
eric an
Ġenc odes
Ġbond ed
Ġscan s
Ġparametriz ations
Ġresem bling
ani tize
bib empty
Ġsand wich
Ġdich ro
Ġabrupt ly
Ġthom pson
Ġcalc ium
Ġnept une
Ġnick el
inner bibempty
Ġcze ch
start link
f igur
n ov
z el
Ġc ay
Ġd am
Ġm ur
Ġm fs
Ġm ips
Ġl uc
Ġn fw
Ġh on
Ġh ull
Ġg ga
Ġpro v
Ġ1 45
we g
ru o
Ġpo ynting
ard t
Ġam ino
Ġ4 50
Ġbran ched
Ġoff ice
Ġsubject s
Ġturn over
Ġinstant ons
Ġspectro phot
Ġmonol ayers
Ġancill ary
Ġwash ington
Ġundert aken
Ġalphab et
Ġperse us
Ġoversh oot
Ġdressel haus
h ow
Ġs es
Ġinv oke
iel ds
Ġdisper sed
Ġultra high
Ġrich ness
da de
pro ble
Ġquantif ies
Ġsubstit uted
stra ined
Ġconformation al
Ġartif icially
Ġflatten ed
rome chanical
Ġpil ot
Ġcombinator ics
) :
= {
b ro
p ic
p op
Ġo v
Ġc ation
od ic
Ġ1 36
Ġco hen
ell ations
Ġop a
Ġ0 10
Ġsign ed
Ġam erican
Ġback reaction
Ġti gh
Ġvacu a
Ġnarrow ing
Ġearl iest
Ġengine er
Ġtil ings
Ġign ore
Ġhighlight ing
Ġclock s
Ġrevis ited
Ġroll ing
Ġbrid ges
Ġlightcur ve
Ġrk ky
Ġcantile ver
d raw
h m
w os
w est
ed ral
Ġre issner
Ġh w
Ġv dw
Ġint ell
so ft
Ġro ws
12 11
Ġq pt
Ġmed ical
Ġult rash
li ers
Ġstra ined
Ġrecover ing
Ġkin ks
Ġmi ra
Ġobe ying
Ġswe pt
Ġliv es
Ġstrand s
f ra
i ra
on omic
Ġo u
ma x
Ġde w
Ġ1 23
Ġspin on
Ġ0 45
Ġz ag
Ġmin ute
18 3
Ġanti parallel
Ġacceler ators
Ġrapid ities
Ġopp en
Ġpost se
Ġpers onal
ines e
Ġfran k
oul li
Ġdraw back
Ġrecipro c
Ġbern oulli
Ġtry ing
Ġlaun ch
;\ ;\
Ġlightcur ves
Ġfrag ile
Ġmerid ional
Ġdenomin ator
Ġrichards on
c ap
h off
n phys
t ens
} .\
Ġf ric
Ġf ras
Ġb ent
Ġst ations
Ġcon form
Ġsc ar
Ġun related
Ġj ahn
Ġ0 16
Ġgro ver
Ġsub bands
Ġmulti band
Ġconc urrent
Ġrev olution
Ġbi ochemical
Ġdri ver
arch ing
Ġsem ide
Ġloss y
Ġdominant ly
Ġchand rase
oft wos
Ġdic tion
Ġmarked ly
Ġclock wise
Ġbenef icial
'' ''@
Ġrend er
Ġsecre cy
Ġphotod et
Ġbilli ards
Ġinsp iral
second oftwos
Ġpnicti des
Ġintell ig
secondoftwos anitize
c el
Ġs per
Ġl g
id ium
Ġ1 39
oc using
erm ined
ari o
00 9
Ġpos es
50 5
Ġdetect ability
Ġtun ability
Ġhyper c
Ġphonon ic
Ġaut omorphism
Ġrepl ication
Ġcheck er
Ġoct up
ade qu
har a
Ġta urus
Ġmagneto electric
Ġbring ing
Ġquadrature s
Ġnic ely
Ġig r
Ġpier re
Ġphil os
Ġwars aw
i ors
r ig
Ġp v
Ġp ms
Ġin adequ
Ġt y
Ġb omb
as se
ly gin
Ġop e
Ġcal ls
Ġsub process
Ġout liers
Ġam ster
par ity
Ġ20 5
ori entation
Ġrot ators
Ġhand ling
Ġcoordin ated
ah l
Ġcircum vent
Ġ60 6
Ġgrating s
Ġplaquet tes
Ġparallax es
Ġtrivi ally
Ġinfrast ructure
Ġcay ley
Ġamster dam
k p
k ms
k ins
m oto
Ġa q
Ġs ulf
Ġc is
Ġe ck
el ve
st ack
Ġwi ener
Ġsu nd
Ġcomp ress
lu de
Ġse lectivity
Ġi ib
Ġsuper exchange
Ġdiff using
mon d
Ġed m
Ġsm gs
Ġbran ew
Ġneighb ours
Ġlandau er
Ġget ting
Ġcalib rations
Ġstraightforward ly
Ġlinewidth s
Ġbill ion
Ġpric ing
Ġwf c
Ġphotod iss
Ġcompac tified
Ġinev itably
Ġdict ated
Ġcentri fugal
Ġors ay
2 20
` #
b ole
b eg
x undefined
Ġ rid
Ġo me
Ġt ern
Ġg od
ra tically
if xundefined
Ġr d
Ġsc uba
fer ro
ari an
est e
Ġfunction ality
Ġbut ter
19 2
Ġion isation
Ġfer ri
Ġstabil izer
Ġms d
Ġdoub led
Ġexpress ing
Ġuniversi dade
Ġbacter ial
Ġrewr itten
Ġbis pectrum
Ġcompil ed
Ġrub idium
Ġaven ue
Ġdisf av
Ġzol ler
Ġchandrase khar
w orth
is in
Ġto u
ol ess
im eters
Ġr w
Ġr ud
ell o
ad ays
con nected
Ġnew man
Ġ4 000
Ġsymmetr ically
Ġcomput es
Ġlike wise
Ġderiv ations
Ġtri partite
Ġidentif ications
Ġnan ote
Ġtransport ation
gin os
Ġrecon sider
Ġlif ting
Ġadm ix
Ġattract ing
Ġmim ics
Ġport foli
Ġlith ography
Ġparis i
Ġchap lygin
reson ant
Ġdecis ions
Ġbirefring ence
0 40
z k
} -\
re t
Ġb m
Ġl un
Ġl uk
ut ron
Ġal f
id en
Ġk it
Ġtw elve
ru h
00 8
Ġreg ener
Ġtra iling
Ġte ich
ex ten
Ġrand all
Ġsl ot
Ġhyper bol
Ġmagnet oc
Ġact in
wh el
Ġanalytic ity
Ġouter most
Ġinterfer ing
Ġstre et
Ġpur su
kin son
Ġfav oured
Ġupd ating
Ġtransl ate
fact ors
ecti ves
Ġconstitu tive
Ġadjac ency
Ġcus ps
ima te
Ġfacilit ates
with in
Ġreplace ment
Ġcod imension
Ġexer ted
Ġbrack ets
Ġfw m
Ġblo bs
Ġheral ded
Ġpiezo electric
r h
Ġs app
Ġp lu
Ġin active
Ġt rough
Ġt uring
Ġ@ =
it ary
it ory
Ġis oc
Ġwe ather
Ġch inese
Ġ3 000
Ġ19 81
Ġentang ling
Ġground s
Ġeas tern
Ġhost ed
Ġpur ification
Ġpen umb
Ġvirt ue
Ġstack s
Ġtransl ated
Ġunf old
Ġur qmd
ox ide
Ġtermin ated
Ġwarp ing
dif fu
Ġmagnetohydro dynamics
Ġhin der
Ġtetrahed ral
Ġcust om
Ġexec ution
Ġindust rial
pot ent
Ġmetrop olis
had ron
invari ant
Ġasynchron ous
Ġsemide finite
) ^{
b in
h ib
r yp
Ġt u
Ġt ar
Ġb ed
Ġl und
Ġh az
Ġch ord
Ġk re
Ġk or
Ġinter ests
Ġr l
Ġpo ol
og el
Ġscal ability
con ver
Ġass et
Ġout sk
the ory
Ġcharacter ise
Ġfl or
Ġpri ors
Ġhyper ons
Ġfer r
Ġpseud or
endi p
Ġcomplement ed
Ġretain ed
Ġcygn i
Ġphylogen etic
Ġintric ate
Ġultrash ort
Ġoutsk ir
a as
Ġc mm
Ġf n
Ġfor mat
Ġbe ad
ri pts
ph en
Ġpl um
Ġ0 22
Ġsee beck
Ġser endip
Ġele ven
Ġrelax es
Ġellip se
eck er
Ġdeco uple
Ġdecomp ose
Ġsurround ings
Ġread ing
gra de
Ġlabel ing
Ġprosp ect
deg ener
Ġproportion ality
Ġunderes timated
Ġcontras ted
isper se
Ġunco upled
Ġalto gether
Ġchim era
m or
y i
Ġp ap
Ġd ome
Ġb ari
Ġis obar
Ġ1 24
Ġra o
Ġle o
Ġle af
Ġgra ining
Ġ0 33
Ġfe at
Ġx i
Ġfre d
Ġcoll imation
Ġ19 0
Ġquas in
Ġgre edy
Ġnan ometer
Ġquasi periodic
Ġcomm ute
Ġlast ly
Ġpol l
Ġpass ed
Ġtransi tive
Ġmotiv ate
bur gh
Ġprinc eton
Ġha as
Ġswim ming
Ġoctahed ra
Ġkob ayashi
Ġglit ch
otyp es
Ġcoars ening
Ġmanu fact
^ *
c ase
g b
r n
on der
Ġs sc
Ġp ep
Ġd ose
Ġequ ip
Ġbas in
Ġund ulator
Ġover whel
Ġcomple ments
Ġref ine
Ġinitial ization
Ġu hl
30 4
Ġfer romagnets
Ġens uring
Ġuniform ity
Ġweight ing
Ġrevers als
Ġjus tification
}^ \
Ġpal omar
Ġkick ed
Ġsubgraph s
0 60
f ields
r int
th in
Ġs bs
en stein
Ġc ree
Ġl j
Ġl z
Ġh ur
Ġv iral
Ġro c
Ġy au
Ġx e
Ġprocess ors
Ġexc ur
over line
Ġlo ose
25 8
Ġthermal ized
Ġneutrin oless
Ġsum ming
Ġevalu ations
Ġview s
Ġpicture s
Ġdefini tive
Ġviol ates
Ġstabil izes
Ġopt omechan
Ġput s
Ġbay es
Ġeclip ses
Ġflip s
Ġmonoton icity
univers it
Ġpubl ications
Ġboun cing
Ġprol ifer
Ġchap ter
Ġpock et
Ġgri ff
Ġdiffe omorphism
Ġredund ant
Ġenzy me
Ġrever beration
Ġinstall ed
Ġelev ated
Ġtern ary
l an
n ic
p ens
r or
Ġo il
Ġc red
Ġin timately
st ere
Ġwi en
ol sky
ir c
Ġk t
Ġtwo fold
Ġdi lemma
Ġper tin
Ġgal ler
ag i
Ġli ver
Ġther most
rac ies
Ġany ons
Ġsl ac
Ġhol stein
Ġhar b
Ġconver ting
Ġdeep est
Ġgen ome
Ġce leb
Ġmut ations
Ġrare ly
Ġdetun ings
Ġscien tist
Ġattain able
Ġsuppl ied
ysh ev
Ġtachy on
Ġreceiv es
Ġaccident al
Ġextrapol ations
2 12
4 10
d r
Ġ upl
Ġp rices
Ġd v
Ġt we
Ġb ivariate
Ġh ither
Ġh osp
Ġst one
Ġst ern
os hi
Ġph y
Ġ1 88
Ġme eting
Ġco be
Ġk ap
Ġ2 36
ac ular
Ġj itter
Ġobserv ability
Ġcl imate
ax y
Ġinc linations
Ġdep in
Ġen gin
ov ol
Ġ19 78
Ġinv al
Ġima g
25 3
Ġlagrangian s
Ġsuperp osed
Ġbur ied
big g
Ġmonol ith
Ġelimin ates
Ġleg acy
Ġspi kes
Ġenumer ation
ophys ics
Ġdav is
Ġenlar ged
Ġkill ing
Ġhither to
+ +
Ġo sm
Ġd uty
Ġsh oul
Ġk och
op oulos
Ġle ader
ph ic
Ġhas h
all ic
Ġbl g
Ġ5 000
Ġ19 79
Ġer ds
Ġcap s
Ġnow adays
alit z
Ġwor se
}} {\
Ġadv oc
Ġmaxim ized
Ġcum mings
Ġinters ect
Ġci rac
Ġstoichi ometric
Ġengin es
] *
c f
d t
e th
f ree
l aw
Ġs ns
Ġc x
Ġc sm
it or
Ġl ss
am ura
Ġsp p
ot ype
Ġ1 33
lu sion
Ġinter iors
Ġr wa
Ġun ra
Ġun ruh
Ġro pe
Ġsuper vised
Ġmulti ferro
lo ad
Ġref lective
Ġlo gn
Ġed ited
40 7
19 1
Ġvis ion
Ġnor ms
Ġste f
Ġsr tio
Ġsurvi ving
Ġmanip ulated
Ġfoot ing
Ġstop s
entr ant
bas eline
Ġisochron es
Ġpus hed
Ġgeo magnetic
Ġphotoion ized
Ġextraord inary
1 000
] /
c er
e en
j ets
p ole
s ity
} [
th rough
Ġc ss
Ġc cs
Ġc no
it ers
Ġre entrant
Ġn ous
Ġh un
Ġ1 89
Ġqu iver
oc y
Ġspect acular
Ġso ught
Ġso bole
Ġ0 60
Ġ0 90
ill a
Ġsome thing
Ġfactor ized
Ġalg aas
Ġsem inal
Ġgre atest
Ġser ver
pre fix
Ġeig ens
Ġquad ratically
Ġrestric tive
Ġdm c
Ġmc g
Ġpeculi arities
Ġpromin ence
bre ak
Ġejection s
], [
Ġpeters burg
Ġconvinc ing
Ġpam ela
Ġexhaus tive
Ġbranew orld
beg in
f ar
h k
i ously
Ġf ese
Ġe is
Ġn ish
Ġsh u
Ġ1 48
Ġk au
Ġexp ense
te ch
Ġtransition al
ev olution
20 15
Ġcar ina
Ġed s
19 4
Ġsepar at
26 0
Ġtransm ittance
Ġregular ly
Ġstoch astically
Ġpur cell
Ġfore cast
Ġfro ben
Ġdifferenti able
Ġprescription s
Ġambigu ities
Ġseman tic
magne tism
Ġsant a
Ġfellow ship
Ġbluesh ifted
Ġtack le
Ġcad ence
tik z
Ġbottlen eck
Ġconduc tivities
proble m
Ġoutskir ts
Ġgaller y
( -
j u
in ally
Ġp eg
al a
Ġw sm
Ġt ax
it ates
Ġre ject
Ġg ab
Ġv ul
ter ms
ut t
Ġinter planetary
Ġj ul
ist ors
ag en
Ġloc i
Ġprop ulsion
Ġmulti level
Ġlo os
Ġatt osecond
Ġabsor b
Ġti ed
Ġorth o
Ġconcept ually
Ġlabor atories
ze k
Ġput ting
Ġupd ates
Ġintra band
Ġaccum ulate
Ġinterp ol
Ġboost ed
Ġmich ael
Ġopin ions
Ġunderes timate
Ġaustral ian
Ġsweep ing
Ġtetrahed ron
Ġcompil ation
][ ]#
Ġforecas ting
Ġaltit ude
Ġtrem end
Ġpertin ent
Ġfroben ius
0 15
i ber
t ra
Ġs onic
Ġf cn
Ġl ined
si f
Ġon s
Ġv iz
ut in
Ġqu in
Ġco poly
ec onds
Ġar ticles
Ġ0 80
Ġdec or
Ġphot om
Ġconf ron
Ġmon oclinic
Ġquan tiz
Ġed wards
19 8
Ġdomin ation
Ġanalyz er
Ġshap iro
Ġsection al
Ġhol ding
Ġlog istic
Ġenc aps
Ġhist ograms
Ġreduction s
Ġmac rom
Ġste adily
Ġcolumn ar
Ġreflect ance
Ġsal ient
Ġflo ating
Ġjo in
Ġze us
Ġretain s
Ġambigu ous
onom y
Ġdub na
Ġdefici ency
Ġlect ures
Ġbrack et
Ġunavoid able
Ġsme ared
Ġjay nes
2 30
u w
Ġs ss
Ġc ite
Ġd alitz
el ines
Ġbe ating
Ġ1 46
ener gies
Ġz inc
Ġsch m
20 14
Ġer asure
Ġtest able
Ġconfigur ational
Ġmes onic
Ġbright ening
he imer
Ġmodul ating
Ġbuil ds
Ġexclu des
fe as
Ġmc mc
Ġdoub t
Ġhd f
Ġtm d
Ġseed s
Ġrepeated ly
Ġdifferenti ate
Ġhin ode
Ġpf aff
Ġsnapsh ot
Ġdia magnetic
Ġfaith ful
Ġwavepack et
Ġoverton e
Ġchecker board
Ġadmix ture
diffu sive
Ġfeat uring
Ġsobole v
b ot
d in
i ability
n ab
Ġc z
Ġc ensus
Ġp ds
Ġh it
un gs
Ġ1 47
Ġra ising
Ġun e
ple t
Ġop al
Ġdec lines
Ġdo f
ole cules
Ġband pass
lec k
Ġet ching
ram oto
Ġcoher ences
45 8
Ġconver ging
Ġspecific ation
Ġgl as
Ġhot sp
sh ock
Ġcurvature s
Ġperm itted
Ġsym bolic
Ġsumma r
Ġtom ographic
Ġretain ing
Ġintrac avity
url prefix
ulti pl
Ġking dom
Ġtent atively
Ġveh icles
Ġsubsam ple
Ġcompos ites
Ġescap ing
Ġquasin ormal
Ġo ph
es se
Ġh ay
st en
Ġfor sch
Ġdis h
Ġco valent
Ġeff ic
Ġj pn
ag ram
con cept
Ġover head
Ġap ex
Ġsum med
80 4
Ġcond ense
Ġtransfer ring
90 1
Ġgu id
Ġret rie
Ġemphas izing
Ġlongitud inally
Ġfluores cent
Ġevid ently
tos is
Ġexer c
Ġfos sil
Ġuncondition al
) }{
b d
j e
l ock
Ġw o
nd er
Ġe bl
Ġst au
am oto
ut ta
Ġ1 56
ere z
Ġen tities
Ġsub wavelength
ian o
Ġcent red
Ġinclu sions
Ġapproxi man
Ġquas im
hi o
22 7
70 1
Ġside bands
Ġ15 00
Ġshear ing
ah ashi
Ġresidu es
Ġrepe ating
Ġsk a
Ġmim ick
Ġfri end
Ġign oring
Ġcapacit or
cz os
Ġhypers urfaces
Ġuncover ed
Ġthom son
Ġattribut es
Ġretro grade
Ġeuro phys
Ġdichot omy
Ġcamer as
Ġfric tional
Ġfras cati
Ġsund rum
Ġcree p
Ġmonolith ic
en cia
Ġc ran
or bed
ar m
Ġm ps
Ġto l
Ġl fs
Ġg arching
il ic
ect or
Ġne on
oc cup
ph y
Ġequ id
Ġ3 25
Ġ0 85
Ġunder ground
Ġes p
Ġsch ro
Ġsol vers
me asure
Ġasy mmetr
Ġtri als
Ġsepar ability
Ġtun g
Ġconclu sive
Ġsimpl ifying
Ġ12 00
Ġnarrow band
Ġ30 5
Ġresi li
Ġproject or
Ġconvex ity
Ġprox y
Ġassign ments
Ġcontract ing
Ġerup tions
Ġcham bers
Ġplastic ity
Ġfli pping
Ġsapp hire
Ġceleb rated
Ġinval id
k ow
on uclear
Ġs ap
Ġp ist
Ġin ductive
Ġt ess
Ġt ai
it en
ur ally
Ġk os
Ġle ib
Ġac is
Ġj lich
og ical
Ġpa ges
Ġ3 40
Ġbl ank
Ġconc aten
Ġimple ments
Ġmodul ator
Ġbra nd
Ġdistinguish es
Ġfac et
Ġvisual ize
Ġuncon strained
Ġprevent ing
Ġopac ities
tran s
Ġcard in
hy per
Ġnr qcd
Ġpend ulum
Ġinac cessible
Ġmicroc avities
Ġphilos oph
Ġphotom ultipl
] )-(
f it
f ting
i tively
Ġc ass
Ġc ps
Ġc ram
Ġn ar
Ġh och
Ġis ometric
ch in
Ġsp reads
rom ov
Ġk ern
Ġk amiokande
Ġle w
ell es
Ġ0 35
Ġy osh
Ġund ist
Ġunder w
Ġover abund
Ġnucle oti
Ġlocal ize
Ġte ach
Ġent ry
Ġent rance
Ġquas ist
18 6
Ġsem if
28 8
mod phys
Ġelectro chemical
Ġprom ote
rev modphys
Ġresi ding
Ġtrig onal
Ġproject ing
Ġlack s
Ġcomplement arity
Ġaccess ed
Ġsr sic
Ġlan czos
Ġku ramoto
Ġaper iodic
Ġjup iters
Ġserv ices
Ġsuff ices
Ġpolyg on
Ġsubc ritical
Ġargon ne
Ġcontamin ated
Ġnav ig
Ġredund ancy
Ġemb ry
Ġsnapsh ots
Ġpolydisper sity
oment um
Ġunve il
Ġreciproc ity
Ġdepin ning
d ynamical
e u
l und
t el
v as
Ġo vi
Ġc ult
Ġf resh
Ġw c
Ġd re
Ġb atter
Ġto uch
ent ang
im ple
Ġra ise
ron e
Ġfi bon
de v
ers en
up ta
Ġelect roproduction
Ġtrans istors
Ġspin ons
te v
ov al
Ġbl ob
the ast
Ġ19 70
Ġreal izable
Ġer c
mon ot
ryst al
Ġsem is
Ġscaling s
Ġmagnet ospheric
Ġbehaviour s
Ġfill ings
hd m
Ġtang le
Ġnat l
Ġjo ining
Ġze il
Ġjam med
Ġjoh an
Ġrm f
j ing
p rin
Ġp q
al er
Ġd x
Ġd ms
or al
Ġas h
Ġqu tr
Ġ2 80
Ġr al
Ġdet on
Ġpre m
Ġpre cessing
Ġnon adiabatic
yn ski
Ġcol lectively
Ġro utes
Ġimp rint
Ġunder g
Ġq nd
Ġunivers ally
Ġcontinu ing
Ġfil es
Ġgood ness
Ġlos ing
Ġhiggs ino
Ġdil at
Ġyama moto
Ġsma rt
Ġadatom s
Ġmosa ic
Ġlud wig
figur ation
Ġoctup ole
Ġphotodiss ociation
Ġpseudor ap
o times
t ub
} ]
Ġp des
Ġl acs
Ġinter active
Ġsc ul
Ġpolar ised
Ġparameter izations
Ġmin istry
Ġtak ahashi
war t
Ġmic rop
Ġlumin escence
Ġbi asing
24 4
Ġel ast
Ġtr im
Ġrestric ts
Ġantifer romagnetism
Ġiter atively
eq n
rel ations
Ġfract als
Ġvirtual ity
Ġmanifest ations
Ġtil ting
Ġtetra quark
Ġexception ally
Ġgar ca
Ġunexpected ly
integ ration
theore m
Ġobj ectives
Ġdiction ary
exten sive
g rid
p es
t able
w at
| #
in duced
Ġf res
is ki
Ġe ph
Ġm bh
ch em
ab e
Ġpar se
Ġch ose
Ġ2 26
Ġr up
Ġun ifying
vi e
Ġphot ovol
Ġwas p
ross ing
Ġtri on
Ġbi exc
Ġsl ave
Ġstrength en
Ġsurvey ed
Ġbary ogenesis
Ġrobust ly
Ġearth qu
Ġps pc
Ġextrap olate
Ġassess ing
Ġls da
Ġdepic ts
Ġattain s
Ġamb ipolar
Ġtransmit ting
Ġdf g
Ġfring e
Ġrepeat ers
Ġsubhal os
Ġcris is
Ġvap our
Ġsurger y
Ġunderg one
t an
u is
er k
Ġg romov
om on
ut ation
Ġby product
Ġco u
Ġch lor
Ġpres um
Ġcl in
Ġpa re
Ġad af
upl ing
Ġout age
Ġlong itude
Ġinv olution
Ġfl ock
Ġcontinu a
Ġtri linear
40 6
40 8
ĠĠĠĠ ĠĠĠĠĠ
Ġground state
Ġdiscover ing
Ġthick ening
Ġannihil ations
Ġwin ter
Ġsummariz es
Ġann ular
Ġann ulus
Ġassem bl
Ġadjust ment
Ġcount ries
Ġaccept or
Ġnl sp
Ġexpos ures
Ġparticip ation
Ġconvolution al
Ġphotod iod
Ġrv b
Ġcollect ing
Ġdress ing
Ġtes la
Ġreinfor ce
Ġnord strm
Ġrearrang ement
Ġcontempor ary
Ġunw anted
Ġdzyalosh inskii
Ġlogn ormal
occup ied
Ġfibon acci
) ,\
* #
a j
a ud
l am
m ller
n orm
o in
Ġ ^{
Ġa h
ti sed
Ġs x
Ġb v
math bb
Ġe b
Ġg ating
Ġg ilbert
et al
et ting
Ġme issner
Ġco bal
Ġch ron
Ġse lectively
Ġr ice
Ġnot ations
Ġnon degener
ap ore
ag ing
Ġlow ers
esc u
Ġund es
ev en
ub lish
Ġbl ur
20 6
eg a
Ġer os
Ġpe er
Ġdes er
Ġti ll
Ġproduction s
Ġmes si
Ġhom o
Ġdop ants
Ġrelax ing
Ġtur no
he avy
Ġtreat s
Ġquantif ication
Ġdest ination
Ġattem pted
Ġmanip ulations
Ġunb in
Ġsto pped
Ġmich igan
Ġdg lap
Ġfun nel
Ġavi v
Ġportfoli o
c b
n ucl
u ti
Ġa romatic
Ġthe ta
Ġw t
it ant
Ġsc ore
Ġint ract
Ġdi e
Ġpre y
Ġab lation
Ġtrans action
con sider
Ġvari ances
Ġsign alling
Ġz no
ov o
Ġq fi
Ġtri este
50 6
Ġrespon d
Ġconver ts
Ġlos es
Ġmicro quas
Ġspe ech
Ġmid plane
Ġdiagonal ized
Ġmove ments
Ġmedi ation
Ġtex as
Ġknow ing
Ġsup ra
haus er
Ġincomple teness
Ġrout ine
Ġnanob e
Ġinev itable
Ġsar ma
operator name
d ata
k k
w ind
Ġa kin
Ġs do
Ġc ities
Ġf ern
Ġd une
or us
Ġl ls
Ġh ir
Ġbe ar
il a
id ences
se ver
Ġme g
Ġk on
Ġ2 60
Ġun occupied
Ġfin esse
Ġgal ois
Ġno ble
Ġz er
Ġz ip
Ġout break
Ġsing apore
Ġvi ability
Ġsol ute
Ġ19 75
Ġcharacter isation
Ġsimple x
Ġbi axial
Ġhard ening
Ġsw ed
Ġglu onic
Ġtransmission s
Ġce f
Ġpen rose
Ġfidel ities
Ġcs l
Ġheli ocentric
Ġbreath ers
Ġfd t
Ġped est
Ġhomogen ous
Ġdecl ining
Ġpione ering
Ġlsc o
Ġdeconv olution
bary on
])-( [
a is
b an
i pp
i ori
j v
m ini
r ant
u z
y b
Ġm go
Ġn od
Ġh es
Ġwe ek
Ġ1 29
Ġ1 53
Ġle f
ific ant
Ġcoll ide
Ġcompar t
Ġion ised
Ġfil t
Ġbran s
Ġsw ap
Ġens uing
Ġrecon cil
co o
Ġmar s
Ġspeed up
Ġenc ryp
Ġbra iding
osp ect
Ġul xs
Ġdimer ization
Ġprepar ing
Ġum r
Ġtum or
Ġlegend re
Ġjacob ian
zw iller
Ġtigh ter
Ġsulf ur
Ġshoul der
Ġretrie ve
2 11
n or
} =
on ian
Ġp orts
Ġcon ic
Ġwh ate
Ġk ac
ces sive
Ġinter cal
Ġinter chain
ell ular
Ġj un
Ġ0 20
Ġ0 23
Ġsub gap
Ġprop elled
Ġup s
Ġbound ing
Ġmulti phase
Ġsch u
Ġ19 15
Ġconc om
Ġ9 11
Ġfund ing
Ġcaus tics
Ġmagnet ot
Ġhor ne
hed ral
Ġflo or
Ġindistinguish ability
Ġkar ls
Ġavalan ches
Ġoveres timate
Ġanhar mon
Ġellipso id
isper ing
Ġfort un
Ġont ario
Ġitem s
cyc le
Ġrobin son
Ġunra vel
Ġcardin ality
Ġpseudorap idity
Ġfres nel
Ġwhate ver
0 37
e ther
m y
o ther
Ġ umb
Ġo de
Ġf ang
is ches
Ġt pc
ar di
Ġm ell
Ġand rom
Ġg ree
Ġg ps
pl ed
Ġ1 49
Ġreg is
Ġad vers
Ġ0 75
Ġdo i
ub ara
Ġmulti ples
Ġkn ight
Ġfeature less
25 5
Ġpoly gonal
Ġnan os
Ġloss less
Ġend ing
Ġneutral ity
Ġcontext ual
Ġdistinct ly
Ġbal ancing
Ġsf b
Ġdil ation
Ġpartition ed
Ġsne utrino
Ġresol ves
Ġmel t
Ġselect s
Ġze h
Ġrend ering
Ġalfvn ic
Ġsaf ely
Ġshrin ks
Ġsure ly
Ġcalab i
sever al
_ ^
d os
h aven
t ur
Ġp up
or ot
Ġst ably
ve x
Ġma k
Ġwh ispering
os able
Ġal bert
pl it
se conds
Ġpl ant
Ġstar light
Ġlar mor
Ġx rt
Ġsmall ness
int ui
Ġpos et
Ġap m
Ġq ws
Ġincre ments
Ġsch rie
18 9
19 9
Ġgau ged
Ġsn o
Ġmer ged
Ġmill er
Ġpreser vation
Ġcycl ing
Ġts uk
Ġinconsist ency
Ġbc gs
Ġinterf ere
Ġmich el
Ġsmbh s
acc urate
integ rated
Ġadhes ion
Ġzo om
Ġjeff erson
Ġturno ff
f rom
h art
} .
Ġf ing
Ġst s
Ġst ur
Ġcon ductive
am y
ore g
Ġar tin
Ġ3 20
Ġ0 12
Ġdo or
cy clic
Ġtra ined
Ġbeh aved
Ġreal izes
Ġdiff us
Ġu he
Ġrelati v
Ġabsor ptive
Ġbre ather
22 9
Ġnan od
Ġdel ine
Ġdown link
cl ing
equ ations
uth en
Ġsix th
Ġmultipl ier
Ġtwist ing
Ġpr ism
bur y
Ġwil kinson
Ġlan es
uple t
Ġchrom o
Ġcount able
Ġrecip e
Ġparticip ants
Ġmodular ity
Ġtan aka
Ġles ser
quis ite
lumin ous
inf n
Ġuns olved
Ġlmx b
Ġfoli ation
Ġrevi val
Ġdang ling
Ġoptomechan ics
Ġgriff ith
nab la
Ġconcom itant
- -
0 45
k awa
y ll
Ġm cs
ig en
Ġse xt
Ġ2 77
Ġj r
ach en
Ġen thal
Ġstruct urally
Ġover lo
Ġhe ii
Ġgeneral isation
Ġman n
Ġ20 9
14 05
ori a
Ġti ps
Ġultra thin
Ġquad ru
Ġbu ch
Ġwhe eler
Ġfu j
Ġpoin ter
Ġign ition
Ġgm cs
Ġgut zwiller
Ġslip s
Ġoveres timated
Ġpad ova
Ġpiv ot
Ġnanote chn
Ġplu g
Ġeph emer
Ġpare to
Ġschrie ffer
0 90
b right
h bar
n f
z ed
Ġt v
Ġt ad
Ġm j
Ġh t
Ġg si
Ġwi ley
Ġv iv
Ġk az
ds ym
Ġcl ark
Ġcl aus
Ġnon monot
Ġmagn esium
Ġlar kin
Ġar r
Ġsuper string
Ġz ar
Ġcorrel ating
Ġinst ructive
ful l
22 8
ci ble
Ġposition ed
Ġapproxima tes
Ġaut omorphisms
Ġtail ed
Ġfac ets
Ġfron tier
Ġwin ning
Ġbur gers
zz i
ans en
Ġbenchmark s
Ġped ag
Ġmats ubara
Ġpolic ies
Ġgovern ment
Ġtaper ed
Ġluk in
Ġzeh nder
d ag
Ġth ro
in dependent
Ġp el
Ġm pi
ent er
Ġg ad
ra pid
id able
res et
ru he
Ġnon resonant
Ġem p
Ġman age
Ġsol en
Ġcar go
ex per
ost at
Ġweak ness
Ġprot ect
Ġdev ise
Ġvac c
Ġcho i
til ity
fig ure
bol dsym
Ġwor l
ai re
Ġoffer ing
Ġbor ne
har monic
big r
Ġsteep ening
Ġexception s
Ġdiscrimin ant
Ġdiscrimin ating
Ġspring s
Ġsequential ly
Ġdeliver y
Ġstere o
Ġbrook haven
station ary
Ġscr utin
Ġpassi vely
Ġarn old
Ġscientist s
Ġfcn c
Ġsemis imple
Ġcobal t
ublish ed
boldsym bol
8 14
b il
d p
g rs
p air
Ġa th
Ġd ws
Ġwe ber
ure n
Ġsp utter
Ġare c
Ġat ac
Ġim mer
Ġrel ays
Ġno ether
Ġz rich
Ġabo ard
Ġent rain
Ġreal m
Ġderiv es
Ġdirect or
Ġquark onia
Ġprof ess
resh old
Ġcorrect ness
Ġgu idel
Ġbra un
Ġps d
Ġmotiv ates
Ġhi res
Ġcub es
Ġresol vent
Ġextrap olating
Ġcommut ator
Ġda ugh
Ġmarkovian ity
Ġrad ar
Ġadmit ting
omm un
Ġcasc ading
Ġcod ew
orth y
Ġoctahed ral
Ġdivis or
Ġsuperradi ance
Ġhomogen ization
Ġsuble vel
Ġgrate fully
Ġdepolar ization
Ġmetas urface
Ġcolumb ia
Ġelectroly te
Ġmary land
stere tic
Ġeffic acy
Ġguid ance
Ġpist on
mini mal
, <
0 70
b ec
e pl
Ġc sic
Ġp and
Ġw ick
Ġd ag
Ġm ist
le z
Ġn jl
Ġsp ent
Ġdis reg
Ġinter change
Ġun n
Ġfin iteness
Ġbas ins
Ġdesc end
Ġtra ins
Ġ19 76
Ġcharacter izations
Ġreal ised
Ġbin d
Ġperturb ing
Ġnormal ised
Ġcap ital
Ġglob ule
Ġsph eroids
Ġbar cel
Ġadd to
Ġspecial ized
Ġmis sed
function s
Ġrepe ater
200 7
Ġfav o
Ġur l
Ġrequ est
Ġswe eps
Ġdeb ated
Ġtorsion al
Ġbn l
Ġkra us
Ġmonod isperse
ophys ical
Ġphotoc urrent
Ġmatro ids
Ġrecept or
Ġpursu it
b yshev
t ag
en der
Ġf ft
Ġp ill
Ġp ile
Ġin ductance
Ġt sc
an as
Ġg on
Ġg if
st atis
Ġpro hibit
Ġwh it
Ġal ters
Ġ1 77
oc ation
Ġcl over
Ġnot ew
Ġtrans versely
Ġ0 50
ib bo
Ġwave lets
Ġdiff ract
Ġampl ify
19 6
Ġnormal isation
Ġquasi energy
28 3
Ġhom omorphism
Ġconcent ric
Ġpers on
Ġmis aligned
}} }}
Ġpol ish
Ġutil ization
Ġcollabor ators
Ġfaint est
Ġiniti ate
Ġmaxim izes
dm ft
Ġheli osphere
Ġsucces sively
Ġperi hel
Ġdegra ded
Ġequilib rated
Ġprev ail
Ġcasc aded
Ġkag om
Ġhh g
Ġrout inely
Ġsort ing
Ġmicrost ructure
Ġdsph s
fin der
="^ ,^,^,^,^
Ġinvest ment
Ġdell universit
Ġcab ibbo
Ġopa que
Ġinadequ ate
Ġunfold ed
Ġons ager
Ġforsch ungs
Ġintract able
Ġbarcel ona
2 25
c ut
g el
h f
th s
Ġa ward
Ġc em
Ġm di
le x
ri k
ri er
Ġsp line
Ġsh a
Ġpar kes
Ġcont rac
ec ke
Ġj t
Ġab c
Ġen j
Ġimp ing
Ġimp ressive
Ġap j
Ġhy steretic
Ġpul ling
Ġbi jection
out burst
27 0
Ġhom oclinic
Ġextre ma
Ġcommun icate
Ġincorpor ation
Ġcanc els
Ġmaintain s
Ġcri tic
Ġprol ong
col or
Ġposter iori
Ġunre al
Ġhm x
Ġcant or
Ġcli que
Ġsuperh ump
Ġpyth ia
Ġbutter fly
Ġtremend ous
Ġzeil inger
Ġnondegener ate
Ġarec ibo
Ġaddto reset
Ġnotew orthy
9 70
: @
` `
c en
h ab
i pl
th reshold
Ġc ra
Ġp ortions
al o
Ġin dis
Ġd ns
el ing
Ġg rib
um bers
Ġon site
am os
Ġse if
Ġle gs
gy r
ph an
Ġ3 39
Ġgra v
ust er
Ġatom ically
Ġtop ography
19 7
33 4
oth erm
Ġgo e
Ġga o
Ġhall mark
Ġpol i
Ġadv ent
ou x
Ġoutflow ing
Ġhierarch ies
Ġfragment ed
Ġrepe ti
Ġul x
Ġisot op
Ġpp m
Ġrecogn ize
rest ric
sin ce
Ġskew ed
Ġwaven umbers
Ġveh icle
Ġflor ida
Ġpfaff ian
Ġscul pt
0 100
j ournal
s ome
t inu
u a
} /
Ġp si
Ġp ear
Ġd uple
Ġt ut
Ġm ck
Ġl fv
Ġn ich
Ġh cp
Ġsp ie
Ġph ased
ruct ural
Ġdisc ipl
sc i
Ġcoupl er
Ġ\ ;\
Ġvi olet
Ġsch n
Ġ19 77
tit uto
Ġfluctu ates
Ġet a
val ence
Ġeigen frequen
Ġhol m
ne ider
Ġcounter intui
Ġpost s
Ġpol lu
ino is
ba um
Ġcmb x
Ġmanifest ly
Ġdro pped
Ġdimer ized
Ġpred ator
Ġrect angle
Ġconsum ing
Ġpolariz abilities
Ġkick s
Ġdeliver ed
Ġprecurs ors
Ġperipher y
Ġlev y
Ġunp ublished
Ġdichro ism
Ġome ga
Ġferri magnetic
Ġtai wan
ospect ral
Ġandrom eda
Ġatac ama
Ġduple x
l m
v ol
z ynski
Ġa mm
Ġs ze
Ġw ww
Ġm q
Ġn uv
ra ine
Ġwe i
Ġv ote
per s
ect ors
ate x
ac tivity
Ġsuper outburst
Ġrep ar
Ġthere of
Ġout wards
Ġq r
Ġsch o
Ġmin er
30 6
ew ski
22 1
23 1
Ġgravit ons
pre dic
Ġconclu ding
Ġevent ual
Ġgu o
Ġantifer romagnetically
Ġmac roscopically
Ġhomogeneous ly
uk ov
yl ene
Ġcoinc idences
Ġrevers ing
Ġavoid ance
ai red
Ġirre versibility
200 3
Ġcf ht
Ġsed iment
Ġbare ly
Ġpat chy
Ġtm ds
zy k
Ġske leton
Ġyu an
Ġtachy onic
uer re
Ġpolydisper se
anal ysis
Ġpertain ing
Ġoppen heimer
Ġhosp it
Ġkarls ruhe
2 40
b et
f all
h in
l ong
v ortex
Ġa ra
Ġa achen
Ġs ending
Ġc ul
Ġc ited
Ġd fs
Ġm st
Ġl id
Ġn qr
Ġst ru
si bly
Ġwe bs
ig a
se ction
Ġi e
Ġcl ick
Ġpl en
Ġacc u
Ġver ifying
Ġplan s
Ġbl ood
Ġconf ocal
lo ok
Ġer n
Ġins pir
Ġdri fts
23 7
Ġcy tos
Ġca ution
Ġbul g
Ġfix es
Ġdisper sal
Ġconver ged
Ġrest ore
Ġconduct ances
Ġcurv aton
Ġlag uerre
Ġmemory less
Ġinsi gn
Ġscan ned
Ġconjug acy
Ġchen g
Ġku mar
univers al
stand ard
Ġwitness es
Ġche byshev
Ġdetach ment
spec ies
Ġhg te
Ġmyster y
Ġdefin itely
Ġtelec ommun
Ġstur m
2 14
m t
q kd
v ision
ti mation
Ġf iz
Ġp be
Ġb ib
Ġre ion
Ġre orientation
Ġh ip
Ġv it
il ateral
Ġal co
pl us
Ġpo ur
og al
Ġinf eld
Ġpolar onic
Ġbel g
Ġdetect s
Ġsm ol
Ġbeam forming
Ġindi an
Ġprec oding
Ġhand led
Ġcosmological ly
Ġindex ed
Ġrob ot
Ġexplo res
pr b
Ġplace ment
oh edral
100 7
Ġste er
Ġms ps
Ġcollabor ative
Ġair y
Ġassem ble
Ġexperi encing
Ġunb ro
Ġsubstitution al
Ġoverd oped
Ġstem ming
Ġbirth day
Ġanticip ate
Ġshrin king
Ġcrow ded
Ġexempl ified
Ġcorrobor ated
Ġcorot ation
Ġepidem ics
Ġcou ette
Ġgrib ov
d ar
f ol
h c
j ee
o ve
r un
Ġa side
Ġc ens
Ġc ii
Ġf si
Ġd ai
Ġh itting
Ġg ard
om ponent
tic a
Ġwi ld
Ġma h
Ġwe ib
Ġv b
Ġas ph
se e
ran sport
Ġ2 55
Ġcor p
Ġj s
Ġj u
Ġpre heating
Ġtem pcnt
Ġsur fact
Ġli ang
ren ces
Ġout look
Ġperiod icities
Ġ9 70
25 2
Ġsl s
36 0
29 3
Ġfund ed
Ġsplit ters
Ġmagnet orot
sing ular
Ġadiabatic ity
mat ter
Ġball oon
200 5
Ġflav ours
Ġsd n
Ġvirial ized
}^{ (
Ġdir ty
Ġsusp ected
Ġparticip ating
Ġgm rt
Ġappreci ably
van ishing
Ġharv ard
Ġves icles
Ġindust ry
Ġfirm ly
Ġqud it
ystem s
Ġfeder al
Ġteich mller
Ġparse cs
epl itz
Ġaccu racies
2 13
a q
g ov
o vers
} [\
Ġs it
Ġs au
Ġo hio
Ġf ss
al k
Ġw dm
Ġt ss
Ġto eplitz
Ġh ri
Ġh urst
Ġg il
Ġcon verse
Ġdis charge
Ġor nstein
lu sive
pp e
Ġk ot
Ġinter cept
de en
Ġi in
Ġi rid
Ġnon vanishing
ll a
Ġ0 19
Ġdec ent
Ġsub giant
Ġsing h
Ġconf ine
Ġlat ency
Ġgraph ics
magn ets
Ġbi ma
Ġafter wards
Ġbreak through
Ġcomm ens
Ġfar ther
Ġdel icate
Ġdop ant
elect ro
Ġrecon fig
Ġgl ast
Ġcover ings
Ġho yle
Ġplot ting
Ġmill ions
com plex
Ġrepl aces
Ġod ds
Ġmil ano
Ġreflect or
Ġneglig ibly
Ġread y
Ġconjug ated
Ġill inois
Ġillumin ating
Ġdestro ys
Ġlandsc apes
Ġimbal anced
Ġinvis cid
Ġposed ness
Ġaccompl ish
Ġpip e
Ġbid irectional
Ġmyster ious
Ġmagnetost riction
Ġnai vely
Ġupt urn
fra me
Ġdeton ation
Ġentrain ment
Ġpollu tion
Ġinsign ificant
2 18
b our
k hz
p ting
on er
is ch
Ġd ella
Ġb ism
an in
Ġe man
as y
Ġis ometry
Ġwe iz
ure k
Ġqu est
Ġ2 53
Ġ2 67
Ġ2 73
Ġsc ene
Ġun se
and ering
Ġpo res
Ġreg ards
Ġdisc l
Ġchar t
Ġsur pass
Ġfe ii
Ġconf ront
Ġvi i
Ġlin ers
Ġge ant
Ġfluctu ate
iel astic
ring er
Ġaccre te
cl aim
Ġrelax ations
Ġacceler ations
to oth
Ġclassif ying
Ġdetermin istically
90 2
Ġtechn ol
Ġinterfer ences
Ġfeed ing
physrev d
Ġzh eng
200 9
Ġhex agon
Ġmaxwell ian
oy a
Ġhetero tic
inter pre
cur rent
Ġepis odic
Ġelucid ated
Ġsaw tooth
Ġtell s
Ġchec ks
Ġcenta urus
Ġpod olsky
Ġloos ely
Ġpedag ogical
Ġunbro ken
] {
e h
f il
j b
v ature
w f
ti que
Ġp un
Ġp wn
or ic
Ġis tituto
ol s
Ġph ill
Ġsh ut
op en
ak is
Ġx m
Ġdef ocusing
Ġ19 60
que ous
25 4
Ġposition ing
33 3
Ġenv is
equ iv
Ġwal king
Ġsi eg
flow s
Ġinver ting
Ġtransl ations
Ġretur ning
Ġmultip lying
sph erical
Ġlam ellar
Ġnel son
Ġgar cia
Ġsunsp ots
hen ius
hard t
Ġsac lay
Ġdens ely
Ġmotif s
Ġaddtoreset equations
restric ted
0 14
0 16
0 65
a un
n r
on ically
on ym
Ġs ends
Ġs agn
Ġf ax
Ġf aced
Ġp bs
al i
it ously
ic ates
Ġm xico
Ġl is
Ġh q
Ġg isin
Ġma z
Ġcom etary
Ġme xico
ts u
Ġtw ists
Ġfin ish
Ġdi hedral
Ġi q
Ġinc on
og s
Ġexp elled
Ġem its
Ġ3 30
Ġ0 11
duct ory
ori ly
36 02
23 2
val ue
Ġden o
ick i
Ġpan c
Ġarc second
Ġben nett
ans ky
Ġsuperc lusters
polar ization
Ġdru g
Ġbim od
obser ved
Ġnomin ally
Ġkil o
Ġpolyhed ra
Ġbak er
Ġhod ge
Ġsilic ene
Ġencoura ging
Ġlay out
Ġseparat rix
Ġconfron ted
Ġaddtoresetequations ection
0 12
8 57
^ _
d les
n c
s olution
Ġs ab
Ġo tt
Ġl w
Ġn ii
om o
od ers
Ġbe gan
ter ra
pl ot
Ġk at
op her
op timal
Ġint ensively
ad us
Ġdi atomic
Ġj y
Ġj ob
Ġdo e
Ġunder l
Ġam r
Ġhe i
ici ous
Ġlocal isation
Ġcoll oid
Ġpolar izing
ex pon
Ġu gc
Ġintro ductory
Ġassoci ative
Ġnan ophot
Ġsum mer
24 3
ns yl
Ġshort com
27 9
Ġbar re
Ġbar deen
Ġintern ally
Ġrob otic
Ġyoun gest
com ms
Ġrul ing
Ġmultipl iers
Ġbr st
Ġlang mu
Ġobsc uring
Ġcoal esc
Ġcentro symmetric
Ġnanost ructure
bes gue
Ġgenu inely
utrin os
lar ge
van ia
Ġswim mer
Ġspintron ic
ibo one
Ġmicrom otion
Ġslepton s
Ġhelioseism ic
Ġtou ching
Ġtsuk uba
Ġarr henius
nsyl vania
Ġshortcom ings
0 80
f ied
h on
j j
w all
Ġ ero
re m
Ġo w
Ġc age
Ġp isa
Ġin af
Ġe ase
Ġre id
Ġan ton
Ġbe a
if fer
Ġco hes
Ġtw itter
ari a
Ġdi photon
Ġj j
Ġspin odal
Ġkn ock
Ġmet abolic
Ġmatter s
ori ented
Ġquas ielastic
Ġinitial ized
Ġweak ening
25 6
Ġsl ices
Ġprof it
23 3
29 5
Ġrest oring
ie u
Ġmicro reson
ta e
Ġmill en
flu x
Ġber ger
Ġshe ath
Ġpen nsylvania
Ġalign ments
Ġassign ing
Ġrus s
Ġtext book
Ġstim uli
Ġholograph y
Ġnl te
Ġplau sibly
Ġboost ing
Ġattenu ated
Ġtermin als
Ġbun ching
Ġbd g
Ġreplic as
Ġqud its
Ġdeploy ed
gener al
Ġhes sian
Ġgriffith s
Ġseif ert
Ġlangmu ir
3 36
[ -
f d
h ydro
s w
s ar
s ler
Ġs ays
ma j
Ġc ros
Ġp eter
Ġw el
Ġin forma
Ġre exam
Ġto mon
as a
Ġg ly
st a
od d
Ġch alcogen
Ġle besgue
Ġac ids
Ġnon stationary
Ġgal l
Ġdisc arded
Ġ0 36
sc ripts
Ġ4 21
Ġ4 64
Ġmulti layers
Ġq p
Ġfl rw
Ġ8 57
Ġ7 50
50 8
Ġpeak ing
}\ ,
Ġhel ic
26 7
Ġbreak out
60 6
Ġcontain er
Ġbar otropic
Ġcool s
Ġrecon figuration
sh ar
Ġauth en
Ġannihil ate
rect ed
Ġfavor ing
exp ansion
bor n
Ġpuzz les
Ġmesh es
Ġos aka
Ġsatisfact orily
Ġsaf e
Ġheuristic s
Ġswim mers
Ġfib res
Ġfinger print
Ġinnov ation
Ġsemigroup s
weight ed
Ġhof stad
Ġstef an
Ġmagnetot ransport
expon ential
2 15
] .
b n
z es
Ġa queous
Ġs ong
Ġo z
en beck
Ġp rand
al g
Ġin jective
Ġm um
Ġn ap
Ġst oner
Ġan tin
Ġ1 38
Ġpar ker
Ġra z
Ġk dv
Ġ2 56
Ġ2 59
Ġr n
Ġun restricted
Ġnon extensive
Ġdep ression
con e
Ġsuper part
Ġsub li
ear s
Ġ\ ,
Ġag s
Ġsch ott
Ġ9 47
37 7
39 5
Ġren yi
ck el
no ma
Ġthick er
Ġtechn ische
Ġcollision ally
Ġaut noma
Ġanalog ously
Ġshar per
Ġdistinguish ability
Ġannihil ating
ug ra
200 6
200 8
Ġdro pping
Ġeclip tic
Ġresem bl
Ġqs l
Ġdepic t
}_{ {\
Ġhf b
Ġmultic omponent
Ġham ming
Ġgy ro
Ġmeta magnetic
Ġsas aki
Ġdiffe omorphisms
Ġnonclassical ity
Ġnanob ubbles
Ġroy al
Ġdeut sch
Ġfq h
Ġpati ents
Ġsubdwarf s
Ġpurs ued
Ġadsorb ate
stack s
Ġfred holm
Ġmultiferro ic
Ġpresum ed
Ġfortun ately
Ġsputter ing
Ġcorp us
Ġmagnetorot ational
Ġhofstad ter
. #
b t
d ft
l ength
m jy
p et
z ik
Ġ iz
Ġo lig
ma ble
Ġc ations
Ġw z
Ġt ll
Ġt cp
it as
Ġm ie
Ġl lo
Ġis ost
ra ctions
Ġv ig
Ġas ked
os itely
Ġk ad
Ġpa ves
Ġdisc ern
Ġro man
int en
Ġhe av
Ġhe ega
ib ilities
Ġman tle
Ġwave vectors
Ġq os
Ġlin er
ges tion
Ġrepro cessing
he im
Ġcloud y
Ġho oft
Ġtru th
Ġresi d
Ġcooper ativity
Ġemphas izes
Ġcompl ications
Ġfu ch
sk a
Ġdiss olution
Ġprima ries
electron s
Ġstim ulus
Ġprevent ed
Ġalter ing
Ġkar l
Ġstock s
Ġsaf ety
Ġcart an
Ġpolyhed ral
Ġkir ch
Ġglit ches
cha ft
Ġmatro id
Ġstragg lers
Ġpenta quark
Ġdiminish es
Ġrefriger ator
Ġintru der
Ġlun ar
Ġtwe ez
Ġbism uth
Ġprand tl
Ġllo yd
Ġheega ard
( _
4 00
d istribution
h space
i ke
j n
n comms
o ge
Ġ rome
on to
re al
Ġc itation
Ġm ere
Ġm ose
Ġre jected
Ġto f
Ġis r
Ġst yle
st ro
ur ance
Ġv oting
os in
Ġ1 52
Ġk ard
ac on
Ġsc ores
Ġint act
Ġcl as
Ġpre valence
Ġim bh
Ġnon c
Ġstar less
Ġro gue
Ġ3 10
Ġ3 35
Ġrep air
Ġsub pop
Ġloc ating
Ġq sh
Ġlinear ization
Ġref ract
our se
Ġmic roscopically
Ġed dy
Ġtri p
hi ma
22 2
Ġvol terra
Ġca th
39 0
assi um
Ġslow s
Ġopp ositely
Ġmar ting
Ġret ard
Ġprim es
Ġsubs urface
Ġscre w
Ġmach o
aps es
Ġgerman ium
Ġold est
Ġiner t
Ġuk raine
Ġmor ris
Ġhybridiz ed
Ġharmon ically
Ġtransmit ters
Ġbun ches
Ġdich alcogenides
Ġtetrahed ra
Ġcorrobor ate
Ġnu ovo
Ġkal man
Ġmitig ate
Ġpov m
Ġimag ine
Ġbatter y
Ġclin ical
Ġanharmon icity
Ġperihel ion
( [#
3 25
6 00
c ern
c iten
f namefont
u per
Ġo e
Ġw n
ed er
Ġe cos
Ġn atex
Ġh il
Ġg ong
et ter
et rable
ra o
si ties
Ġex cessive
Ġbe ars
se par
Ġ2 47
Ġj ournals
Ġi w
Ġrel ics
Ġmo vie
ist ration
Ġval encia
Ġtrans duc
Ġthere after
man s
Ġpot assium
ub ic
Ġ19 73
Ġany on
Ġge org
duc ibility
24 1
Ġser iously
Ġunit ar
Ġhar bor
45 5
Ġprog ression
Ġreview ing
equ ation
Ġdifferential ly
Ġep ist
cent er
Ġprom ises
Ġclos es
Ġinver tible
Ġms ugra
Ġsight lines
200 4
hl ich
Ġsteep ly
ame font
Ġcompac tif
Ġlibr aries
Ġple i
Ġdeparture s
Ġhair pin
Ġinnov ative
Ġupgra ded
Ġfuller ene
Ġspectropolar imetric
Ġcole man
Ġcommission ing
Ġcred it
Ġmimick ing
Ġhospit ality
Ġbelg ium
Ġnatex lab
0 11
g ar
l g
m orph
z ig
Ġthe ra
Ġc ue
Ġt x
Ġm bs
il inear
Ġde magne
Ġ1 87
Ġcomp et
du e
Ġ2 70
ain t
Ġener g
ad vant
ap est
Ġy v
Ġfo od
Ġver lag
Ġmay be
Ġorbit ally
eg o
Ġmain z
Ġcontro vers
Ġdri p
Ġnonlinear ly
Ġaff inity
Ġclassif ier
Ġsmo other
Ġtechn ic
Ġvir gin
com ple
Ġstrip ed
Ġmathematic a
Ġseyfer ts
Ġpron e
Ġnn n
Ġban ks
Ġbern stein
Ġlac er
bib namefont
bib fnamefont
Ġvo ter
Ġhab it
Ġves icle
under standing
), (
Ġsach s
Ġuhl enbeck
Ġequid ist
Ġnavig ation
Ġenthal py
rapid ity
citen amefont
2 16
l b
m it
t ec
t sev
Ġ ue
th ree
in ements
in dex
en de
ar ro
Ġn j
Ġn pc
st ed
Ġsp o
Ġdis advant
Ġ1 74
Ġr q
ion ale
Ġpa hs
Ġ0 13
Ġno on
Ġbas al
Ġloc c
uc ci
Ġover hauser
ov en
ator io
Ġ19 69
