{"<s>":0,"<pad>":1,"</s>":2,"<unk>":3,"<mask3>":4,"!":5,"\"":6,"#":7,"$":8,"%":9,"&":10,"'":11,"(":12,")":13,"*":14,"+":15,",":16,"-":17,".":18,"/":19,"0":20,"1":21,"2":22,"3":23,"4":24,"5":25,"6":26,"7":27,"8":28,"9":29,":":30,";":31,"<":32,"=":33,">":34,"?":35,"@":36,"A":37,"B":38,"C":39,"D":40,"E":41,"F":42,"G":43,"H":44,"I":45,"J":46,"K":47,"L":48,"M":49,"N":50,"O":51,"P":52,"Q":53,"R":54,"S":55,"T":56,"U":57,"V":58,"W":59,"X":60,"Y":61,"Z":62,"[":63,"\\":64,"]":65,"^":66,"_":67,"`":68,"a":69,"b":70,"c":71,"d":72,"e":73,"f":74,"g":75,"h":76,"i":77,"j":78,"k":79,"l":80,"m":81,"n":82,"o":83,"p":84,"q":85,"r":86,"s":87,"t":88,"u":89,"v":90,"w":91,"x":92,"y":93,"z":94,"{":95,"|":96,"}":97,"~":98,"¡":99,"¢":100,"£":101,"¤":102,"¥":103,"¦":104,"§":105,"¨":106,"©":107,"ª":108,"«":109,"¬":110,"®":111,"¯":112,"°":113,"±":114,"²":115,"³":116,"´":117,"µ":118,"¶":119,"·":120,"¸":121,"¹":122,"º":123,"»":124,"¼":125,"½":126,"¾":127,"¿":128,"À":129,"Á":130,"Â":131,"Ã":132,"Ä":133,"Å":134,"Æ":135,"Ç":136,"È":137,"É":138,"Ê":139,"Ë":140,"Ì":141,"Í":142,"Î":143,"Ï":144,"Ð":145,"Ñ":146,"Ò":147,"Ó":148,"Ô":149,"Õ":150,"Ö":151,"×":152,"Ø":153,"Ù":154,"Ú":155,"Û":156,"Ü":157,"Ý":158,"Þ":159,"ß":160,"à":161,"á":162,"â":163,"ã":164,"ä":165,"å":166,"æ":167,"ç":168,"è":169,"é":170,"ê":171,"ë":172,"ì":173,"í":174,"î":175,"ï":176,"ð":177,"ñ":178,"ò":179,"ó":180,"ô":181,"õ":182,"ö":183,"÷":184,"ø":185,"ù":186,"ú":187,"û":188,"ü":189,"ý":190,"þ":191,"ÿ":192,"Ā":193,"ā":194,"Ă":195,"ă":196,"Ą":197,"ą":198,"Ć":199,"ć":200,"Ĉ":201,"ĉ":202,"Ċ":203,"ċ":204,"Č":205,"č":206,"Ď":207,"ď":208,"Đ":209,"đ":210,"Ē":211,"ē":212,"Ĕ":213,"ĕ":214,"Ė":215,"ė":216,"Ę":217,"ę":218,"Ě":219,"ě":220,"Ĝ":221,"ĝ":222,"Ğ":223,"ğ":224,"Ġ":225,"ġ":226,"Ģ":227,"ģ":228,"Ĥ":229,"ĥ":230,"Ħ":231,"ħ":232,"Ĩ":233,"ĩ":234,"Ī":235,"ī":236,"Ĭ":237,"ĭ":238,"Į":239,"į":240,"İ":241,"ı":242,"Ĳ":243,"ĳ":244,"Ĵ":245,"ĵ":246,"Ķ":247,"ķ":248,"ĸ":249,"Ĺ":250,"ĺ":251,"Ļ":252,"ļ":253,"Ľ":254,"ľ":255,"Ŀ":256,"ŀ":257,"Ł":258,"ł":259,"Ń":260,"th":261,"Ġth":262,"Ġa":263,"in":264,"on":265,"Ġthe":266,"er":267,"ti":268,"Ġs":269,"re":270,"Ġo":271,"ma":272,"en":273,"Ġc":274,"Ġ,":275,"ĠĠ":276,"Ġf":277,"Ġp":278,"Ġ.":279,"al":280,"Ġof":281,"is":282,"Ġw":283,"Ġin":284,"es":285,"tion":286,"Ġd":287,"Ġt":288,"or":289,"ed":290,"Ġb":291,"at":292,"math":293,"ar":294,"xmath":295,"nd":296,"Ġ@":297,"an":298,"ro":299,"it":300,"Ġe":301,"ing":302,"ic":303,"Ġm":304,"le":305,"Ġand":306,"Ġ-":307,"Ġre":308,"Ġto":309,"Ġl":310,"ent":311,"el":312,"Ġn":313,"ation":314,"ct":315,"Ġh":316,"as":317,"Ġg":318,"Ġis":319,"ul":320,"Ġst":321,"et":322,"st":323,"ra":324,"Ġfor":325,"om":326,"Ġ_":327,"Ġ)":328,"tic":329,"ly":330,"si":331,"ur":332,"Ġwi":333,"ol":334,"ve":335,"Ġ(":336,"Ġcon":337,"Ġma":338,"us":339,"Ġwe":340,"ce":341,"im":342,"ow":343,"ig":344,"qu":345,"Ġwith":346,"Ġex":347,"um":348,"od":349,"Ġpro":350,"ch":351,"Ġon":352,"Ġthat":353,"Ġan":354,"Ġbe":355,"Ġv":356,"ter":357,"Ġwh":358,"am":359,"per":360,"ity":361,"ri":362,"un":363,"ction":364,"ure":365,"Ġas":366,"Ġsp":367,"em":368,"il":369,"os":370,"ect":371,"Ġare":372,"ot":373,"ut":374,"Ġby":375,"if":376,"Ġde":377,"Ġal":378,"ate":379,"Ġat":380,"Ġsu":381,"ver":382,"id":383,"pl":384,"ge":385,"res":386,"Ġdis":387,"Ġcom":388,"ir":389,"Ġph":390,"Ġthis":391,"Ġsh":392,"Ġmod":393,"ite":394,"Ġres":395,"ations":396,"ab":397,"Ġ1":398,"ant":399,"und":400,"ical":401,"Ġpar":402,"Ġor":403,"se":404,"Ġme":405,"Ġqu":406,"ener":407,"rom":408,"Ġco":409,"di":410,"ran":411,"Ġch":412,"igh":413,"sion":414,"Ġcomp":415,"lu":416,"Ġob":417,"Ġne":418,"Ġfrom":419,"iz":420,"Ġra":421,"Ġ*":422,"Ġse":423,"ich":424,"pp":425,"ts":426,"Ġk":427,"ys":428,"Ġus":429,"Ġsy":430,"ated":431,"ence":432,"oc":433,"Ġmodel":434,"Ġwhich":435,"du":436,"Ġ2":437,"Ġit":438,"ĠĠĠ":439,"xc":440,"we":441,"ces":442,"xcite":443,"Ġinter":444,"ff":445,"ution":446,"ron":447,"Ġcan":448,"Ġr":449,"Ġ]":450,"ati":451,"der":452,"ies":453,"ment":454,"ore":455,"ine":456,"ave":457,"ere":458,"tical":459,"ain":460,"op":461,"ase":462,"ds":463,"ac":464,"mal":465,"Ġsc":466,"Ġ:":467,"Ġfi":468,"ion":469,"fer":470,"Ġun":471,"gn":472,"Ġshow":473,"Ġle":474,"ell":475,"de":476,"erm":477,"act":478,"ers":479,"rib":480,"ss":481,"Ġ[":482,"ble":483,"Ġtw":484,"gy":485,"and":486,"ser":487,"Ġsyst":488,"Ġcont":489,"Ġtran":490,"ru":491,"ens":492,"tim":493,"Ġresul":494,"end":495,"Ġtwo":496,"Ġint":497,"vel":498,"Ġac":499,"ates":500,"Ġener":501,"ad":502,"ature":503,"Ġev":504,"Ġfiel":505,"Ġsystem":506,"lect":507,"Ġdif":508,"Ġsim":509,"ec":510,"Ġapp":511,"Ġpres":512,"Ġobser":513,"Ġcor":514,"Ġeff":515,"ous":516,"Ġfin":517,"Ġbo":518,"ther":519,"ari":520,"tial":521,"Ġdi":522,"Ġdet":523,"Ġpo":524,"Ġj":525,"ary":526,"est":527,"ties":528,"ak":529,"Ġi":530,"ph":531,"Ġobserv":532,"Ġcl":533,"Ġper":534,"ay":535,"Ġ+":536,"vi":537,"ort":538,"etr":539,"Ġnot":540,"ple":541,"Ġtim":542,"Ġdist":543,"Ġhave":544,"Ġpre":545,"Ġab":546,"00":547,"unction":548,"Ġenergy":549,"Ġim":550,"Ġthese":551,"low":552,"able":553,"up":554,"ace":555,"ular":556,"Ġrel":557,"Ġnon":558,"Ġpl":559,"Ġmo":560,"Ġhigh":561,"Ġbet":562,"ax":563,"Ġinc":564,"Ġmagn":565,"og":566,"ight":567,"Ġnum":568,"Ġour":569,"Ġfield":570,"ap":571,"iv":572,"Ġgal":573,"Ġspect":574,"tive":575,"mation":576,"so":577,"ud":578,"ist":579,"Ġequ":580,"Ġfunction":581,"Ġone":582,"for":583,"Ġstar":584,"Ġalso":585,"ween":586,"Ġbetween":587,"Ġso":588,"Ġdiffer":589,"Ġanal":590,"Ġmass":591,"tain":592,"olution":593,"Ġelect":594,"ance":595,"ach":596,"ue":597,"ign":598,"Ġreg":599,"ruct":600,"Ġop":601,"Ġstate":602,"10":603,"Ġfig":604,"yn":605,"ics":606,"Ġresults":607,"Ġgener":608,"Ġpartic":609,"Ġlar":610,"Ġphys":611,"ding":612,"Ġpa":613,"Ġdep":614,"Ġcal":615,"Ġdisc":616,"Ġmeas":617,"Ġexp":618,"Ġtime":619,"Ġquant":620,"Ġwhere":621,"ents":622,"Ġem":623,"Ġcol":624,"ree":625,"Ġquantum":626,"etic":627,"ally":628,"ber":629,"ves":630,"Ġval":631,"ess":632,"ribution":633,"Ġgalax":634,"Ġmeasure":635,"Ġhas":636,"ynam":637,"Ġar":638,"sition":639,"Ġorder":640,"ag":641,"Ġscal":642,"ose":643,"Ġappro":644,"ility":645,"Ġtrans":646,"ory":647,"Ġad":648,"Ġacc":649,"gh":650,"Ġdat":651,"Ġusing":652,"Ġlow":653,"amet":654,"Ġpresent":655,"Ġspin":656,"Ġro":657,"ork":658,"ced":659,"ential":660,"cess":661,"ll":662,"esc":663,"Ġconst":664,"con":665,"Ġexper":666,"ors":667,"Ġphase":668,"Ġ3":669,"Ġen":670,"Ġdata":671,"Ġgra":672,"Ġparamet":673,"te":674,"bit":675,"Ġradi":676,"Ġtem":677,"cul":678,"Ġcorre":679,"action":680,"Ġ0":681,"Ġdec":682,"ong":683,"Ġexperim":684,"Ġchar":685,"Ġext":686,"Ġline":687,"are":688,"ensity":689,"Ġno":690,"mm":691,"ack":692,"Ġsuper":693,"Ġsur":694,"Ġsuch":695,"Ġimp":696,"ension":697,"Ġrep":698,"Ġthan":699,"ization":700,"ative":701,"Ġbas":702,"ard":703,"dic":704,"Ġy":705,"Ġfo":706,"Ġeffect":707,"Ġsam":708,"Ġform":709,"Ġstruct":710,"ugh":711,"Ġvari":712,"Ġmat":713,"Ġgro":714,"Ġsign":715,"ating":716,"ang":717,"sc":718,"ted":719,"dition":720,"ral":721,"Ġli":722,"Ġtemper":723,"yp":724,"Ġtemperature":725,"Ġobtain":726,"Ġz":727,"Ġstates":728,"Ġcalcul":729,"Ġcur":730,"Ġsub":731,"Ġdo":732,"les":733,"Ġass":734,"ely":735,"Ġfir":736,"ized":737,"upl":738,"Ġmeth":739,"Ġphot":740,"Ġloc":741,"Ġstructure":742,"ren":743,"Ġlarge":744,"Ġver":745,"ass":746,"Ġdensity":747,"vid":748,"Ġdynam":749,"ial":750,"Ġmethod":751,"ting":752,"11":753,"all":754,"Ġrec":755,"vity":756,"Ġstud":757,"Ġund":758,"ome":759,"Ġflu":760,"Ġ;":761,"Ġfirst":762,"cy":763,"Ġinteraction":764,"lust":765,"Ġstudy":766,"Ġmagnetic":767,"Ġelectron":768,"uc":769,"imension":770,"ton":771,"Ġall":772,"Ġbeen":773,"Ġfe":774,"Ġcoupl":775,"Ġdifferent":776,"Ġits":777,"mmetr":778,"Ġdistribution":779,"atter":780,"Ġmore":781,"sider":782,"Ġthere":783,"Ġout":784,"Ġprop":785,"Ġhow":786,"Ġboth":787,"pon":788,"Ġconsider":789,"Ġsing":790,"Ġunder":791,"Ġproper":792,"Ġdepend":793,"olar":794,"12":795,"ined":796,"Ġ#":797,"Ġwell":798,"ms":799,"Ġsimul":800,"Ġnew":801,"Ġfind":802,"mall":803,"Ġover":804,"ific":805,"Ġdimension":806,"Ġx":807,"Ġsmall":808,"Ġgalaxies":809,"ability":810,"ill":811,"uld":812,"Ġtyp":813,"int":814,"Ġdesc":815,"Ġtheory":816,"ied":817,"Ġam":818,"Ġhe":819,"Ġlim":820,"Ġup":821,"Ġexpl":822,"Ġnumber":823,"ected":824,"Ġuni":825,"Ġlimit":826,"Ġtheir":827,"Ġonly":828,"rong":829,"gth":830,"ments":831,"Ġtransition":832,"Ġwhen":833,"Ġ`":834,"Ġexperiment":835,"Ġmodels":836,"ission":837,"Ġ'":838,"Ġsystems":839,"ici":840,"ev":841,"ile":842,"ark":843,"Ġstrong":844,"ons":845,"Ġcase":846,"Ġobserved":847,"Ġpos":848,"ucle":849,"ke":850,"ib":851,"Ġother":852,"Ġfra":853,"age":854,"Ġbut":855,"ases":856,"Ġran":857,"Ġbased":858,"Ġgiv":859,"Ġcorrel":860,"man":861,"ast":862,"duced":863,"Ġregion":864,"Ġclust":865,"Ġinf":866,"aus":867,"ear":868,"Ġprocess":869,"Ġdiscus":870,"chan":871,"Ġgeneral":872,"Ġbound":873,"Ġabo":874,"vely":875,"Ġterm":876,"Ġfre":877,"ric":878,"Ġnucle":879,"Ġset":880,"par":881,"Ġspace":882,"ise":883,"Ġif":884,"Ġcons":885,"rin":886,"ian":887,"Ġpot":888,"xi":889,"Ġ\\":890,"ole":891,"Ġag":892,"Ġ4":893,"ject":894,"ational":895,"Ġinto":896,"vers":897,"Ġplan":898,"Ġsingle":899,"Ġes":900,"quen":901,"Ġmul":902,"ov":903,"Ġprovid":904,"Ġap":905,"Ġpotential":906,"Ġexc":907,"ption":908,"ub":909,"Ġproperties":910,"Ġcomple":911,"Ġlocal":912,"Ġneut":913,"erical":914,"Ġtra":915,"Ġdeterm":916,"Ġanalys":917,"olog":918,"Ġfact":919,"work":920,"Ġsour":921,"13":922,"Ġwas":923,"ail":924,"pt":925,"Ġdef":926,"Ġcoll":927,"Ġused":928,"Ġfound":929,"Ġbl":930,"Ġmay":931,"Ġpossi":932,"ust":933,"Ġsome":934,"Ġtheore":935,"Ġconf":936,"Ġdire":937,"Ġman":938,"Ġmulti":939,"Ġcent":940,"Ġwave":941,"istic":942,"Ġcoupling":943,"face":944,"Ġclass":945,"ues":946,"ize":947,"rop":948,"own":949,"av":950,"Ġoptical":951,"Ġobtained":952,"Ġdiscuss":953,"duct":954,"Ġq":955,"Ġray":956,"Ġstars":957,"Ġincre":958,"Ġvi":959,"Ġlin":960,"Ġid":961,"Ġappl":962,"Ġ''":963,"Ġ``":964,"Ġanaly":965,"Ġ20":966,"Ġlat":967,"ry":968,"tig":969,"Ġinclu":970,"Ġder":971,"Ġbec":972,"ator":973,"Ġdue":974,"Ġdescrib":975,"round":976,"Ġrange":977,"respon":978,"Ġprob":979,"Ġ/":980,"Ġcorrespon":981,"Ġ200":982,"ip":983,"Ġatom":984,"red":985,"Ġ=":986,"Ġproble":987,"sive":988,"Ġemission":989,"ently":990,"vestig":991,"Ġshown":992,"Ġpredic":993,"Ġinvestig":994,"str":995,"Ġanalysis":996,"avi":997,"Ġapproach":998,"Ġuse":999,"ual":1000,"Ġbeh":1001,"ger":1002,"Ġthree":1003,"Ġmom":1004,"Ġte":1005,"Ġevolution":1006,"Ġsolution":1007,"ological":1008,"formation":1009,"Ġinde":1010,"Ġfrequen":1011,"Ġwill":1012,"itu":1013,"Ġesti":1014,"oun":1015,"Ġsymmetr":1016,"ges":1017,"ever":1018,"Ġsch":1019,"Ġsol":1020,"tif":1021,"Ġent":1022,"ish":1023,"Ġparameters":1024,"udi":1025,"Ġ5":1026,"Ġkn":1027,"the":1028,"au":1029,"Ġpow":1030,"Ġhere":1031,"Ġsupp":1032,"ress":1033,"Ġpaper":1034,"acter":1035,"Ġstudi":1036,"Ġnumerical":1037,"Ġhy":1038,"14":1039,"ective":1040,"Ġband":1041,"ft":1042,"Ġlight":1043,"lo":1044,"Ġvery":1045,"Ġhowever":1046,"Ġmean":1047,"urb":1048,"Ġ19":1049,"Ġgiven":1050,"15":1051,"ometr":1052,"over":1053,"ross":1054,"Ġapproxi":1055,"Ġeq":1056,"Ġpolar":1057,"Ġcondition":1058,"Ġcharacter":1059,"nel":1060,"ould":1061,"Ġther":1062,"Ġpoint":1063,"Ġnear":1064,"Ġthen":1065,"Ġwhile":1066,"Ġmet":1067,"Ġparameter":1068,"Ġlong":1069,"Ġchan":1070,"Ġdynamics":1071,"Ġspec":1072,"osed":1073,"Ġsurface":1074,"tice":1075,"rent":1076,"rac":1077,"rum":1078,"Ġscatter":1079,"ength":1080,"rough":1081,"tit":1082,"Ġscale":1083,"Ġ10":1084,"Ġpower":1085,"Ġlinear":1086,"Ġconsist":1087,"Ġeach":1088,"Ġreal":1089,"ection":1090,"Ġeffects":1091,"Ġexcit":1092,"Ġferm":1093,"Ġdimensional":1094,"Ġresp":1095,"Ġexam":1096,"Ġbehavi":1097,"Ġmin":1098,"Ġmost":1099,"Ġwithin":1100,"ero":1101,"oci":1102,"atis":1103,"Ġabs":1104,"Ġlevel":1105,"20":1106,"Ġthrough":1107,"med":1108,"cc":1109,"Ġsame":1110,"Ġvalue":1111,"Ġmoment":1112,"Ġmechan":1113,"Ġspectrum":1114,"Ġfol":1115,"Ġcar":1116,"Ġallow":1117,"Ġ6":1118,"als":1119,"Ġvalues":1120,"Ġnet":1121,"Ġestima":1122,"Ġwork":1123,"Ġparticular":1124,"tivity":1125,"Ġconc":1126,"Ġparticle":1127,"Ġoper":1128,"Ġvel":1129,"Ġinv":1130,"ni":1131,"Ġtop":1132,"ions":1133,"Ġreson":1134,"Ġobservations":1135,"ep":1136,"Ġfl":1137,"duction":1138,"Ġformation":1139,"Ġequation":1140,"verse":1141,"Ġorbit":1142,"Ġresult":1143,"Ġrate":1144,"Ġsimil":1145,"ellar":1146,"Ġgas":1147,"Ġdiff":1148,"Ġref":1149,"Ġcomput":1150,"Ġtype":1151,"ive":1152,"ensi":1153,"Ġsug":1154,"Ġtak":1155,"Ġmon":1156,"Ġassum":1157,"Ġcurrent":1158,"Ġcompon":1159,"Ġperfor":1160,"Ġang":1161,"Ġexperimental":1162,"Ġsignific":1163,"ormal":1164,"Ġphysics":1165,"Ġcos":1166,"ically":1167,"ix":1168,"Ġsimilar":1169,"Ġini":1170,"Ġunivers":1171,"Ġcompare":1172,"cond":1173,"me":1174,"ved":1175,"Ġrev":1176,"Ġmatter":1177,"itude":1178,"tically":1179,"Ġany":1180,"Ġnetwork":1181,"iod":1182,"vious":1183,"Ġpair":1184,"Ġfinite":1185,"ays":1186,"led":1187,"Ġproblem":1188,"Ġlo":1189,"aw":1190,"Ġfrequency":1191,"eg":1192,"Ġlattice":1193,"ex":1194,"umin":1195,"lement":1196,"Ġpossible":1197,"Ġcosm":1198,"Ġcross":1199,"Ġindic":1200,"Ġsecond":1201,"Ġrati":1202,"Ġscattering":1203,"16":1204,"lec":1205,"Ġgroup":1206,"Ġfollow":1207,"Ġdeg":1208,"Ġgalaxy":1209,"Ġbin":1210,"Ġthey":1211,"Ġconstant":1212,"Ġsignificant":1213,"Ġpul":1214,"Ġcluster":1215,"ori":1216,"Ġima":1217,"her":1218,"Ġphoton":1219,"Ġperiod":1220,"Ġtech":1221,"Ġsimulations":1222,"Ġterms":1223,"ene":1224,"Ġiden":1225,"Ġdisk":1226,"ctions":1227,"ints":1228,"Ġeffective":1229,"ritical":1230,"Ġer":1231,"Ġ&":1232,"pend":1233,"Ġsee":1234,"inu":1235,"ctu":1236,"Ġquas":1237,"Ġlet":1238,"our":1239,"Ġgraph":1240,"Ġge":1241,"Ġ8":1242,"main":1243,"Ġimport":1244,"Ġke":1245,"Ġlike":1246,"velop":1247,"Ġins":1248,"Ġprevious":1249,"Ġrepres":1250,"ough":1251,"Ġinitial":1252,"Ġdem":1253,"ulation":1254,"Ġstand":1255,"magn":1256,"ost":1257,"Ġfur":1258,"Ġaddition":1259,"Ġbel":1260,"Ġthus":1261,"Ġquan":1262,"Ġosc":1263,"ets":1264,"Ġampl":1265,"ism":1266,"Ġrot":1267,"ffici":1268,"Ġoscill":1269,"ven":1270,"duce":1271,"Ġwere":1272,"Ġinst":1273,"ock":1274,"Ġmeasurements":1275,"rosc":1276,"tively":1277,"ving":1278,"Ġconstra":1279,"war":1280,"Ġfields":1281,"fore":1282,"Ġ7":1283,"Ġeven":1284,"Ġsymmetry":1285,"matic":1286,"ement":1287,"Ġfunctions":1288,"ocity":1289,"Ġcritical":1290,"ogy":1291,"qui":1292,"roscop":1293,"ication":1294,"Ġderiv":1295,"old":1296,"Ġocc":1297,"Ġvelocity":1298,"Ġexist":1299,"ift":1300,"Ġmic":1301,"Ġzero":1302,"mon":1303,"Ġabout":1304,"Ġinteg":1305,"Ġdemon":1306,"Ġfeature":1307,"Ġcomb":1308,"ood":1309,"Ġ9":1310,"tions":1311,"Ġpe":1312,"que":1313,"Ġaf":1314,"Ġdemonstr":1315,"Ġfit":1316,"Ġbro":1317,"Ġsize":1318,"Ġfree":1319,"gest":1320,"Ġinteractions":1321,"Ġcorresponding":1322,"Ġweak":1323,"Ġasy":1324,"Ġwa":1325,"Ġspectral":1326,"Ġconsistent":1327,"Ġatt":1328,"tal":1329,"ium":1330,"Ġsin":1331,"Ġknown":1332,"Ġu":1333,"Ġlumin":1334,"Ġcompar":1335,"Ġintro":1336,"Ġassoci":1337,"Ġhal":1338,"turb":1339,"Ġcontinu":1340,"Ġblack":1341,"Ġback":1342,"Ġspectra":1343,"30":1344,"Ġdirect":1345,"Ġmain":1346,"25":1347,"Ġbehavior":1348,"Ġcontribution":1349,"Ġinformation":1350,"Ġfluctu":1351,"Ġrand":1352,"elf":1353,"Ġfactor":1354,"ology":1355,"ew":1356,"Ġregim":1357,"ness":1358,"Ġflux":1359,"line":1360,"ps":1361,"Ġdependence":1362,"Ġparticles":1363,"Ġquark":1364,"Ġed":1365,"Ġflow":1366,"Ġlead":1367,"Ġrandom":1368,"Ġsource":1369,"Ġdecay":1370,"Ġaver":1371,"17":1372,"Ġhigher":1373,"Ġcomplex":1374,"Ġcorrelation":1375,"Ġmany":1376,"Ġtri":1377,"Ġshows":1378,"Ġrequi":1379,"uring":1380,"Ġsample":1381,"omin":1382,"40":1383,"Ġsupercon":1384,"Ġmu":1385,"Ġstellar":1386,"Ġthermal":1387,"Ġstandard":1388,"Ġdevelop":1389,"Ġmomentum":1390,"ances":1391,"ities":1392,"Ġsimple":1393,"Ġcontro":1394,"Ġhole":1395,"Ġsever":1396,"Ġalg":1397,"Ġrelati":1398,"Ġful":1399,"ful":1400,"ult":1401,"Ġpop":1402,"Ġbi":1403,"Ġdiag":1404,"Ġperturb":1405,"18":1406,"Ġimportant":1407,"50":1408,"Ġcm":1409,"ertain":1410,"Ġabove":1411,"Ġequations":1412,"imum":1413,"rix":1414,"Ġstatis":1415,"orith":1416,"ond":1417,"amil":1418,"Ġlength":1419,"Ġet":1420,"Ġapproximation":1421,"Ġdetect":1422,"ectively":1423,"Ġrepresent":1424,"duc":1425,"out":1426,"Ġalgorith":1427,"Ġdes":1428,"ators":1429,"Ġsince":1430,"ide":1431,"Ġfour":1432,"Ġmeasured":1433,"ier":1434,"Ġtheoretical":1435,"Ġmode":1436,"Ġthose":1437,"Ġsl":1438,"Ġdri":1439,"19":1440,"Ġrecent":1441,"Ġdark":1442,"Ġradio":1443,"Ġmed":1444,"Ġdetail":1445,"Ġexperiments":1446,"hi":1447,"Ġstudied":1448,"terial":1449,"Ġchannel":1450,"Ġion":1451,"astic":1452,"Ġpeak":1453,"Ġsepar":1454,"Ġconditions":1455,"Ġear":1456,"tern":1457,"Ġlower":1458,"Ġtotal":1459,"Ġseveral":1460,"Ġratio":1461,"Ġprovide":1462,"romagn":1463,"igin":1464,"Ġabsor":1465,"Ġorigin":1466,"ute":1467,"Ġti":1468,"ice":1469,"Ġidentif":1470,"Ġalong":1471,"ning":1472,"Ġlines":1473,"Ġcharge":1474,"Ġspati":1475,"rk":1476,"Ġmatrix":1477,"Ġsuggest":1478,"Ġafter":1479,"Ġassociated":1480,"dsh":1481,"vect":1482,"Ġir":1483,"Ġappear":1484,"ples":1485,"ination":1486,"Ġclusters":1487,"Ġindepend":1488,"tonian":1489,"Ġobject":1490,"ression":1491,"Ġmix":1492,"Ġclassical":1493,"ount":1494,"Ġneutrin":1495,"Ġeffici":1496,"ĠĠĠĠ":1497,"osity":1498,"Ġredsh":1499,"Ġinvestigate":1500,"right":1501,"gies":1502,"Ġcalculations":1503,"Ġmaterial":1504,"Ġsources":1505,"Ġpresence":1506,"Ġcir":1507,"otrop":1508,"ause":1509,"Ġtechni":1510,"ture":1511,"Ġextend":1512,"Ġextra":1513,"Ġmax":1514,"Ġmodes":1515,"ilib":1516,"Ġdomin":1517,"iel":1518,"Ġentang":1519,"Ġcollis":1520,"ring":1521,"Ġ}":1522,"Ġgap":1523,"asing":1524,"Ġneg":1525,"36":1526,"Ġbre":1527,"Ġframe":1528,"Ġlarger":1529,"Ġpoly":1530,"Ġcompared":1531,"Ġreport":1532,"ram":1533,"Ġnoise":1534,"Ġground":1535,"Ġmethods":1536,"Ġproposed":1537,"Ġagre":1538,"Ġkey":1539,"Ġinterest":1540,"ging":1541,"atur":1542,"Ġoccur":1543,"idence":1544,"Ġgeometr":1545,"22":1546,"Ġregime":1547,"Ġcould":1548,"Ġii":1549,"Ġmolec":1550,"Ġrespectively":1551,"Ġself":1552,"Ġexpon":1553,"Ġhamil":1554,"Ġphysical":1555,"Ġpresented":1556,"gs":1557,"Ġcirc":1558,"Ġnormal":1559,"Ġtun":1560,"bility":1561,"actic":1562,"arch":1563,"ryst":1564,"ilibri":1565,"ner":1566,"ind":1567,"ane":1568,"Ġexact":1569,"Ġsem":1570,"Ġpart":1571,"Ġprof":1572,"Ġwould":1573,"Ġgre":1574,"Ġsolutions":1575,"Ġlaw":1576,"Ġplane":1577,"}\\":1578,"Ġsm":1579,"Ġschem":1580,"Ġdependent":1581,"iral":1582,"och":1583,"Ġdistance":1584,"Ġwid":1585,"Ġway":1586,"Ġaround":1587,"Ġhamiltonian":1588,"Ġsuperconduct":1589,"Ġ199":1590,"Ġtherefore":1591,"ayer":1592,"Ġnan":1593,"Ġano":1594,"onal":1595,"Ġtransp":1596,"ilibrium":1597,"ications":1598,"Ġprocesses":1599,"one":1600,"Ġcap":1601,"Ġconn":1602,"Ġphen":1603,"Ġcomponent":1604,"ope":1605,"23":1606,"Ġincluding":1607,"Ġvol":1608,"cd":1609,"ky":1610,"Ġpuls":1611,"Ġast":1612,"ord":1613,"gen":1614,"Ġdiscussed":1615,"Ġprobability":1616,"Ġaccre":1617,"Ġfil":1618,"Ġanalyz":1619,"Ġax":1620,"ground":1621,"vit":1622,"val":1623,"Ġnuclear":1624,"Ġinduced":1625,"rength":1626,"ads":1627,"row":1628,"Ġstrength":1629,"Ġenergies":1630,"Ġshap":1631,"Ġfluctuations":1632,"Ġcentral":1633,"dro":1634,"Ġexpected":1635,"Ġfraction":1636,"Ġdynamical":1637,"omen":1638,"Ġmuch":1639,"Ġdoes":1640,"Ġunderst":1641,"urst":1642,"Ġerr":1643,"Ġmas":1644,"Ġsum":1645,"ody":1646,"Ġrelation":1647,"Ġcryst":1648,"Ġphenomen":1649,"Ġtre":1650,"Ġbos":1651,"Ġfurther":1652,"{\\":1653,"ten":1654,"ci":1655,"Ġvia":1656,"Ġbelow":1657,"Ġbeam":1658,"phys":1659,"Ġanti":1660,"Ġbecause":1661,"Ġagreement":1662,"Ġindi":1663,"ration":1664,"Ġexplain":1665,"Ġgravit":1666,"Ġindependent":1667,"Ġcy":1668,"Ġsurve":1669,"chi":1670,"otic":1671,"Ġcalculated":1672,"Ġshould":1673,"Ġluminosity":1674,"Ġmotion":1675,"Ġca":1676,"tiz":1677,"Ġduring":1678,"hibit":1679,"Ġvect":1680,"Ġregions":1681,"Ġhel":1682,"24":1683,"ables":1684,"Ġrecently":1685,"Ġboundary":1686,"Ġdescribed":1687,"Ġden":1688,"Ġser":1689,"Ġsignal":1690,"linear":1691,"Ġapplied":1692,"Ġderived":1693,"Ġfermi":1694,"Ġfeatures":1695,"26":1696,"bers":1697,"Ġcoher":1698,"Ġsection":1699,"romagnetic":1700,"Ġclose":1701,"Ġcle":1702,"Ġbul":1703,"Ġhad":1704,"Ġrelated":1705,"Ġconsidered":1706,"Ġbreak":1707,"Ġdecre":1708,"Ġav":1709,"Ġmeasurement":1710,"ded":1711,"Ġimpl":1712,"Ġlink":1713,"Ġaverage":1714,"35":1715,"ars":1716,"Ġatoms":1717,"Ġwithout":1718,"Ġtopological":1719,"Ġproduction":1720,"put":1721,"Ġrespon":1722,"Ġtest":1723,"Ġgrow":1724,"icity":1725,"Ġfix":1726,"Ġalgorithm":1727,"Ġenh":1728,"Ġvarious":1729,"Ġquasi":1730,"Ġunit":1731,"Ġcoun":1732,"Ġgau":1733,"Ġneutron":1734,"60":1735,"Ġchang":1736,"Ġlas":1737,"Ġhydro":1738,"aces":1739,"ns":1740,"Ġbackground":1741,"Ġlett":1742,"Ġstrongly":1743,"Ġexhibit":1744,"ality":1745,"Ġequilibrium":1746,"ward":1747,"Ġpolarization":1748,"ified":1749,"Ġdetermined":1750,"Ġexample":1751,"ends":1752,"vant":1753,"tics":1754,"Ġgr":1755,"Ġdefined":1756,"Ġamplitude":1757,"Ġdetection":1758,"pre":1759,"Ġel":1760,"Ġnature":1761,"igur":1762,"ick":1763,"Ġprec":1764,"Ġinvari":1765,"21":1766,"Ġsensi":1767,"Ġkine":1768,"Ġcontain":1769,"Ġeig":1770,"Ġcoupled":1771,"Ġuniversity":1772,"Ġshort":1773,"Ġunc":1774,"atic":1775,"Ġposition":1776,"Ġcenter":1777,"Ġradiation":1778,"lob":1779,"Ġtransport":1780,"Ġnonlinear":1781,"Ġgive":1782,"Ġyiel":1783,"Ġdisper":1784,"27":1785,"Ġconfigur":1786,"effici":1787,"Ġcorrelations":1788,"Ġmolecular":1789,"Ġallows":1790,"Ġresolution":1791,"Ġstructures":1792,"Ġstudies":1793,"Ġmes":1794,"quence":1795,"Ġeigen":1796,"ency":1797,"pping":1798,"Ġglob":1799,"Ġabsorption":1800,"Ġtimes":1801,"Ġscaling":1802,"Ġmasses":1803,"Ġimpro":1804,"Ġhol":1805,"Ġredshift":1806,"Ġcases":1807,"33":1808,"Ġbran":1809,"Ġpress":1810,"Ġspatial":1811,"ode":1812,"ences":1813,"Ġchain":1814,"Ġaccretion":1815,"Ġpoints":1816,"Ġau":1817,"Ġdistributions":1818,"Ġgalactic":1819,"odes":1820,"80":1821,"Ġgood":1822,"Ġgauge":1823,"Ġneutrino":1824,"Ġrele":1825,"Ġred":1826,"ither":1827,"Ġcomm":1828,"Ġhar":1829,"Ġfinally":1830,"ansion":1831,"Ġclo":1832,"Ġprot":1833,"Ġleads":1834,"Ġcond":1835,"Ġaccount":1836,"29":1837,"usion":1838,"eter":1839,"Ġconclu":1840,"abil":1841,"osition":1842,"Ġloop":1843,"isotrop":1844,"ament":1845,"Ġsn":1846,"Ġsupport":1847,"45":1848,"lying":1849,"roscopic":1850,"Ġdirection":1851,"ia":1852,"Ġconstruct":1853,"Ġpropag":1854,"ged":1855,"Ġcoeffici":1856,"Ġbroad":1857,"Ġanisotrop":1858,"ription":1859,"Ġexpansion":1860,"Ġbody":1861,"Ġwidth":1862,"Ġinfra":1863,"ching":1864,"king":1865,"lish":1866,"Ġconver":1867,"38":1868,"Ġvis":1869,"Ġpopulation":1870,"28":1871,"ference":1872,"Ġdemonstrate":1873,"order":1874,"Ġcharacteristic":1875,"itud":1876,"Ġplas":1877,"Ġdescribe":1878,"ories":1879,"Ġchem":1880,"son":1881,"Ġmagnitude":1882,"ty":1883,"Ġlos":1884,"Ġcontr":1885,"osph":1886,"Ġremain":1887,"ining":1888,"ably":1889,"Ġinfrared":1890,"Ġbeing":1891,"icit":1892,"Ġfixed":1893,"Ġcontrol":1894,"Ġscen":1895,"uter":1896,"Ġsqu":1897,"Ġscheme":1898,"Ġmechanism":1899,"Ġscenari":1900,"Ġscalar":1901,"Ġachi":1902,"Ġgaus":1903,"warf":1904,"Ġindivid":1905,"ists":1906,"Ġpri":1907,"Ġframework":1908,"Ġneed":1909,"ords":1910,"Ġmassive":1911,"pc":1912,"aneous":1913,"orm":1914,"Ġresonance":1915,"sian":1916,"Ġtheorem":1917,"Ġformul":1918,"oid":1919,"Ġqubit":1920,"rate":1921,"Ġarg":1922,"Ġentanglement":1923,"Ġradius":1924,"Ġvector":1925,"Ġangular":1926,"Ġmaximum":1927,"ogene":1928,"Ġsph":1929,"Ġreve":1930,"Ġobjects":1931,"omb":1932,"Ġcore":1933,"Ġdust":1934,"Ġdiscre":1935,"Ġevidence":1936,"sible":1937,"31":1938,"omes":1939,"mpt":1940,"Ġcondens":1941,"Ġthem":1942,"Ġrelative":1943,"ead":1944,"Ġfoc":1945,"Ġsyn":1946,"oth":1947,"uble":1948,"Ġprin":1949,"Ġfollowing":1950,"vistic":1951,"37":1952,"Ġmetall":1953,"Ġmem":1954,"Ġsolar":1955,"Ġinteract":1956,"Ġbright":1957,"Ġoff":1958,"Ġfew":1959,"Ġcomparis":1960,"-@":1961,"Ġsci":1962,"Ġdwarf":1963,"Ġleading":1964,"Ġchange":1965,"ising":1966,"Ġelectrons":1967,"iter":1968,"Ġmedium":1969,"Ġsti":1970,"Ġhand":1971,"Ġdetected":1972,"Ġpressure":1973,"cies":1974,"Ġapproxima":1975,"Ġclear":1976,"less":1977,"Ġfigure":1978,"Ġrest":1979,"Ġfar":1980,"Ġscales":1981,"avy":1982,"Ġsearch":1983,"ying":1984,"Ġindividual":1985,"Ġdetermine":1986,"Ġfull":1987,"Ġult":1988,"tely":1989,"Ġdisorder":1990,"eler":1991,"Ġunderstand":1992,"ump":1993,"Ġdouble":1994,"Ġbar":1995,"orph":1996,"Ġbinary":1997,"tional":1998,"Ġgravitational":1999,"Ġsmaller":2000,"lit":2001,"Ġestimate":2002,"Ġdomain":2003,"ival":2004,"Ġcomponents":2005,"ressed":2006,"Ġtransfer":2007,"39":2008,"lection":2009,"Ġopen":2010,"olved":2011,"tices":2012,"Ġangle":2013,"Ġatomic":2014,"aries":2015,"Ġnetworks":2016,"Ġorbital":2017,"Ġderive":2018,"Ġrole":2019,"Ġtemperatures":2020,"Ġprovides":2021,"Ġdifference":2022,"Ġedge":2023,"Ġhadron":2024,"34":2025,"Ġless":2026,"ects":2027,"Ġgev":2028,"Ġcell":2029,"Ġphases":2030,"Ġnow":2031,"Ġheavy":2032,"Ġeither":2033,"Ġpatter":2034,"raph":2035,"Ġloss":2036,"Ġdev":2037,"Ġdispersion":2038,"Ġlaser":2039,"Ġdel":2040,"Ġuniverse":2041,"Ġcollisions":2042,"Ġdescription":2043,"Ġcalculate":2044,"lected":2045,"Ġnatur":2046,"Ġfocus":2047,"pid":2048,"Ġmaj":2049,"Ġconfir":2050,"Ġrelations":2051,"Ġincreasing":2052,"sp":2053,"Ġentrop":2054,"Ġadd":2055,"Ġspecific":2056,"Ġexistence":2057,"Ġgaussian":2058,"Ġhom":2059,"Ġhard":2060,"Ġenv":2061,"Ġabund":2062,"Ġinterpre":2063,"Ġincrease":2064,"Ġdown":2065,"Ġinvariant":2066,"Ġtel":2067,"Ġsimulation":2068,"nt":2069,"alu":2070,"Ġfund":2071,"iggs":2072,"Ġposi":2073,"cl":2074,"though":2075,"ura":2076,"Ġvac":2077,"ater":2078,"Ġmultiple":2079,"Ġrespect":2080,"Ġextended":2081,"Ġsw":2082,"mod":2083,"Ġresulting":2084,"Ġaff":2085,"Ġide":2086,"duces":2087,"Ġtransm":2088,"Ġele":2089,"Ġsurvey":2090,"Ġhiggs":2091,"Ġforce":2092,"Ġhyper":2093,"omp":2094,"Ġchiral":2095,"iron":2096,"Ġupper":2097,"Ġrelativistic":2098,"ematic":2099,"etric":2100,"Ġmajor":2101,"ok":2102,"32":2103,"Ġgam":2104,"velength":2105,"Ġboson":2106,"Ġexpression":2107,"sy":2108,"Ġalthough":2109,"ova":2110,"70":2111,"rid":2112,"Ġprog":2113,"Ġstatistical":2114,"Ġcool":2115,"mmetric":2116,"Ġinfin":2117,"Ġpropose":2118,"ings":2119,"xt":2120,"Ġconse":2121,"Ġrates":2122,"ins":2123,"Ġphotons":2124,"Ġenviron":2125,"ule":2126,"Ġexplicit":2127,"Ġperformed":2128,"Ġasympt":2129,"Ġsignificantly":2130,"Ġtelesc":2131,"cept":2132,"Ġimple":2133,"Ġpredictions":2134,"Ġil":2135,"li":2136,"Ġconstraints":2137,"Ġtransitions":2138,"Ġbulk":2139,"Ġextern":2140,"Ġcavity":2141,"Ġnote":2142,"Ġelectronic":2143,"taneous":2144,"Ġlik":2145,"Ġrotation":2146,"Ġsplit":2147,"side":2148,"Ġinvestigated":2149,"view":2150,"change":2151,"Ġcomparison":2152,"ern":2153,"mann":2154,"Ġstra":2155,"Ġmagne":2156,"timal":2157,"Ġpath":2158,"rated":2159,"Ġlayer":2160,"Ġcalculation":2161,"Ġdip":2162,"Ġmer":2163,"Ġbecomes":2164,"Ġdop":2165,"Ġstable":2166,"Ġcre":2167,"Ġevalu":2168,"Ġvan":2169,"Ġimplement":2170,"](":2171,"Ġshape":2172,"Ġrelax":2173,"ein":2174,"Ġseen":2175,"ots":2176,"Ġadditional":2177,"Ġcho":2178,"ques":2179,"Ġfundament":2180,"Ġrem":2181,"ible":2182,"ray":2183,"por":2184,"resh":2185,"Ġoptimal":2186,"izing":2187,"Ġsolid":2188,"Ġstep":2189,"Ġcosmic":2190,"ribut":2191,"44":2192,"Ġexcitation":2193,"Ġuncertain":2194,"Ġtur":2195,"quid":2196,"Ġdesign":2197,"Ġwavelength":2198,"Ġacceler":2199,"to":2200,"Ġrepro":2201,"Ġerror":2202,"Ġdiffusion":2203,"Ġexternal":2204,"Ġliquid":2205,"ensities":2206,"do":2207,"Ġarbit":2208,"Ġcalled":2209,"Ġcosmological":2210,"medi":2211,"cs":2212,"ash":2213,"Ġphon":2214,"Ġelectric":2215,"Ġpositive":2216,"Ġmetal":2217,"65":2218,"Ġcaus":2219,"Ġren":2220,"Ġlog":2221,"Ġplanet":2222,"assi":2223,"Ġcr":2224,"Ġincreases":2225,"ased":2226,"Ġproton":2227,"Ġarbitr":2228,"Ġoperator":2229,"Ġest":2230,"Ġsoft":2231,"Ġequival":2232,"Ġcertain":2233,"Ġqcd":2234,"Ġsymmetric":2235,"ck":2236,"anced":2237,"Ġjet":2238,"atisf":2239,"Ġend":2240,"55":2241,"Ġactive":2242,"Ġexchange":2243,"Ġcontinuous":2244,"Ġwaves":2245,"ily":2246,"by":2247,"geb":2248,"48":2249,"Ġavail":2250,"Ġtr":2251,"Ġentropy":2252,"Ġfluid":2253,"Ġgives":2254,"Ġinteresting":2255,"Ġdiscover":2256,"Ġreach":2257,"Ġstring":2258,"Ġcontinuum":2259,"_{":2260,"Ġcarri":2261,"Ġaxis":2262,"nova":2263,"Ġ\"":2264,"47":2265,"Ġsatisf":2266,"Ġdiagram":2267,"Ġ100":2268,"Ġstability":2269,"Ġsuffici":2270,"Ġestimat":2271,"ites":2272,"Ġnegative":2273,"tization":2274,"Ġinteracting":2275,"Ġthresh":2276,"Ġdispl":2277,"Ġreaction":2278,"Ġfundamental":2279,"Ġcontrast":2280,"46":2281,"gc":2282,"Ġtransverse":2283,"Ġelectro":2284,"art":2285,"Ġpredicted":2286,"Ġwhose":2287,"Ġnumbers":2288,"Ġchanges":2289,"atory":2290,"Ġsimpl":2291,"read":2292,"Ġmagnet":2293,"Ġprinci":2294,"wid":2295,"width":2296,"Ġevents":2297,"110":2298,"49":2299,"Ġshock":2300,"Ġelements":2301,"Ġgo":2302,"ynamic":2303,"Ġplasma":2304,"gin":2305,"Ġmeans":2306,"Ġstill":2307,"ogeneous":2308,"uture":2309,"Ġsupernova":2310,"Ġdegree":2311,"Ġ$":2312,"Ġchemical":2313,"Ġfer":2314,"olation":2315,"Ġpreviously":2316,"Ġmade":2317,"Ġmini":2318,"Ġquantit":2319,"ening":2320,"Ġdepends":2321,"Ġperiodic":2322,"Ġens":2323,"Ġextre":2324,"Ġtechnique":2325,"ini":2326,"Ġfuture":2327,"Ġcolor":2328,"75":2329,"Ġcurves":2330,"Ġgeometry":2331,"Ġmust":2332,"Ġhalo":2333,"Ġrapid":2334,"he":2335,"Ġnm":2336,"Ġavailable":2337,"Ġresponse":2338,"Ġtaken":2339,"ablish":2340,"Ġrather":2341,"Ġsus":2342,"Ġamong":2343,"Ġmark":2344,"Ġestablish":2345,"des":2346,"Ġcorrections":2347,"ductivity":2348,"Ġproblems":2349,"Ġsuperconducting":2350,"Ġsugges":2351,"Ġreview":2352,"pped":2353,"Ġproduced":2354,"Ġintegral":2355,"abor":2356,"Ġcompact":2357,"Ġwide":2358,"Ġapplications":2359,"Ġpure":2360,"Ġproj":2361,"bed":2362,"ually":2363,"Ġdriven":2364,"42":2365,"atively":2366,"ision":2367,"Ġsquare":2368,"Ġinflu":2369,"Ġcurve":2370,"Ġslow":2371,"equ":2372,"Ġlens":2373,"assif":2374,"ries":2375,"ticle":2376,"Ġobservation":2377,"Ġevent":2378,"elect":2379,"Ġcontributions":2380,"Ġbasis":2381,"Ġrecon":2382,"Ġrelevant":2383,"Ġillust":2384,"Ġglu":2385,"Ġnuclei":2386,"Ġsequence":2387,"Ġearly":2388,"Ġindex":2389,"Ġtechniques":2390,"Ġfermion":2391,"Ġori":2392,"Ġcoherent":2393,"Ġyear":2394,"mark":2395,"Ġgenerated":2396,"hz":2397,"ki":2398,"Ġconduct":2399,"43":2400,"ighb":2401,"ruction":2402,"Ġmixing":2403,"Ġanalytical":2404,"41":2405,"Ġformal":2406,"Ġclassif":2407,"Ġmath":2408,"Ġrenormal":2409,"Ġtelescope":2410,"its":2411,"Ġneighb":2412,"plo":2413,"Ġphotometr":2414,"ling":2415,"itudes":2416,"Ġfinal":2417,"Ġgravity":2418,"Ġhighly":2419,"Ġagn":2420,"Ġwind":2421,"Ġtor":2422,"Ġell":2423,"iform":2424,"Ġseries":2425,"mediate":2426,"Ġreveal":2427,"Ġprove":2428,"Ġleast":2429,"esis":2430,"stein":2431,"co":2432,"Ġnecess":2433,"Ġoscillations":2434,"til":2435,"Ġcomplete":2436,"Ġngc":2437,"Ġtens":2438,"Ġintensity":2439,"Ġcommon":2440,"most":2441,"Ġoptim":2442,"Ġdeveloped":2443,"Ġdifferential":2444,"Ġalgeb":2445,"ract":2446,"Ġdimensions":2447,"Ġtypical":2448,"Ġdegener":2449,"Ġaccur":2450,"Ġexponential":2451,"57":2452,"Ġdetailed":2453,"Ġradial":2454,"gence":2455,"Ġreduced":2456,"Ġmoreover":2457,"Ġpulse":2458,"berg":2459,"Ġheat":2460,"arg":2461,"Ġvacu":2462,"sic":2463,"Ġconcent":2464,"Ġglobal":2465,"Ġmonte":2466,"Ġoperators":2467,"Ġemer":2468,"Ġprofile":2469,"Ġscenario":2470,"Ġcand":2471,"Ġla":2472,"Ġthreshold":2473,"Ġcarlo":2474,"Ġhor":2475,"ie":2476,"ately":2477,"Ġmicro":2478,"Ġvolum":2479,"Ġassumption":2480,"Ġarbitrary":2481,"no":2482,"iant":2483,"Ġshell":2484,"alle":2485,"Ġgrowth":2486,"Ġhence":2487,"therm":2488,"Ġinvol":2489,"lin":2490,"Ġenvironment":2491,"Ġellip":2492,"ks":2493,"Ġdecays":2494,"Ġagain":2495,"faces":2496,"Ġgl":2497,"Ġspe":2498,"Ġefficiency":2499,"Ġpartial":2500,"Ġvalid":2501,"amp":2502,"Ġdensities":2503,"roscopy":2504,"rim":2505,"izes":2506,"Ġtunnel":2507,"mmetry":2508,"Ġperforman":2509,"band":2510,"tt":2511,"Ġflat":2512,"Ġburst":2513,"Ġhalf":2514,"Ġaddress":2515,"thermore":2516,"of":2517,"Ġblu":2518,"Ġpairs":2519,"Ġsec":2520,"Ġsky":2521,"53":2522,"Ġfurthermore":2523,"Ġbary":2524,"ott":2525,"bs":2526,"56":2527,"Ġinsul":2528,"rie":2529,"Ġthermod":2530,"Ġperform":2531,"Ġfinding":2532,"Ġturb":2533,"Ġasymptotic":2534,"Ġuniform":2535,"Ġemplo":2536,"52":2537,"Ġmev":2538,"51":2539,"Ġvacuum":2540,"Ġprobe":2541,"Ġcandid":2542,"Ġultra":2543,"Ġinput":2544,"Ġcrystal":2545,"wards":2546,"Ġcommun":2547,"form":2548,"ored":2549,"Ġmanif":2550,"Ġinstit":2551,"ides":2552,"allel":2553,"Ġkeyw":2554,"Ġquad":2555,",@":2556,"Ġtarg":2557,"Ġimages":2558,"pton":2559,"Ġep":2560,"Ġrequired":2561,"Ġintroduced":2562,"Ġdirectly":2563,"Ġbest":2564,"Ġview":2565,"58":2566,"Ġhub":2567,"Ġintern":2568,"bi":2569,"Ġelement":2570,"inc":2571,"Ġbu":2572,"Ġintermediate":2573,"Ġrelaxation":2574,"Ġfunctional":2575,"Ġturbul":2576,"ification":2577,"Ġreported":2578,"Ġkeywords":2579,"Ġvariable":2580,"Ġreas":2581,"ld":2582,"Ġact":2583,"Ġlikely":2584,"Ġ12":2585,"Ġques":2586,"Ġlatter":2587,"Ġconven":2588,"Ġdeep":2589,"Ġminimum":2590,"Ġexpect":2591,"go":2592,"Ġcorrect":2593,"Ġgeneralized":2594,"ext":2595,"ta":2596,"Ġsuc":2597,"Ġachiev":2598,"Ġanalyze":2599,"Ġphonon":2600,"Ġpossibility":2601,"Ġsuggests":2602,"Ġright":2603,"Ġbands":2604,"Ġinner":2605,"ath":2606,"Ġneutral":2607,"Ġtypes":2608,"arrow":2609,"ne":2610,"itt":2611,"lation":2612,"Ġrob":2613,"Ġrich":2614,"Ġeas":2615,"ifts":2616,"Ġorient":2617,"cep":2618,"Ġmodul":2619,"Ġperformance":2620,"Ġthick":2621,"Ġinclude":2622,"Ġgraphene":2623,"Ġregular":2624,"59":2625,"mer":2626,"Ġess":2627,"Ġlimits":2628,"Ġproduct":2629,"Ġdenot":2630,"Ġconfiguration":2631,"earch":2632,"cal":2633,"Ġcounter":2634,"Ġholes":2635,"Ġdra":2636,"monic":2637,"Ġmake":2638,"Ġperturbation":2639,"Ġformula":2640,"rang":2641,"Ġindicate":2642,"sip":2643,"Ġexcitations":2644,"Ġinstability":2645,"Ġexperimentally":2646,"ural":2647,"Ġvolume":2648,"54":2649,"Ġnatural":2650,"Ġbreaking":2651,"omial":2652,"Ġgroups":2653,"Ġdetector":2654,"Ġfrequencies":2655,"Ġthin":2656,"Ġequal":2657,"Ġintroduce":2658,"Ġdevi":2659,"Ġparallel":2660,"Ġnam":2661,"ributed":2662,"seud":2663,"Ġcontroll":2664,"Ġresearch":2665,"sions":2666,"Ġcharged":2667,"Ġappears":2668,"mary":2669,"Ġcut":2670,"^{":2671,"Ġstoch":2672,"Ġshift":2673,"Ġunderstanding":2674,"Ġfully":2675,"ording":2676,"Ġexplo":2677,"Ġrequire":2678,"Ġnucleon":2679,"Ġbey":2680,"Ġgeneration":2681,"Ġsamples":2682,"Ġpseud":2683,"Ġdiscrete":2684,"Ġsets":2685,"Ġextract":2686,"Ġtransformation":2687,"Ġbeyond":2688,"Ġaltern":2689,"time":2690,"wn":2691,"Ġanother":2692,"Ġdetermin":2693,"Ġopp":2694,"90":2695,"Ġalmost":2696,"ices":2697,"Ġwhe":2698,"Ġproced":2699,"Ġdissip":2700,"67":2701,"Ġgamma":2702,"Ġarea":2703,"oint":2704,"Ġprocedure":2705,"Ġnumerically":2706,"Ġmar":2707,"Ġinterpret":2708,"Ġfast":2709,"etries":2710,"isms":2711,"Ġlevels":2712,"Ġcontext":2713,"iles":2714,"Ġhot":2715,"Ġcollap":2716,"Ġspecial":2717,"abel":2718,"Ġnext":2719,"Ġprovided":2720,"Ġcover":2721,"Ġaction":2722,"Ġintrin":2723,"ema":2724,"Ġlif":2725,"Ġvariables":2726,"Ġhost":2727,"Ġexamples":2728,"Ġly":2729,"Ġcat":2730,"icon":2731,"Ġspeed":2732,"Ġvary":2733,"Ġhoriz":2734,"Ġsmo":2735,"Ġastro":2736,"vial":2737,"burst":2738,"Ġcorrelated":2739,"Ġidentified":2740,"ducing":2741,"Ġstochastic":2742,"Ġassuming":2743,"Ġmaterials":2744,"Ġapply":2745,"Ġcloud":2746,"Ġtechn":2747,"ibase":2748,"doibase":2749,"Ġratios":2750,"Ġapplication":2751,"Ġimaging":2752,"urity":2753,"Ġcorresponds":2754,"Ġga":2755,"Ġable":2756,"Ġcooling":2757,"Ġside":2758,"Ġrun":2759,"Ġblue":2760,"ii":2761,"Ġsitu":2762,"Ġoccurs":2763,"tiv":2764,"avor":2765,"Ġwhat":2766,"ler":2767,"Ġcontact":2768,"Ġstatistics":2769,"ayers":2770,"ages":2771,"Ġefficient":2772,"Ġobserve":2773,"Ġvanish":2774,"Ġrays":2775,"62":2776,"Ġtheories":2777,"Ġtransmission":2778,"Ġuniversal":2779,"Ġbehaviour":2780,"Ġsystematic":2781,"Ġequivalent":2782,"ention":2783,"Ġbetter":2784,"Ġuseful":2785,"abilities":2786,"raction":2787,"Ġalgebra":2788,"Ġlh":2789,"Ġsite":2790,"Ġatm":2791,"cent":2792,"ortex":2793,"Ġresonant":2794,"page":2795,"Ġbecome":2796,"app":2797,"ound":2798,"Ġinfinite":2799,"Ġwhether":2800,"osite":2801,"Ġaccording":2802,"Ġinfluence":2803,"Ġmechanical":2804,"gether":2805,"den":2806,"64":2807,"Ġapproaches":2808,"na":2809,"Ġdominated":2810,"wh":2811,"Ġnarrow":2812,"Ġestimates":2813,"Ġfactors":2814,"Ġessential":2815,"Ġenhance":2816,"set":2817,":\\":2818,"Ġtake":2819,"Ġimplies":2820,"Ġsubst":2821,"aving":2822,"Ġcoefficients":2823,"Ġcompute":2824,"Ġprofiles":2825,"Ġanisotropy":2826,"Ġestimated":2827,"Ġsmooth":2828,"Ġatmosph":2829,"sh":2830,"Ġtev":2831,"Ġgu":2832,"Ġmap":2833,"Ġyears":2834,"Ġchannels":2835,"Ġwall":2836,"rams":2837,"63":2838,"Ġdirac":2839,"Ġgiant":2840,"Ġcorrespond":2841,"Ġcoord":2842,"Ġsolit":2843,"Ġtensor":2844,"Ġfirstpage":2845,"Ġcharacterized":2846,"Ġconve":2847,"Ġvortex":2848,"uracy":2849,"ca":2850,"Ġrelatively":2851,"Ġreason":2852,"Ġever":2853,"Ġminimal":2854,"Ġfill":2855,"Ġpic":2856,"onic":2857,"Ġformed":2858,"ised":2859,"Ġdepart":2860,"Ġgradi":2861,"Ġsingular":2862,"Ġanomal":2863,"ched":2864,"Ġexcited":2865,"Ġox":2866,"Ġbefore":2867,"Ġspectroscopy":2868,"Ġaccuracy":2869,"Ġfollows":2870,"000":2871,"Ġland":2872,"Ġcoul":2873,"cules":2874,"Ġprom":2875,"Ġimprove":2876,"Ġyields":2877,"66":2878,"Ġtogether":2879,"Ġpolyn":2880,"owled":2881,"Ġcollision":2882,"Ġemit":2883,"Ġdistin":2884,"Ġleft":2885,"Ġlocalized":2886,"eck":2887,"Ġgen":2888,"Ġidentify":2889,"Ġsynch":2890,"Ġcoulomb":2891,"Ġthough":2892,"68":2893,"Ġdipole":2894,"Ġmetallicity":2895,"eric":2896,"Ġtowards":2897,"tities":2898,"Ġmight":2899,"Ġcouplings":2900,"Ġho":2901,"Ġconser":2902,"61":2903,"Ġtunneling":2904,"Ġclos":2905,"Ġprinciple":2906,"ense":2907,"Ġcombined":2908,"Ġspherical":2909,"Ġindeed":2910,"Ġpost":2911,"ceed":2912,"Ġensem":2913,"Ġweight":2914,"Ġrepresentation":2915,"Ġhorizon":2916,"instein":2917,"Ġanalytic":2918,"Ġsensitive":2919,"Ġsensitivity":2920,"Ġseparation":2921,"Ġwr":2922,"Ġkev":2923,"Ġpers":2924,"acs":2925,"Ġpolynomial":2926,"ee":2927,"Ġextension":2928,"Ġaut":2929,"Ġvariation":2930,"85":2931,"Ġenhanced":2932,"87":2933,"Ġrobust":2934,"Ġcurv":2935,"Ġpolarized":2936,"igned":2937,"Ġscience":2938,"Ġenc":2939,"69":2940,"Ġanalog":2941,"Ġtaking":2942,"Ġhydrod":2943,"ob":2944,"Ġproduce":2945,"Ġtarget":2946,"Ġintrinsic":2947,"Ġeinstein":2948,"ingu":2949,"Ġmole":2950,"riz":2951,"Ġlimited":2952,"Ġstatic":2953,"Ġfermions":2954,"Ġsignature":2955,"Ġgraphs":2956,"rees":2957,"amb":2958,"Ġlag":2959,"electric":2960,"Ġimpact":2961,"Ġyoun":2962,"Ġdot":2963,"Ġimage":2964,"Ġdiffic":2965,"Ġmolecules":2966,"Ġouter":2967,"kn":2968,"Ġcyc":2969,"Ġmagnetization":2970,"Ġvariations":2971,"Ġpattern":2972,"lective":2973,"Ġremains":2974,"Ġ15":2975,"gment":2976,"Ġelastic":2977,"Ġpropagation":2978,"Ġ.-":2979,"Ġsimultaneous":2980,"Ġlhc":2981,"ises":2982,"Ġtru":2983,"Ġindicates":2984,"Ġsuit":2985,"Ġrise":2986,"Ġnovel":2987,"Ġ30":2988,"Ġpropor":2989,"tition":2990,"Ġelectromagnetic":2991,"inguish":2992,"Ġ?":2993,"hom":2994,"sm":2995,"Ġmeson":2996,"Ġcoefficient":2997,"Ġdeco":2998,"71":2999,"Ġsplitting":3000,"Ġconnected":3001,"Ġmaxi":3002,"Ġtreat":3003,"Ġinside":3004,"Ġinterfer":3005,"Ġring":3006,"Ġgreen":3007,"Ġsurfaces":3008,"Ġformalism":3009,"stellar":3010,"ght":3011,"Ġtool":3012,"Ġcurvature":3013,"Ġpub":3014,"bly":3015,"alit":3016,"Ġinterference":3017,"ynamics":3018,"Ġastrophys":3019,"Ġcode":3020,"Ġrestric":3021,"Ġdepending":3022,"Ġaccurate":3023,"pr":3024,"fig":3025,"bon":3026,"Ġdifferences":3027,"Ġeigenval":3028,"ety":3029,"Ġamplitudes":3030,"Ġage":3031,"rices":3032,"Ġkinetic":3033,"Ġnucleus":3034,"Ġcoordin":3035,"_.":3036,"Ġsemi":3037,"Ġwhereas":3038,"Ġstri":3039,"Ġclosed":3040,"Ġnecessary":3041,"gan":3042,"Ġforming":3043,"Ġdepartment":3044,"Ġabundance":3045,"Ġpump":3046,"Ġdegrees":3047,"ches":3048,"Ġmag":3049,"77":3050,"Ġdynamic":3051,"Ġplot":3052,"Ġunderlying":3053,"Ġconfigurations":3054,"ways":3055,"Ġcha":3056,"Ġinterface":3057,"Ġspins":3058,"ify":3059,"Ġcold":3060,"Ġdistinct":3061,"Ġenough":3062,"yr":3063,"88":3064,"Ġfreed":3065,"bol":3066,"Ġcru":3067,"Ġwal":3068,"Ġremark":3069,"Ġuv":3070,"Ġradiative":3071,"Ġcombination":3072,"Ġpredict":3073,"Ġlepton":3074,"Ġsi":3075,"Ġstre":3076,"Ġsubject":3077,"Ġbuil":3078,"Ġshar":3079,"Ġpotentials":3080,"Ġharmonic":3081,"Ġthir":3082,"Ġphenomena":3083,"Ġstation":3084,"frac":3085,"Ġanalyzed":3086,"la":3087,"Ġones":3088,"Ġprotoc":3089,"Ġpacs":3090,"Ġconnection":3091,"Ġbal":3092,"flow":3093,"Ġhall":3094,"ned":3095,"oring":3096,"Ġmid":3097,"Ġmaps":3098,"ument":3099,"Ġtriang":3100,"Ġvir":3101,"Ġsuccess":3102,"79":3103,"Ġbias":3104,"Ġgluon":3105,"Ġfreedom":3106,"Ġinternal":3107,"Ġ2010":3108,"Ġwor":3109,"Ġwhite":3110,"Ġdemonstrated":3111,"Ġ{":3112,"cial":3113,"Ġhydrogen":3114,"inary":3115,"Ġinstead":3116,"Ġproof":3117,"Ġqualit":3118,"Ġastron":3119,"Ġlife":3120,"rev":3121,"Ġconsidering":3122,"Ġpion":3123,"Ġrequires":3124,"Ġbounds":3125,"Ġassume":3126,"Ġexclu":3127,"Ġdetails":3128,"uds":3129,"Ġmetric":3130,"inal":3131,"Ġmodified":3132,"73":3133,"72":3134,"78":3135,"Ġexplore":3136,"Ġearl":3137,"Ġmill":3138,"Ġassumed":3139,"Ġarray":3140,"Ġvolt":3141,"Ġmis":3142,"Ġsections":3143,"Ġsupplement":3144,"Ġexcess":3145,"Ġparton":3146,"Ġsil":3147,"Ġhaving":3148,"76":3149,"Ġcollid":3150,"Ġdominant":3151,"Ġexisting":3152,"Ġevery":3153,"Ġprotocol":3154,"Ġbinaries":3155,"Ġphoto":3156,"Ġconclude":3157,"Ġquantities":3158,"Ġfam":3159,"ama":3160,"Ġdual":3161,"Ġquestion":3162,"Ġachieved":3163,"ulations":3164,"Ġclearly":3165,"Ġobservational":3166,"Ġrenormalization":3167,"82":3168,"Ġmorph":3169,"quences":3170,"Ġpicture":3171,"Ġdefine":3172,"Ġperturbative":3173,"Ġreconst":3174,"Ġaverag":3175,"hip":3176,"back":3177,"74":3178,"Ġsupersy":3179,"Ġprecision":3180,"rm":3181,"Ġasymmetry":3182,"Ġexamine":3183,"1103":3184,"Ġdiagonal":3185,"ures":3186,"ras":3187,"kes":3188,"ferred":3189,"Ġcomputation":3190,"Ġevol":3191,"Ġtraject":3192,"Ġerrors":3193,"Ġ14":3194,"eady":3195,"Ġresonances":3196,"Ġconfirm":3197,"Ġanomalous":3198,"Ġresolved":3199,"Ġselected":3200,"Ġnearly":3201,"Ġkinematic":3202,"}}":3203,"Ġdiver":3204,"Ġrotating":3205,"Ġdistances":3206,"Ġnor":3207,"com":3208,"Ġactivity":3209,"Ġdecreases":3210,"Ġprac":3211,"Ġpur":3212,"Ġcollapse":3213,"Ġhist":3214,"ters":3215,"Ġdisks":3216,"Ġplace":3217,"Ġreduction":3218,"Ġmatrices":3219,"Ġblock":3220,"89":3221,"Ġapproximately":3222,"Ġembed":3223,"Ġliter":3224,"Ġpairing":3225,"Ġacross":3226,"ants":3227,"Ġmm":3228,"Ġkm":3229,"ensive":3230,"Ġantifer":3231,"Ġsites":3232,"Ġclouds":3233,"fect":3234,"Ġmechanisms":3235,"Ġsatur":3236,"Ġyoung":3237,"Ġplay":3238,"Ġgenerally":3239,"Ġcas":3240,"Ġpeaks":3241,"Ġcd":3242,"Ġswit":3243,"Ġoutput":3244,"Ġalgorithms":3245,"Ġrealistic":3246,"Ġabsence":3247,"reg":3248,"noop":3249,"Ġexhibits":3250,"diab":3251,"wise":3252,"Ġdense":3253,"Ġemploy":3254,"pri":3255,"Ġearlier":3256,"Ġsteady":3257,"Ġupon":3258,"tz":3259,"Ġquen":3260,"arent":3261,"Ġfeed":3262,"Ġinequ":3263,"Ġinstitute":3264,"Ġliterature":3265,"Ġ11":3266,"Ġcapac":3267,"ractive":3268,"Ġalways":3269,"Ġcontains":3270,"ready":3271,"84":3272,"Ġstrate":3273,"Ġalready":3274,"part":3275,"Ġappropri":3276,"Ġrepl":3277,"Ġdepth":3278,"Ġquite":3279,"Ġnamely":3280,"flu":3281,"Ġcorrection":3282,"ident":3283,"Ġtempor":3284,"Ġbinding":3285,"Ġexponent":3286,"Ġcp":3287,"Ġexplained":3288,"rs":3289,"Ġgeometric":3290,"Ġbarri":3291,"Ġod":3292,"Ġseem":3293,"Ġsect":3294,"Ġproperty":3295,"oper":3296,"ially":3297,"Ġdifficult":3298,"Ġlast":3299,"Ġexactly":3300,"Ġmac":3301,"Ġpack":3302,"Ġpol":3303,"mmetries":3304,"Ġconventional":3305,"Ġorth":3306,"Ġdm":3307,"Ġexists":3308,"Ġlayers":3309,"quently":3310,"Ġnodes":3311,"pec":3312,"Ġret":3313,"81":3314,"Ġslight":3315,"Ġcoherence":3316,"Ġclassification":3317,"Ġstructural":3318,"Ġthird":3319,"Ġgain":3320,"Ġinverse":3321,"Ġcomputed":3322,"way":3323,"Ġiss":3324,"Ġyield":3325,"uth":3326,"Ġ2011":3327,"Ġprimary":3328,"Ġcondensate":3329,"Ġmicrow":3330,"ograph":3331,"Ġplanets":3332,"Ġpass":3333,"Ġsupported":3334,"Ġmil":3335,"aced":3336,"Ġhomogeneous":3337,"Ġions":3338,"Ġsoc":3339,"Ġrul":3340,"Ġprediction":3341,"Ġ50":3342,"Ġ2012":3343,"olated":3344,"tex":3345,"Ġentangled":3346,"Ġperm":3347,"uk":3348,"Ġstationary":3349,"Ġconject":3350,"Ġuncertainty":3351,"Ġ13":3352,"Ġlowest":3353,"allen":3354,"Ġcharacteristics":3355,"Ġdefini":3356,"tire":3357,"ster":3358,"yl":3359,"Ġhyb":3360,"ocities":3361,"Ġproportional":3362,"Ġasp":3363,"Ġideal":3364,"gu":3365,"Ġcoinc":3366,"be":3367,"Ġvelocities":3368,"Ġpan":3369,"uli":3370,"Ġbasic":3371,"Ġthermodynamic":3372,"Ġcatal":3373,"Ġcompletely":3374,"physrev":3375,"Ġpulses":3376,"Ġeng":3377,"83":3378,"Ġadj":3379,"Ġallowed":3380,"Ġanisotropic":3381,"Ġconductance":3382,"Ġoften":3383,"Ġbose":3384,"Ġfamily":3385,"Ġentire":3386,"Ġoscillation":3387,"86":3388,"Ġspecies":3389,"off":3390,"Ġbra":3391,"Ġselection":3392,"Ġdistinguish":3393,"Ġversion":3394,"Ġadiab":3395,"Ġshear":3396,"Ġadv":3397,"Ġsuggested":3398,"Ġchallen":3399,"Ġglass":3400,"Ġsubstan":3401,"Ġsun":3402,"Ġconstruction":3403,"sch":3404,"Ġjust":3405,"Ġdecrease":3406,"Ġamount":3407,"Ġunique":3408,"sing":3409,"Ġtail":3410,"Ġrough":3411,"Ġspectroscopic":3412,"use":3413,"Ġyet":3414,"oh":3415,"Ġagainst":3416,"Ġadap":3417,"Ġpatterns":3418,"Ġmaximal":3419,"99":3420,"Ġlocated":3421,"ares":3422,"Ġsat":3423,"Ġoccup":3424,"olds":3425,"Ġcolum":3426,"Ġdiagrams":3427,"Ġvarying":3428,"Ġwater":3429,"Ġtakes":3430,"Ġmicrowave":3431,"da":3432,"Ġcomparable":3433,"Ġmoments":3434,"Ġiii":3435,"thm":3436,"ley":3437,"Ġshowing":3438,".@":3439,"pir":3440,"Ġcosmology":3441,"Ġvariety":3442,"Ġcriter":3443,"fluid":3444,"ines":3445,"Ġresi":3446,"Ġunst":3447,"Ġcollective":3448,"Ġensemble":3449,"ou":3450,"ering":3451,"Ġgate":3452,"Ġker":3453,"Ġdevice":3454,"cepti":3455,"Ġjets":3456,"Ġestimation":3457,"Ġgradient":3458,"Ġtrivial":3459,"Ġsufficient":3460,"Ġperturbations":3461,"Ġneutrinos":3462,"Ġorders":3463,"Ġdecomp":3464,"land":3465,"Ġrule":3466,"100":3467,"Ġjunction":3468,"Ġturn":3469,"Ġste":3470,"Ġchoice":3471,"Ġoutflow":3472,"Ġconstructed":3473,"Ġcompan":3474,"ez":3475,"arities":3476,"owledge":3477,"function":3478,"Ġsubstantial":3479,"opes":3480,"ino":3481,"Ġvariability":3482,"Ġrelationship":3483,"Ġsuscepti":3484,"Ġtrue":3485,"Ġfitting":3486,"Ġsufficiently":3487,"Ġorbits":3488,"af":3489,"Ġcapture":3490,"Ġdamp":3491,"Ġperfect":3492,"Ġconsists":3493,"Ġtypically":3494,"Ġdelay":3495,"Ġlater":3496,"hil":3497,"Ġinterpretation":3498,"Ġacceleration":3499,"Ġmicroscopic":3500,"Ġimplications":3501,"Ġauth":3502,"Ġvoltage":3503,"Ġferromagnetic":3504,"Ġachie":3505,"Ġphenomenon":3506,"Ġhyp":3507,"Ġconcept":3508,"Ġcircular":3509,"Ġisotrop":3510,"Ġabundances":3511,"05":3512,"Ġic":3513,"Ġmakes":3514,"dimension":3515,"left":3516,"Ġrepul":3517,"Ġmixed":3518,"Ġfive":3519,"Ġ16":3520,"Ġoriginal":3521,"Ġconductivity":3522,"Ġtriple":3523,"ken":3524,"Ġaim":3525,"Ġincludes":3526,"rief":3527,"Ġspiral":3528,"Ġexplicitly":3529,"ga":3530,"Ġbaryon":3531,"Ġdescribes":3532,"Ġconsequence":3533,"ancy":3534,"Ġbrief":3535,"itten":3536,"Ġcontrolled":3537,"Ġsignals":3538,"Ġinflation":3539,"Ġexpand":3540,"Ġenhancement":3541,"az":3542,"oma":3543,"omorph":3544,"Ġcomputational":3545,"Ġdistributed":3546,"vari":3547,"Ġdash":3548,"itz":3549,"Ġionization":3550,"Ġber":3551,"Ġhu":3552,"Ġdegenerate":3553,"Ġtemporal":3554,"Ġlandau":3555,"Ġobservables":3556,"Ġturbulence":3557,"ah":3558,"ski":3559,"Ġsetting":3560,"Ġappropriate":3561,"Ġinhom":3562,"Ġextrem":3563,"Ġlore":3564,"Ġflows":3565,"Ġlonger":3566,"Ġoverall":3567,"Ġearth":3568,"loc":3569,"Ġprim":3570,"Ġsf":3571,"roup":3572,"Ġimproved":3573,"Ġconstraint":3574,"Ġneeded":3575,"ior":3576,"Ġlabor":3577,"Ġmoving":3578,"Ġphotometric":3579,"Ġastronom":3580,"Ġempir":3581,"Ġfeedback":3582,"Ġvib":3583,"Ġtransi":3584,"Ġsuperfluid":3585,"Ġimpurity":3586,"Ġhelp":3587,"Ġvisc":3588,"Ġconjecture":3589,"Ġcomplexity":3590,"onical":3591,"osen":3592,"Ġminim":3593,"Ġget":3594,"Ġsym":3595,"Ġkpc":3596,"Ġincreased":3597,"Ġmechanics":3598,"Ġclasses":3599,"Ġbon":3600,"Ġdim":3601,"Ġsynth":3602,"Ġfac":3603,"nihil":3604,"Ġparticularly":3605,"Ġpopulations":3606,"izations":3607,"Ġbrightness":3608,"hood":3609,"Ġcaused":3610,"Ġbol":3611,"Ġcircum":3612,"Ġconcentration":3613,"isation":3614,"Ġstress":3615,"Ġadvant":3616,"Ġnearby":3617,"Ġbosons":3618,"Ġinver":3619,"Ġintegrated":3620,"Ġpulsar":3621,"oding":3622,"ared":3623,"Ġrh":3624,"Ġincor":3625,"Ġsubse":3626,"ierarch":3627,"dimensional":3628,"Ġneb":3629,"aligned":3630,"//":3631,"Ġtrap":3632,"Ġapparent":3633,",\\":3634,"Ġhierarch":3635,"Ġdevices":3636,"pro":3637,"acy":3638,"Ġespec":3639,"Ġchosen":3640,"Ġzh":3641,"Ġps":3642,"Ġrevers":3643,"label":3644,"Ġquarks":3645,"Ġconstants":3646,"Ġsetup":3647,"Ġespecially":3648,"Ġcarried":3649,"Ġ60":3650,"Ġrepresents":3651,"ests":3652,"Ġconvergence":3653,"Ġslope":3654,"elastic":3655,"Ġspon":3656,"://":3657,"ana":3658,"Ġhtt":3659,"Ġcompound":3660,"Ġ2008":3661,"Ġdoping":3662,"Ġlate":3663,"Ġconstit":3664,"Ġvertex":3665,"Ġavoid":3666,"Ġestablished":3667,"Ġredshifts":3668,"Ġlogari":3669,"Ġodd":3670,"phas":3671,"Ġchains":3672,"Ġheating":3673,"Ġrecover":3674,"Ġannihil":3675,"Ġquasars":3676,"Ġexpressions":3677,"Ġfain":3678,"Ġspontaneous":3679,"Ġviolation":3680,"Ġsolve":3681,"Ġcooper":3682,"Ġbott":3683,"arily":3684,"Ġquantif":3685,"Ġcarbon":3686,"ls":3687,"Ġusual":3688,"Ġmemory":3689,"Ġsharp":3690,"Ġforces":3691,"Ġans":3692,"Ġmotiv":3693,"Ġimportance":3694,"air":3695,"ale":3696,"Ġslightly":3697,"Ġsatell":3698,"Ġhi":3699,"Ġspatially":3700,"Ġunstable":3701,"gal":3702,"Ġsix":3703,"Ġsampl":3704,"Ġradii":3705,"Ġlocalization":3706,"orts":3707,"Ġregimes":3708,"Ġemphas":3709,"Ġqubits":3710,"Ġargue":3711,"Ġuncertainties":3712,"bran":3713,"Ġrig":3714,"Ġordered":3715,"particle":3716,"Ġpc":3717,"}{":3718,"Ġher":3719,"Ġquality":3720,"Ġgeneric":3721,"Ġdwarfs":3722,"Ġeasily":3723,"Ġdissipation":3724,"Ġhttp":3725,")@":3726,"Ġadiabatic":3727,"Ġdashed":3728,"Ġorgan":3729,"Ġlie":3730,"Ġflavor":3731,"Ġcomparing":3732,"Ġseparated":3733,"Ġvor":3734,"Ġtrig":3735,"Ġlattices":3736,"Ġmir":3737,"Ġsurveys":3738,"Ġabsol":3739,"Ġmodeling":3740,"Ġopposite":3741,"Ġ2009":3742,"Ġsuppressed":3743,"ba":3744,"Ġutil":3745,"Ġinvolving":3746,"Ġextremely":3747,"Ġdescribing":3748,"Ġtree":3749,"Ġhubble":3750,"Ġsecondary":3751,"Ġweakly":3752,"Ġsuitable":3753,"Ġshe":3754,"inement":3755,"Ġmultipl":3756,"Ġinstr":3757,"mc":3758,"ube":3759,"_{\\":3760,"Ġtoo":3761,"Ġreflection":3762,"Ġneighbor":3763,"Ġdiscovered":3764,"arest":3765,"Ġsuperconductivity":3766,"Ġviol":3767,"Ġrotational":3768,"Ġgreat":3769,"rical":3770,"awa":3771,"Ġcomputer":3772,"ntz":3773,"ribute":3774,"Ġcatalog":3775,"Ġdiscovery":3776,"Ġsubs":3777,"(\\":3778,"let":3779,"Ġforward":3780,"95":3781,"Ġanalytically":3782,"Ġlorentz":3783,"Ġising":3784,"Ġreli":3785,"Ġreproduce":3786,"Ġinsulator":3787,"Ġadop":3788,"igu":3789,"ogen":3790,"Ġ^":3791,"Ġengine":3792,"Ġinterval":3793,"Ġ2013":3794,"Ġcycle":3795,"bles":3796,"Ġhypoth":3797,"Ġsemicon":3798,"Ġghz":3799,"tized":3800,"times":3801,"Ġfractional":3802,"Ġparity":3803,"Ġedges":3804,"pler":3805,"Ġsurround":3806,"Ġapplying":3807,"Ġisotropic":3808,"91":3809,"Ġmathema":3810,"Ġbond":3811,"Ġdriving":3812,"Ġscenarios":3813,"this":3814,"Ġforms":3815,"Ġmodulation":3816,"Ġapproximate":3817,"Ġoscillator":3818,"Ġmaking":3819,"Ġwhole":3820,"Ġstarting":3821,"Ġdetermination":3822,"Ġfron":3823,"eli":3824,".,":3825,"enberg":3826,"Ġschemes":3827,"Ġlongitud":3828,"Ġsemiconduct":3829,"mat":3830,"bert":3831,"Ġcandidates":3832,"lap":3833,"Ġonto":3834,"Ġstrain":3835,"ores":3836,"Ġbursts":3837,"Ġcalib":3838,"Ġphotometry":3839,"Ġcandidate":3840,"Ġcolumn":3841,"Ġquantitative":3842,"Ġsuccessful":3843,"Ġasymmetric":3844,"Ġalternative":3845,"Ġfluctuation":3846,"Ġbarrier":3847,"rot":3848,"Ġmetallic":3849,"Ġsector":3850,"pi":3851,"Ġhadronic":3852,"Ġstabil":3853,"93":3854,"Ġnearest":3855,"Ġincluded":3856,"ula":3857,"cing":3858,"idel":3859,"Ġce":3860,"Ġger":3861,"kov":3862,"Ġfilter":3863,"Ġcodes":3864,"Ġarch":3865,"Ġreference":3866,"Ġresponsible":3867,"Ġprecise":3868,"ometric":3869,"osi":3870,"Ġunderstood":3871,"Ġprogram":3872,"Ġlogarithm":3873,"Ġwin":3874,"Ġtreatment":3875,"Ġpreser":3876,"uments":3877,"Ġusually":3878,"Ġbr":3879,"Ġmeasures":3880,"Ġwavegu":3881,"ker":3882,"Ġsuppression":3883,"Ġlear":3884,"Ġtransform":3885,"Ġbrown":3886,"Ġopt":3887,"Ġidentical":3888,"Ġplanetary":3889,"Ġclustering":3890,"92":3891,"ai":3892,"Ġcrystals":3893,"Ġarticle":3894,"Ġsinglet":3895,"Ġreflect":3896,"Ġtight":3897,"Ġvers":3898,"Ġcrucial":3899,"ited":3900,"icular":3901,"Ġbranch":3902,"96":3903,"Ġmn":3904,"Ġ25":3905,"Ġdetectors":3906,"Ġdirections":3907,"Ġpen":3908,"fs":3909,"wave":3910,"Ġzone":3911,"Ġ40":3912,"Ġarise":3913,"Ġsupernovae":3914,"Ġempirical":3915,"eta":3916,"Ġsituation":3917,"Ġgenerate":3918,"Ġsimulated":3919,"group":3920,"Ġdur":3921,"Ġscre":3922,"parti":3923,"eless":3924,"lig":3925,"Ġgrb":3926,"Ġoptimization":3927,"Ġfourier":3928,"Ġpanel":3929,"Ġglobular":3930,"Ġachieve":3931,"98":3932,"pite":3933,"Ġdeformation":3934,"plan":3935,"Ġspecif":3936,"Ġconfirmed":3937,"Ġabsolute":3938,"94":3939,"Ġwar":3940,"Ġnever":3941,"Ġaffect":3942,"Ġcomposition":3943,"Ġpoor":3944,"Ġincorpor":3945,"Ġaveraged":3946,"Ġdiscussion":3947,"rangian":3948,"bo":3949,"Ġfail":3950,".-":3951,"Ġknowledge":3952,"Ġsens":3953,"Ġwords":3954,"Ġitself":3955,"oidal":3956,"Ġaway":3957,"Ġcanonical":3958,"Ġtimesc":3959,"pendicular":3960,"Ġrece":3961,"Ġperpendicular":3962,"Ġtheoretically":3963,"Ġlensing":3964,"Ġlagrangian":3965,"Ġvirt":3966,"ulated":3967,"iting":3968,"Ġpositions":3969,"Ġ05":3970,"Ġconclusion":3971,"Ġdone":3972,"Ġmut":3973,"Ġfits":3974,"97":3975,"Ġcommunication":3976,"Ġsimultaneously":3977,"Ġdisordered":3978,"Ġproject":3979,"Ġfragment":3980,"magnetic":3981,"Ġbranching":3982,"Ġillustrate":3983,"Ġrules":3984,"Ġspaces":3985,"Ġsubstr":3986,"Ġnaturally":3987,"Ġlongitudinal":3988,"Ġ2007":3989,"Ġcost":3990,"Ġprojection":3991,"Ġiter":3992,"Ġdisplay":3993,"ratic":3994,"Ġcomputing":3995,"ont":3996,"Ġconfined":3997,"Ġelliptical":3998,"Ġsuperconductors":3999,"Ġmach":4000,"Ġsusceptibility":4001,"Ġtid":4002,"Ġfindings":4003,"Ġsense":4004,"Ġfr":4005,"Ġprote":4006,"Ġbounded":4007,"Ġtrapped":4008,"Ġreduce":4009,"lat":4010,"Ġded":4011,"Ġdil":4012,"Ġparts":4013,"Ġindicating":4014,"Ġsphere":4015,"eq":4016,"rel":4017,"ometer":4018,"Ġmainly":4019,"Ġcombin":4020,"jection":4021,"Ġstage":4022,"Ġconstrain":4023,"Ġdevelopment":4024,"Ġthickness":4025,"Ġbh":4026,"Ġdespite":4027,"Ġdefinition":4028,"Ġlaboratory":4029,"Ġbottom":4030,"Ġobservable":4031,"ape":4032,"Ġresidu":4033,"Ġexplan":4034,"Ġgover":4035,"Ġworld":4036,"ights":4037,"Ġunitary":4038,"like":4039,"Ġusa":4040,"Ġsizes":4041,"Ġgreater":4042,"Ġprocessing":4043,"Ġextin":4044,"ogonal":4045,"Ġreco":4046,"01":4047,"ued":4048,"Ġspread":4049,"Ġresis":4050,"Ġtrend":4051,"Ġcontaining":4052,"Ġisolated":4053,"ug":4054,"Ġremn":4055,"Ġconserv":4056,"Ġspan":4057,"Ġ2006":4058,"Ġtopology":4059,"Ġinterstellar":4060,"Ġevolutionary":4061,"Ġpurp":4062,"Ġmixture":4063,"tific":4064,"Ġdest":4065,"Ġoffer":4066,"Ġms":4067,"Ġads":4068,"Ġembedded":4069,"Ġantiferromagnetic":4070,"org":4071,"Ġsuperconductor":4072,"non":4073,"Ġ21":4074,"Ġcmb":4075,"Ġimplementation":4076,"icated":4077,"Ġmesons":4078,"Ġreveals":4079,"graph":4080,"Ġexceed":4081,"Ġallowing":4082,"pa":4083,"Ġcharacterize":4084,"Ġluminous":4085,"Ġcub":4086,"Ġinelastic":4087,"Ġenvelop":4088,"idden":4089,"Ġeigenvalues":4090,"Ġpd":4091,"Ġinsi":4092,"Ġrapidly":4093,"Ġcollabor":4094,"Ġdig":4095,"Ġconstrained":4096,"Ġcircu":4097,"Ġstarburst":4098,"Ġcapacity":4099,"ire":4100,"Ġcrystall":4101,"ply":4102,"Ġspacetime":4103,"Ġparam":4104,"ica":4105,"Ġneglig":4106,"Ġassumptions":4107,"Ġnebula":4108,"fe":4109,"Ġoverlap":4110,"eger":4111,"Ġexcell":4112,"Ġhopping":4113,"Ġwire":4114,"Ġsuggesting":4115,"Ġsynchron":4116,"02":4117,"queez":4118,"formal":4119,"Ġrealized":4120,"Ġaccoun":4121,"Ġreactions":4122,"cm":4123,"ze":4124,"Ġsolving":4125,"Ġbroken":4126,"Ġmolecule":4127,"Ġ18":4128,"Ġlargest":4129,"Ġphenomenological":4130,"Ġism":4131,"aps":4132,"Ġdiffuse":4133,"Ġinitially":4134,"Ġattention":4135,"Ġmirr":4136,"Ġorientation":4137,"Ġspecifically":4138,"Ġdoped":4139,"Ġextracted":4140,"Ġplanck":4141,"Ġeigenst":4142,"Ġcells":4143,"Ġsqueez":4144,"Ġchaotic":4145,"istance":4146,"Ġbath":4147,"Ġmeasuring":4148,"Ġorthogonal":4149,"ours":4150,"ucl":4151,"Ġdefects":4152,"Ġvertical":4153,"Ġevaluate":4154,"Ġ2000":4155,"Ġlack":4156,"Ġbox":4157,"bl":4158,"Ġvertices":4159,"=\"":4160,"Ġnode":4161,"Ġordering":4162,"bard":4163,"arse":4164,"Ġpossibly":4165,"Ġmathematical":4166,"Ġdecomposition":4167,"Ġmoder":4168,"Ġepoch":4169,"Ġdielectric":4170,"Ġtoward":4171,"Ġhydrodynamic":4172,"br":4173,"Ġextinction":4174,"Ġarising":4175,"Ġna":4176,"Ġcheck":4177,"Ġtests":4178,"Ġoptically":4179,"Ġphotonic":4180,"Ġoperation":4181,"Ġhubbard":4182,"Ġsingularity":4183,"Ġplate":4184,"Ġpolymer":4185,"Ġbor":4186,"itted":4187,"Ġapplic":4188,"Ġfilm":4189,"Ġbeams":4190,"Ġcrossover":4191,"Ġrare":4192,"Ġmajorana":4193,"Ġtrajectories":4194,"Ġlocation":4195,"Ġmonit":4196,"Ġdots":4197,"Ġinteger":4198,"Ġoptics":4199,"Ġconvex":4200,"ysi":4201,"Ġ17":4202,"acing":4203,"Ġ24":4204,"Ġinvestigation":4205,"Ġannihilation":4206,"Ġfall":4207,"Ġdisplace":4208,"gers":4209,"Ġextreme":4210,"isenberg":4211,"Ġcontent":4212,"Ġdeviation":4213,"Ġstudying":4214,"Ġia":4215,"Ġarises":4216,"Ġquadratic":4217,"del":4218,"Ġidea":4219,"Ġsupersymmetric":4220,"Ġdays":4221,"Ġmapping":4222,"Ġfore":4223,"Ġplanar":4224,"Ġfilling":4225,"Ġtidal":4226,"atible":4227,"Ġformulation":4228,"herence":4229,"Ġexpressed":4230,"Ġsuperp":4231,"Ġwavelengths":4232,"Ġpublish":4233,"Ġeu":4234,"imeter":4235,"Ġ2005":4236,"Ġlinearly":4237,"Ġcurrently":4238,"Ġcu":4239,"range":4240,"Ġhalos":4241,"Ġmonot":4242,"Ġevaluated":4243,"ids":4244,"ith":4245,"osp":4246,"Ġsymmetries":4247,"Ġworks":4248,"ured":4249,"dss":4250,"Ġinterpreted":4251,"Ġpb":4252,"Ġread":4253,"Ġexponents":4254,"Ġwritten":4255,"ilities":4256,"Ġrepe":4257,"Ġexcellent":4258,"Ġheisenberg":4259,"Ġraman":4260,"Ġnegligible":4261,"quark":4262,"Ġcollider":4263,"Ġhybrid":4264,"Ġturbulent":4265,"rence":4266,"Ġpast":4267,"rents":4268,"Ġundergo":4269,"galactic":4270,"Ġgerman":4271,"Ġmacroscopic":4272,"Ġfaint":4273,"Ġsolved":4274,"Ġincom":4275,"Ġhypothesis":4276,"tima":4277,"Ġtable":4278,"rup":4279,"Ġstream":4280,"Ġconsisting":4281,"Ġattractive":4282,"Ġquasar":4283,"Ġstat":4284,"Ġbriefly":4285,"Ġcompton":4286,"Ġsubt":4287,"Ġintegration":4288,"Ġul":4289,"aves":4290,"Ġstronger":4291,"Ġtwist":4292,"Ġdamping":4293,"Ġadm":4294,".[":4295,"ital":4296,"Ġlitt":4297,"Ġproviding":4298,"Ġabel":4299,"Ġoxy":4300,"quent":4301,"Ġangles":4302,"gra":4303,"Ġkin":4304,")-":4305,"Ġfru":4306,"vent":4307,"Ġtransient":4308,"kin":4309,"ridge":4310,"Ġsdss":4311,"Ġni":4312,"Ġvic":4313,"endi":4314,"ibility":4315,"ologies":4316,"iss":4317,"Ġdecreasing":4318,"Ġreduces":4319,"Ġcombining":4320,"Ġweyl":4321,"Ġvalence":4322,"Ġcompanion":4323,"Ġdecoherence":4324,"Ġunkn":4325,"Ġobservatory":4326,"rations":4327,"Ġrefer":4328,"/@":4329,"Ġcomplement":4330,"osities":4331,"Ġmanifold":4332,".(":4333,"jected":4334,"using":4335,"osc":4336,"Ġ2014":4337,"po":4338,"Ġconformal":4339,"Ġsurpr":4340,"Ġprogen":4341,"lim":4342,"Ġcompl":4343,"Ġcores":4344,"Ġemployed":4345,"Ġplus":4346,"Ġquantity":4347,"Ġfermionic":4348,"umber":4349,"ously":4350,"formed":4351,"Ġchanging":4352,"Ġimplemented":4353,"Ġrevealed":4354,"Ġremov":4355,"Ġaspects":4356,"Ġastrophysical":4357,"Ġfas":4358,"Ġtas":4359,"Ġiniti":4360,"Ġoxygen":4361,"ticles":4362,"Ġpractical":4363,"Ġirre":4364,"Ġfilms":4365,"Ġput":4366,"Ġsumma":4367,"Ġjoint":4368,"Ġsampling":4369,"Ġluminosities":4370,"Ġpulsars":4371,"Ġkinematics":4372,"ortion":4373,"Ġball":4374,"Ġoutburst":4375,"Ġconduction":4376,"Ġoutside":4377,"Ġcycl":4378,"Ġcreated":4379,"Ġlittle":4380,"Ġoct":4381,"Ġdiamet":4382,"Ġtrigger":4383,"Ġpr":4384,"Ġinequality":4385,"Ġstrategy":4386,"Ġprogenit":4387,"oph":4388,"Ġturns":4389,"Ġroughly":4390,"Ġstraight":4391,"rotron":4392,"Ġabelian":4393,"Ġhistory":4394,"Ġextensive":4395,"Ġchand":4396,"Ġletter":4397,"Ġvanishing":4398,"Ġsignatures":4399,"Ġbell":4400,"Ġshifts":4401,"Ġcurrents":4402,"Ġinstance":4403,"Ġessentially":4404,"Ġsoliton":4405,"Ġpublished":4406,"isson":4407,"Ġfiber":4408,"Ġcontribute":4409,"Ġerg":4410,"Ġcubic":4411,"dinger":4412,"Ġmuon":4413,"Ġpartition":4414,"Ġmove":4415,"Ġiron":4416,"Ġloops":4417,"Ġalgebraic":4418,"Ġisot":4419,"Ġsne":4420,"cu":4421,"Ġns":4422,"Ġsight":4423,"Ġmc":4424,"Ġsimply":4425,"Ġadvantage":4426,"Ġreversal":4427,"Ġmembran":4428,"Ġbosonic":4429,"Ġactu":4430,"itter":4431,"va":4432,"Ġinstant":4433,"Ġtested":4434,"Ġmatching":4435,"Ġvariance":4436,"Ġcrossing":4437,"Ġconversion":4438,"Ġexpectation":4439,"Ġexcept":4440,"rial":4441,"Ġacous":4442,"apor":4443,"Ġqd":4444,"Ġelliptic":4445,"Ġunknown":4446,"Ġseems":4447,"Ġtend":4448,"Ġlocally":4449,"Ġrepresented":4450,"lic":4451,"ondo":4452,"Ġscan":4453,"inity":4454,"Ġstart":4455,"Ġprobabilities":4456,"Ġdegeneracy":4457,"Ġconj":4458,"Ġconfinement":4459,"Ġqualitatively":4460,"aly":4461,"Ġmerger":4462,"Ġgold":4463,"Ġsolitons":4464,"125":4465,"Ġheight":4466,"Ġsynchrotron":4467,"osing":4468,"Ġfront":4469,"Ġbur":4470,"Ġmg":4471,"Ġpredicts":4472,"Ġpowerful":4473,"Ġbub":4474,"Ġcarry":4475,"umps":4476,"Ġaccess":4477,"Ġlifetime":4478,"Ġhelium":4479,"ade":4480,"exist":4481,"har":4482,"Ġregard":4483,"Ġdoub":4484,"Ġtechnology":4485,"radi":4486,"Ġposs":4487,"Ġsurprising":4488,"Ġsr":4489,"oles":4490,"Ġvariational":4491,"Ġexplanation":4492,"theless":4493,"Ġprinciples":4494,"Ġfidel":4495,"Ġperc":4496,"ull":4497,"Ġschr":4498,"Ġenerge":4499,"Ġexciton":4500,"Ġfract":4501,")\\":4502,"03":4503,"Ġstrip":4504,"Ġresistivity":4505,"Ġhighest":4506,"Ġpseudo":4507,"Ġsubstrate":4508,"Ġboundaries":4509,"Ġpersist":4510,"Ġsequences":4511,"Ġvirtual":4512,"Ġdiffu":4513,"Ġfu":4514,"Ġfm":4515,"Ġmathematic":4516,"hd":4517,"Ġold":4518,"Ġcoordinate":4519,"Ġresour":4520,"Ġkondo":4521,"Ġlogarithmic":4522,"era":4523,"Ġsatisfy":4524,"delta":4525,"_#":4526,"Ġinferred":4527,"Ġvortices":4528,"Ġgenerating":4529,"Ġsaturation":4530,"Ġdomains":4531,"101":4532,"Ġoperations":4533,"Ġholds":4534,"Ġpurpose":4535,"Ġpoisson":4536,"Ġaffected":4537,"gr":4538,"Ġiso":4539,"Ġtuning":4540,"partite":4541,"Ġpec":4542,"ware":4543,"Ġmomenta":4544,"weak":4545,"Ġgeneralization":4546,"Ġcovari":4547,"ifted":4548,"olet":4549,"Ġpartially":4550,"cation":4551,"Ġshowed":4552,"Ġunits":4553,"entric":4554,"Ġtriplet":4555,"Ġuses":4556,"Ġvisible":4557,"bolic":4558,"Ġdrop":4559,"Ġanalyses":4560,"Ġnormalized":4561,"Ġpoin":4562,"Ġvectors":4563,"vo":4564,"assical":4565,"Ġdiffraction":4566,"Ġ2003":4567,"Ġinset":4568,"Ġauthors":4569,"rich":4570,"Ġcop":4571,"Ġduration":4572,"Ġcompe":4573,"Ġcompatible":4574,"Ġconcer":4575,"Ġsteps":4576,"well":4577,"odal":4578,"ading":4579,"Ġheter":4580,"rable":4581,"Ġprojected":4582,"zz":4583,"Ġcone":4584,"Ġonce":4585,"dle":4586,"Ġparametric":4587,"Ġbif":4588,"Ġfluxes":4589,"bur":4590,"Ġkind":4591,"Ġstrengths":4592,"ilbert":4593,"Ġ2004":4594,"Ġcarrier":4595,"Ġinvariance":4596,"Ġreasonable":4597,"Ġmorphology":4598,"Ġacoustic":4599,"ened":4600,"Ġdetermining":4601,"Ġattem":4602,"Ġinhomogeneous":4603,"Ġconfidence":4604,"Ġenvelope":4605,"Ġsal":4606,"Ġcanc":4607,"Ġbelong":4608,"oscal":4609,"Ġta":4610,"Ġbil":4611,"Ġincident":4612,"Ġillustrated":4613,"Ġmedi":4614,"Ġschrdinger":4615,"greg":4616,"mo":4617,"111":4618,"Ġalign":4619,"Ġarc":4620,"Ġnano":4621,"ina":4622,"ived":4623,"Ġsurrounding":4624,"Ġcoexist":4625,"rect":4626,"Ġpin":4627,"Ġ90":4628,"Ġattract":4629,"Ġfragmentation":4630,"Ġgermany":4631,"Ġresol":4632,"Ġlang":4633,"Ġdenotes":4634,"Ġatmosphere":4635,"Ġinstrument":4636,"200":4637,"Ġdesigned":4638,"Ġpossess":4639,"Ġdeviations":4640,"Ġagree":4641,"title":4642,"Ġfrustr":4643,"bf":4644,"Ġviscosity":4645,"ho":4646,"102":4647,"Ġversus":4648,"ularities":4649,"Ġwavefunction":4650,"space":4651,"}$":4652,"Ġhd":4653,"Ġperiods":4654,"Ġseparate":4655,"Ġtrace":4656,"Ġfran":4657,"Ġderivative":4658,"Ġdenote":4659,"Ġmedia":4660,"Ġdiscrep":4661,"Ġwil":4662,"Ġlimiting":4663,"Ġinversion":4664,"Ġqualitative":4665,"Ġastronomy":4666,"tism":4667,"Ġbig":4668,"Ġapproximations":4669,"mma":4670,"Ġelectroweak":4671,"Ġproved":4672,"ake":4673,"Ġmirror":4674,"Ġproduces":4675,"Ġlearning":4676,"Ġfamil":4677,"Ġbase":4678,"sign":4679,"ulate":4680,"Ġeffectively":4681,"Ġmotions":4682,"Ġsurvi":4683,"Ġwidths":4684,"Ġatmospheric":4685,"big":4686,"Ġcentre":4687,"bar":4688,"ko":4689,"Ġvl":4690,"Ġfidelity":4691,"aim":4692,"Ġrecur":4693,"Ġgiving":4694,"Ġ2002":4695,"Ġvicinity":4696,"Ġben":4697,"arity":4698,"Ġexponentially":4699,".+":4700,"Ġwidely":4701,"Ġimply":4702,"Ġintroduction":4703,"Ġba":4704,"Ġconsequently":4705,"Ġfab":4706,"Ġcoordinates":4707,"Ġsatellite":4708,"come":4709,"ctive":4710,"Ġorbitals":4711,"Ġdesi":4712,"Ġextent":4713,"Ġrestricted":4714,"Ġreconstruction":4715,"tri":4716,"herent":4717,"Ġextrap":4718,"Ġfav":4719,"Ġbes":4720,"ateg":4721,"play":4722,"ematically":4723,"vin":4724,"Ġair":4725,"Ġmention":4726,"Ġord":4727,"Ġenables":4728,"Ġbifur":4729,"Ġcam":4730,"riction":4731,"Ġreconstruct":4732,"ography":4733,"Ġunus":4734,"Ġprior":4735,"Ġissue":4736,"Ġchandra":4737,"erson":4738,"Ġsupplementary":4739,"Ġcare":4740,"Ġprobably":4741,"Ġpropos":4742,"Ġcriterion":4743,"gg":4744,"Ġeqs":4745,"Ġcs":4746,"Ġsimilarly":4747,"Ġquasiparticle":4748,"Ġwaveguide":4749,"Ġpresents":4750,"Ġrepulsive":4751,"Ġshapes":4752,"xiv":4753,"Ġdefect":4754,"Ġcomposite":4755,"Ġidentification":4756,"Ġpara":4757,"Ġsummariz":4758,"Ġpeculi":4759,"ming":4760,"gner":4761,"Ġprecis":4762,"Ġremaining":4763,"Ġplays":4764,"Ġpurely":4765,"Ġ23":4766,"wing":4767,"Ġmi":4768,"Ġtrack":4769,"ype":4770,"Ġsk":4771,"Ġsocial":4772,"Ġmilky":4773,"Ġmotivated":4774,"Ġmodeled":4775,"Ġackn":4776,"bh":4777,"Ġnational":4778,"atorial":4779,"Ġclosely":4780,"endix":4781,"Ġcn":4782,"violet":4783,"Ġmathematics":4784,"Ġaz":4785,"Ġuntil":4786,"104":4787,"icities":4788,"Ġhorizontal":4789,"Ġfollowed":4790,"omer":4791,"Ġemitted":4792,"wer":4793,"Ġappearance":4794,"Ġcause":4795,"Ġexamined":4796,"Ġultraviolet":4797,"Ġfaster":4798,"Ġdiameter":4799,"Ġcomposed":4800,"Ġsilicon":4801,"elihood":4802,"Ġonset":4803,"Ġweighted":4804,"Ġkernel":4805,"mers":4806,"Ġrank":4807,"Ġrelativity":4808,"Ġnonloc":4809,"Ġlan":4810,"Ġelectrical":4811,"Ġtrac":4812,"Ġlikelihood":4813,"Ġtet":4814,"Ġmodification":4815,"Ġsuperposition":4816,"oli":4817,"agn":4818,"ui":4819,"Ġmembers":4820,"Ġvalidity":4821,"Ġconservation":4822,"06":4823,"Ġcutoff":4824,"Ġlabel":4825,"Ġwindow":4826,"ospin":4827,"Ġdetun":4828,"Ġprep":4829,"Ġpromising":4830,"Ġinterplay":4831,"gent":4832,"Ġarguments":4833,"Ġboltz":4834,"lett":4835,"Ġhidden":4836,"Ġesc":4837,"ona":4838,"Ġhilbert":4839,"Ġann":4840,"Ġmagnitudes":4841,"Ġeigenstates":4842,"Ġprecisely":4843,"Ġlengths":4844,"Ġswitching":4845,"ws":4846,"Ġflare":4847,"04":4848,"Ġcharacterization":4849,"Ġtrun":4850,"axial":4851,"Ġinvolved":4852,"Ġtradition":4853,"Ġlook":4854,"Ġfitted":4855,"Ġgaps":4856,"point":4857,"Ġhst":4858,"rays":4859,"106":4860,"itely":4861,"Ġmanip":4862,"Ġprogress":4863,"Ġcollaboration":4864,"Ġecc":4865,"thermal":4866,"Ġrecomb":4867,"Ġrealization":4868,"Ġappendix":4869,"Ġkeep":4870,"Ġionized":4871,"Ġcreation":4872,"Ġconsequences":4873,"Ġassess":4874,"Ġanalogous":4875,"Ġscaled":4876,"ita":4877,"Ġaxial":4878,"Ġhyperbolic":4879,"rates":4880,"Ġboltzmann":4881,"Ġstack":4882,"Ġbulge":4883,"})":4884,"Ġfine":4885,"opic":4886,"Ġindicated":4887,"Ġadaptive":4888,"ans":4889,"ung":4890,"ford":4891,"Ġpropagating":4892,"ortun":4893,"Ġassem":4894,"atz":4895,"Ġactually":4896,"Ġgyr":4897,"Ġflav":4898,"Ġ95":4899,"light":4900,"Ġjose":4901,"Ġgoal":4902,"Ġaccurately":4903,"Ġ2001":4904,"eters":4905,"Ġvs":4906,"Ġbrane":4907,"Ġintroducing":4908,"Ġphysi":4909,"Ġpercolation":4910,"Ġresonator":4911,"Ġgrbs":4912,"Ġbandwidth":4913,"Ġprelim":4914,"Ġformer":4915,"Ġmoderate":4916,"Ġ1998":4917,"Ġsubstit":4918,"Ġcf":4919,"Ġunlike":4920,"pha":4921,"Ġfeas":4922,"body":4923,"Ġnotion":4924,"Ġ\\\\":4925,"Ġwalk":4926,"Ġ1999":4927,"Ġday":4928,"Ġresidual":4929,"iver":4930,"Ġmaxim":4931,"Ġrg":4932,"Ġranging":4933,"Ġtreated":4934,"Ġsey":4935,"Ġparametriz":4936,"Ġsingularities":4937,"105":4938,"Ġ2015":4939,"Ġjoseph":4940,"Ġfle":4941,"Ġ22":4942,"103":4943,"109":4944,"Ġsubsequent":4945,"Ġfavor":4946,"osphere":4947,"Ġasympto":4948,"Ġgrant":4949,"ww":4950,"oll":4951,"Ġeigenvalue":4952,"Ġcolors":4953,"Ġvanishes":4954,"Ġsemiconductor":4955,"Ġpie":4956,"Ġinstitut":4957,"els":4958,"eld":4959,"ception":4960,"Ġclaim":4961,"forms":4962,"Ġsearches":4963,"Ġmanifest":4964,"Ġscreening":4965,"apan":4966,"Ġupd":4967,"Ġenvironments":4968,"Ġelementary":4969,"Ġdisplacement":4970,"ote":4971,"izable":4972,"Ġrepresentations":4973,"Ġdeterministic":4974,"Ġdigital":4975,"Ġecl":4976,"ordi":4977,"ses":4978,"stem":4979,"Ġdirected":4980,"Ġcompounds":4981,"Ġcateg":4982,"Ġrunning":4983,"Ġimagin":4984,"Ġmarkov":4985,"nonumber":4986,")(":4987,",^":4988,"Ġgrains":4989,"Ġalice":4990,"Ġcall":4991,"Ġautoma":4992,"Ġcircuit":4993,"uple":4994,"Ġdc":4995,"Ġsubm":4996,"Ġreliable":4997,"Ġordinary":4998,"Ġtrapping":4999,"esian":5000,"gre":5001,"Ġbay":5002,"Ġparad":5003,"Ġinvolves":5004,"Ġjapan":5005,"Ġpaths":5006,"Ġnevertheless":5007,"Ġimaginary":5008,"107":5009,"Ġ35":5010,"Ġargument":5011,"Ġmhz":5012,"Ġnontri":5013,"Ġtil":5014,"Ġdiscrim":5015,"Ġ03":5016,"Ġhund":5017,"Ġdro":5018,"Ġgates":5019,"Ġexotic":5020,"Ġinstabilities":5021,"Ġdedu":5022,"Ġgran":5023,"Ġdeple":5024,"Ġprox":5025,"Ġuniversality":5026,"Ġremarkable":5027,"Ġassign":5028,"Ġindependently":5029,"Ġadjust":5030,"maly":5031,"Ġpreliminary":5032,"Ġeclip":5033,"Ġprinc":5034,"Ġprimordi":5035,"urities":5036,"Ġlaws":5037,"Ġtiming":5038,"Ġanomaly":5039,"Ġcovering":5040,"Ġram":5041,"Ġ80":5042,"Ġjosephson":5043,"phi":5044,"Ġmargin":5045,"Ġseyfer":5046,"Ġmott":5047,"chang":5048,"Ġprimordial":5049,"utes":5050,"Ġexpanding":5051,"Ġgases":5052,"Ġtransl":5053,"Ġindices":5054,"gments":5055,"Ġiv":5056,"Ġefficiently":5057,"ano":5058,"Ġ04":5059,"Ġdrive":5060,"Ġshocks":5061,"Ġinterferometer":5062,"Ġdna":5063,"cessible":5064,"Ġsuppress":5065,"rational":5066,"Ġimpurities":5067,".([":5068,"Ġcounting":5069,"physrevlett":5070,"layer":5071,"ompan":5072,"Ġasymptotically":5073,"Ġfock":5074,"Ġotherwise":5075,"okes":5076,"Ġmergers":5077,"Ġka":5078,"Ġbloch":5079,"hl":5080,"Ġrhic":5081,"hed":5082,"Ġevaluation":5083,"Ġreproduced":5084,"Ġremarkably":5085,"stra":5086,"Ġwhy":5087,"Ġexperi":5088,"Ġtetra":5089,"Ġsed":5090,"Ġscien":5091,"fact":5092,"Ġwigner":5093,"Ġderivation":5094,"ontinu":5095,"Ġaccompan":5096,"Ġthereby":5097,"Ġtip":5098,"Ġproceed":5099,"Ġrie":5100,"Ġdissipative":5101,"Ġnontrivial":5102,"ructure":5103,"Ġmanner":5104,"bilities":5105,"quet":5106,"Ġextending":5107,"ospheric":5108,"Ġplotted":5109,"..":5110,"Ġitaly":5111,"Ġdiscontinu":5112,"Ġdivid":5113,"Ġincl":5114,"Ġbegin":5115,"Ġelim":5116,"Ġzhang":5117,"ubes":5118,"Ġ65":5119,"Ġadsor":5120,"igm":5121,"Ġmassless":5122,"Ġcolour":5123,"Ġfigs":5124,"Ġtorus":5125,"rt":5126,"Ġphysically":5127,"aling":5128,"_-":5129,"thers":5130,"Ġability":5131,"Ġintegrals":5132,"Ġstrange":5133,"Ġunf":5134,"Ġhex":5135,"Ġattributed":5136,"Ġdisapp":5137,"Ġroot":5138,"Ġ70":5139,"Ġnewton":5140,"120":5141,"Ġsusy":5142,"encies":5143,"Ġcomes":5144,"atives":5145,"Ġdrift":5146,"Ġprotons":5147,"Ġviolating":5148,"Ġlinks":5149,"(@":5150,"Ġcalculating":5151,"Ġbcs":5152,"Ġhapp":5153,"Ġtransformations":5154,"Ġwalls":5155,"Ġdecoupl":5156,"108":5157,"Ġbroadening":5158,"Ġstric":5159,"Ġpolynomials":5160,"Ġsd":5161,"Ġanten":5162,"Ġcommonly":5163,"Ġsuperc":5164,"Ġpotentially":5165,"Ġarri":5166,"Ġconclusions":5167,"Ġquies":5168,"Ġinfer":5169,"Ġtension":5170,"Ġcalibration":5171,"oplan":5172,"Ġintra":5173,"Ġexplored":5174,"Ġsystematically":5175,"glow":5176,"Ġfusion":5177,"Ġmaxwell":5178,"Ġfriction":5179,"ecti":5180,"Ġconsistency":5181,"Ġcondensates":5182,"Ġreser":5183,"Ġobvious":5184,"Ġquestions":5185,"Ġri":5186,"Ġways":5187,"Ġfocusing":5188,"Ġothers":5189,"Ġrecombination":5190,"ending":5191,"Ġarxiv":5192,"Ġyang":5193,"exp":5194,"inear":5195,"icl":5196,"elling":5197,"Ġspectro":5198,"Ġeasy":5199,"Ġimprovement":5200,"Ġremnant":5201,"Ġpeculiar":5202,"Ġpron":5203,"une":5204,"Ġgeometrical":5205,"Ġcentered":5206,"Ġactual":5207,"zero":5208,"Ġmim":5209,"115":5210,"Ġproducts":5211,"Ġcorrespondence":5212,"Ġsuccessfully":5213,"Ġcommut":5214,"Ġrefs":5215,"Ġsubstantially":5216,"Ġherm":5217,"Ġcup":5218,"Ġros":5219,"ades":5220,"001":5221,"Ġlies":5222,"Ġmajority":5223,"112":5224,"Ġoscillators":5225,"Ġconnect":5226,"ales":5227,"Ġvaries":5228,"Ġminor":5229,"Ġkepler":5230,"Ġafterglow":5231,"Ġemploying":5232,"ik":5233,"eres":5234,"omic":5235,"Ġyr":5236,"chanical":5237,"tified":5238,"Ġphonons":5239,"Ġdiffusive":5240,"Ġiner":5241,"Ġtriangular":5242,"Ġriemann":5243,"Ġoh":5244,"Ġalone":5245,"Ġexpress":5246,"Ġcondensation":5247,"Ġbalance":5248,"Ġapplicable":5249,"avities":5250,"]@":5251,"ader":5252,"Ġshor":5253,"ometry":5254,"Ġ1996":5255,"Ġinsulating":5256,"Ġuser":5257,"Ġ220":5258,"Ġmetals":5259,"Ġslowly":5260,"Ġmembrane":5261,"Ġdeph":5262,"Ġcircle":5263,"Ġtimescale":5264,"Ġstrict":5265,"pective":5266,"Ġcriteria":5267,"Ġissues":5268,"Ġseyfert":5269,"Ġmaintain":5270,"adi":5271,"oy":5272,"Ġcontrary":5273,"Ġquantitatively":5274,"Ġ1997":5275,"Ġreached":5276,"Ġcomplicated":5277,"enced":5278,"Ġfri":5279,"Ġflo":5280,"Ġinclusion":5281,"Ġvisual":5282,"Ġthroughout":5283,"vector":5284,"Ġhierarchical":5285,"static":5286,"Ġsimplest":5287,"sr":5288,"wo":5289,"ones":5290,"Ġdatas":5291,"Ġgrain":5292,"Ġpas":5293,"oto":5294,"Ġstokes":5295,"Ġdistant":5296,"Ġmel":5297,"imuth":5298,"ovi":5299,"Ġmyr":5300,"ionization":5301,"Ġquadrup":5302,"Ġdimer":5303,"Ġconjug":5304,"forward":5305,"going":5306,"Ġpromin":5307,"Ġmostly":5308,"Ġsatisfies":5309,"Ġazimuth":5310,"Ġda":5311,"Ġvibrational":5312,"Ġconstitu":5313,"Ġcircumstellar":5314,"Ġdisappear":5315,"Ġcour":5316,"Ġdiv":5317,"Ġcharm":5318,"Ġsteep":5319,"Ġcreate":5320,"Ġaccelerated":5321,"mu":5322,"Ġobe":5323,"Ġfractions":5324,"Ġtrajectory":5325,"Ġlangu":5326,"Ġprogra":5327,"Ġchoose":5328,"Ġmatch":5329,"Ġevolve":5330,"Ġinduce":5331,"Ġbrownian":5332,"itron":5333,"Ġselect":5334,"Ġsound":5335,"Ġnova":5336,"ourn":5337,"Ġsupersymmetry":5338,"^{\\":5339,"versi":5340,"Ġresistance":5341,"ructures":5342,"Ġcauses":5343,"till":5344,"che":5345,"Ġultrac":5346,"linder":5347,"Ġquantify":5348,"dis":5349,"rating":5350,"Ġcum":5351,"Ġquantization":5352,"Ġshaped":5353,"Ġbob":5354,"Ġnotice":5355,"Ġrapidity":5356,"bm":5357,"orous":5358,"Ġretur":5359,"Ġacqui":5360,"Ġbare":5361,"Ġextends":5362,"Ġdephasing":5363,"Ġwang":5364,"ometries":5365,"ounced":5366,"Ġtools":5367,"voir":5368,"Ġtang":5369,"equilibrium":5370,"Ġengineering":5371,"sk":5372,"Ġetc":5373,"Ġhart":5374,"Ġnanot":5375,"Ġsupplemental":5376,"Ġrigid":5377,"Ġreservoir":5378,"Ġdate":5379,"Ġlist":5380,"owski":5381,"depend":5382,"Ġmeaning":5383,"Ġexplosion":5384,"}(":5385,"iclassical":5386,"Ġcounterpar":5387,"vities":5388,"Ġpn":5389,"eline":5390,"ifications":5391,"Ġmultip":5392,"stract":5393,"sively":5394,"Ġnonzero":5395,"Ġill":5396,"Ġmhd":5397,"Ġrational":5398,"Ġranges":5399,"oul":5400,"Ġconcerning":5401,"Ġdon":5402,"Ġgrid":5403,"yd":5404,"Ġve":5405,"Ġmaster":5406,"Ġ26":5407,"Ġlying":5408,"Ġunity":5409,"Ġages":5410,"Ġbesides":5411,"mes":5412,"oft":5413,"Ġplaced":5414,"Ġarm":5415,"Ġemergence":5416,"Ġprincip":5417,"Ġshall":5418,"Ġjump":5419,"Ġeccentric":5420,"Ġchrom":5421,"Ġzee":5422,"Ġsciences":5423,"Ġcharges":5424,"Ġbiological":5425,"Ġanalyzing":5426,"Ġneeds":5427,"Ġfilled":5428,"Ġnull":5429,"Ġdiss":5430,"Ġthermodynamics":5431,"ame":5432,"omega":5433,"Ġcondensed":5434,"Ġadded":5435,"Ġeject":5436,"Ġspher":5437,"Ġtraditional":5438,"Ġchern":5439,"Ġrings":5440,"Ġnecessarily":5441,"Ġadvanced":5442,"Ġfractal":5443,"Ġsa":5444,"ssm":5445,"Ġaccessible":5446,"Ġemitting":5447,"Ġalignment":5448,"Ġpositron":5449,"Ġpp":5450,"sec":5451,"Ġ300":5452,"Ġgradu":5453,"Ġfair":5454,"ild":5455,"Ġagrees":5456,"Ġstrategies":5457,"Ġkerr":5458,"Ġshifted":5459,"Ġ99":5460,"Ġquenched":5461,"Ġcounterparts":5462,"Ġten":5463,"Ġnat":5464,"Ġdistortion":5465,"Ġcern":5466,"Ġagb":5467,"Ġmagneto":5468,"Ġresem":5469,"Ġcareful":5470,"Ġpu":5471,"Ġsimulate":5472,"08":5473,"alities":5474,"Ġcontribut":5475,"Ġperforming":5476,"Ġunusual":5477,"Ġpat":5478,"Ġsud":5479,"Ġrf":5480,"Ġdiscussions":5481,"Ġsummary":5482,"ient":5483,"Ġisospin":5484,"Ġrus":5485,"Ġinclusive":5486,"Ġprima":5487,"imity":5488,"Ġ75":5489,"Ġprefer":5490,"Ġlosses":5491,"Ġscattered":5492,"Ġcylinder":5493,"ition":5494,"Ġareas":5495,"ynamical":5496,"Ġcount":5497,"Ġsymbol":5498,"Ġhet":5499,"Ġcrystalline":5500,"system":5501,"Ġmess":5502,"Ġdiagn":5503,"Ġadditionally":5504,"Ġmonop":5505,"Ġstraightforward":5506,"Ġproximity":5507,"Ġshad":5508,"wa":5509,"Ġeucl":5510,"113":5511,"Ġinsight":5512,"Ġlad":5513,"Ġconsiderably":5514,"Ġgrowing":5515,"itzer":5516,"Ġmentioned":5517,"Ġinduces":5518,"Ġtex":5519,"Ġsouth":5520,"Ġcounts":5521,"ada":5522,"thern":5523,"Ġreaches":5524,"mand":5525,"cence":5526,"Ġgeodes":5527,"Ġtuned":5528,"Ġmpc":5529,"Ġgame":5530,"Ġshorter":5531,"Ġcompr":5532,"cn":5533,"Ġsomewh":5534,"Ġinterestingly":5535,"Ġacting":5536,"Ġtask":5537,"Ġpole":5538,"Ġhadrons":5539,"Ġpronounced":5540,"Ġcompetition":5541,"Ġmediated":5542,"Ġmig":5543,"Ġls":5544,"Ġrandomly":5545,"Ġproducing":5546,"Ġprepar":5547,"Ġconsiderable":5548,"Ġbehaviors":5549,"Ġcounterpart":5550,"jective":5551,"uler":5552,"ighter":5553,"econd":5554,"Ġfactorization":5555,"Ġdetermines":5556,"Ġansatz":5557,"Ġmissing":5558,"Ġmobility":5559,"Ġaccum":5560,"Ġschwar":5561,"symmetric":5562,"Ġoriented":5563,"ivers":5564,"Ġhop":5565,"Ġobsc":5566,"Ġunified":5567,"Ġexplor":5568,"Ġweaker":5569,"Ġstrings":5570,"omorphic":5571,"Ġfamilies":5572,"Ġmonol":5573,"Ġcycles":5574,"Ġstret":5575,"Ġprogramm":5576,"mas":5577,"Ġspacing":5578,"Ġequivalence":5579,"abol":5580,"tin":5581,"Ġfish":5582,"Ġanderson":5583,"Ġcollected":5584,"ocal":5585,"114":5586,"Ġzeeman":5587,"Ġpresc":5588,"Ġconsistently":5589,"Ġsignificance":5590,"Ġinvariants":5591,"Ġaffects":5592,"Ġdemonstrates":5593,"Ġcircles":5594,"Ġnonequilibrium":5595,"Ġnumer":5596,"Ġsubset":5597,"Ġtravel":5598,"-\\":5599,"Ġss":5600,"ield":5601,"ious":5602,"romagne":5603,"Ġelimin":5604,"Ġclump":5605,"Ġinfinity":5606,"Ġeventually":5607,"Ġaligned":5608,"Ġarrays":5609,"eved":5610,"Ġcoronal":5611,"Ġnewtonian":5612,"Ġconvection":5613,"Ġmonitoring":5614,"Ġknot":5615,"Ġnematic":5616,"Ġdynamically":5617,"Ġprotocols":5618,"Ġjunctions":5619,"Ġpix":5620,"arding":5621,"Ġinterior":5622,"Ġroom":5623,"Ġign":5624,"Ġthought":5625,"agonal":5626,"Ġimplying":5627,"ĠĠĠĠĠĠĠĠ":5628,"cade":5629,"Ġoutflows":5630,"Ġice":5631,"Ġnanop":5632,"Ġfilament":5633,"las":5634,"Ġhighlight":5635,"Ġbuilding":5636,"Ġprincipal":5637,"vals":5638,"Ġobserving":5639,"Ġrecord":5640,"ukawa":5641,"Ġprogenitor":5642,"Ġbir":5643,"eting":5644,"Ġflares":5645,"Ġuk":5646,"Ġcapable":5647,"Ġgrows":5648,"Ġdiscrepancy":5649,"Ġsgr":5650,"Ġguar":5651,"ambda":5652,"Ġexception":5653,"gam":5654,"Ġhold":5655,"Ġdivergence":5656,"Ġwarm":5657,"Ġhis":5658,"eto":5659,"Ġcarriers":5660,"Ġbayesian":5661,"Ġstor":5662,"Ġescape":5663,"Ġhz":5664,"Ġspitzer":5665,"Ġsquares":5666,"Ġmanifolds":5667,"Ġcorrected":5668,"vs":5669,"Ġrecogn":5670,"hat":5671,"ffer":5672,"electron":5673,"Ġhydrodynamics":5674,"Ġgeometries":5675,"idean":5676,"Ġuncon":5677,"gely":5678,"Ġur":5679,"Ġcompres":5680,"Ġafm":5681,"Ġtelescopes":5682,"Ġhierarchy":5683,"matically":5684,".\\":5685,"Ġactiv":5686,"Ġenrich":5687,"Ġsimilarity":5688,"Ġbubble":5689,"Ġconv":5690,"Ġsituations":5691,"Ġwilson":5692,"ovian":5693,"Ġeuclidean":5694,"Ġevolving":5695,"Ġsomewhat":5696,"ancies":5697,"Ġinterp":5698,"Ġlargely":5699,"Ġtele":5700,"Ġdesired":5701,"fine":5702,"iding":5703,"Ġclar":5704,"Ġdiam":5705,"Ġspheres":5706,"},":5707,"Ġcavities":5708,"Ġknow":5709,"Ġbifurcation":5710,"Ġscientific":5711,"Ġejecta":5712,"Ġdiagnos":5713,"Ġladder":5714,"Ġtm":5715,"Ġusers":5716,"Ġfabric":5717,"imir":5718,"Ġvirial":5719,"Ġuniversit":5720,"Ġhamiltonians":5721,"Ġclean":5722,"Ġbuilt":5723,"Ġeight":5724,"ements":5725,"Ġprotein":5726,"Ġgoverned":5727,"dm":5728,"Ġencoun":5729,"Ġsynthesis":5730,"Ġguarant":5731,"Ġpauli":5732,"Ġ98":5733,"Ġskyrm":5734,"Ġinitio":5735,"Ġcoding":5736,"Ġtom":5737,"omechanical":5738,"Ġdominates":5739,"day":5740,"Ġyukawa":5741,"bing":5742,"Ġblaz":5743,"Ġinvestigations":5744,"Ġinsulators":5745,"sed":5746,"ogeneity":5747,"Ġgradients":5748,"Ġhuman":5749,"}_":5750,"Ġquantized":5751,"Ġrepresenting":5752,"Ġdisplays":5753,"Ġrr":5754,"Ġasymmetries":5755,"Ġdipolar":5756,"Ġnonlocal":5757,"inite":5758,"Ġts":5759,"Ġambi":5760,"Ġagns":5761,"Ġrepulsion":5762,"Ġwinds":5763,"Ġmor":5764,"Ġstages":5765,"phot":5766,"Ġadding":5767,"Ġ02":5768,"ducible":5769,"Ġmodelling":5770,"Ġaccept":5771,"Ġdoppler":5772,"Ġevolved":5773,"Ġdic":5774,"imet":5775,"istry":5776,"ka":5777,"Ġtesting":5778,"Ġsimplified":5779,"Ġcourse":5780,"oded":5781,"perturb":5782,"Ġneu":5783,"burg":5784,"Ġdrople":5785,"imal":5786,"romatic":5787,"Ġdiscs":5788,"Ġideas":5789,"Ġcome":5790,"Ġchallenging":5791,"Ġsparse":5792,"Ġinequalities":5793,"Ġhep":5794,"Ġschwarz":5795,"enti":5796,"Ġreflected":5797,"Ġpermut":5798,"Ġnn":5799,"Ġlmc":5800,"Ġneglect":5801,"Ġreproduces":5802,"Ġborn":5803,"Ġultracold":5804,"esh":5805,"116":5806,"Ġindirect":5807,"Ġduality":5808,"tian":5809,"Ġdft":5810,"urate":5811,"Ġsep":5812,"Ġunb":5813,"nia":5814,"Ġgoes":5815,"where":5816,"Ġazimuthal":5817,"Ġnois":5818,"rily":5819,"Ġconsideration":5820,"Ġknots":5821,"Ġmutual":5822,"Ġstorage":5823,"Ġgs":5824,"Ġobtaining":5825,"itect":5826,"Ġverify":5827,"Ġqs":5828,"Ġwrite":5829,"Ġsqueezing":5830,"sil":5831,"Ġweights":5832,"Ġuniformly":5833,"Ġcasimir":5834,"Ġchallenge":5835,"Ġbonds":5836,",^,^":5837,"Ġpercent":5838,"Ġha":5839,"Ġcompression":5840,"Ġnonlinearity":5841,"Ġsnr":5842,"Ġhyperfine":5843,"Ġsimplicity":5844,"Ġoptimized":5845,"Ġplateau":5846,"Ġsurprisingly":5847,"Ġpt":5848,"Ġcoming":5849,"regular":5850,"oscopic":5851,"tification":5852,"Ġpolarit":5853,"Ġbipartite":5854,"agger":5855,"Ġconditional":5856,"Ġderivatives":5857,"Ġarchitect":5858,"lind":5859,"Ġobserver":5860,"Ġter":5861,"ellan":5862,"Ġevapor":5863,"Ġ47":5864,"Ġflip":5865,"Ġpumping":5866,"Ġcamera":5867,"09":5868,"active":5869,"Ġaggreg":5870,"Ġsemiclassical":5871,"Ġformulas":5872,"Ġlyman":5873,"Ġchaos":5874,"Ġadjac":5875,"Ġcontin":5876,"Ġpred":5877,"Ġsquared":5878,"Ġinjection":5879,"Ġmy":5880,"*{":5881,"oses":5882,"Ġtext":5883,"sph":5884,"ĠĠĠĠĠ":5885,"Ġbuild":5886,"Ġsynthetic":5887,"gredi":5888,"Ġlinewidth":5889,"Ġfluores":5890,"Ġcylind":5891,"Ġpropagator":5892,"07":5893,"Ġingredi":5894,"lein":5895,"Ġproperly":5896,"Ġgeneralize":5897,"Ġdetectable":5898,"Ġsynchronization":5899,"polar":5900,"Ġcus":5901,"Ġbri":5902,"Ġbene":5903,"Ġaveraging":5904,"Ġ29":5905,"Ġviscous":5906,"ya":5907,"Ġbaryons":5908,"Ġmarked":5909,"ographic":5910,"Ġhybri":5911,"zy":5912,"Ġanalyse":5913,"Ġonline":5914,"Ġpowers":5915,"Ġincomp":5916,"Ġsatisfied":5917,"Ġextensions":5918,"119":5919,"Ġmetast":5920,"Ġbreaks":5921,"Ġeuler":5922,"Ġnit":5923,"Ġadopted":5924,"Ġprimarily":5925,"down":5926,"aled":5927,"unov":5928,"117":5929,"Ġsupports":5930,"Ġplasmon":5931,"Ġprepared":5932,"Ġquiescent":5933,"Ġtends":5934,"atron":5935,"Ġ110":5936,"ectivity":5937,"Ġplat":5938,"Ġmagellan":5939,"Ġfisher":5940,"+\\":5941,"Ġsubsystem":5942,"Ġris":5943,"Ġextragalactic":5944,"Ġgreatly":5945,"Ġambient":5946,"ball":5947,"su":5948,"vance":5949,"Ġ!":5950,"Ġ28":5951,"Ġxmm":5952,"Ġnanow":5953,"Ġconserved":5954,"gamma":5955,"Ġbars":5956,"Ġmos":5957,"Ġenable":5958,"Ġnewly":5959,"Ġassociation":5960,"\",":5961,"axis":5962,"urable":5963,"Ġdotted":5964,"Ġstim":5965,"Ġholog":5966,"aments":5967,"particles":5968,"Ġargued":5969,"Ġestimator":5970,"physrevb":5971,"tificial":5972,"Ġantic":5973,"Ġsatisfying":5974,"Ġnorth":5975,"Ġacknowled":5976,"Ġoccurrence":5977,"Ġchen":5978,"Ġanswer":5979,"Ġinclination":5980,"Ġdr":5981,"Ġartificial":5982,"Ġintegrable":5983,"Ġirradi":5984,"lattice":5985,"Ġdepic":5986,"Ġthank":5987,"Ġgoing":5988,"Ġdenoted":5989,"Ġdiscrimin":5990,"Ġban":5991,"Ġmoves":5992,"Ġanalogy":5993,"Ġenergetic":5994,"Ġprominent":5995,"ham":5996,"mid":5997,"Ġtube":5998,"luster":5999,"Ġbehind":6000,"Ġstanding":6001,"Ġdetuning":6002,"Ġinterse":6003,"Ġdominate":6004,"Ġcombinatorial":6005,"Ġquadrupole":6006,"__":6007,"rho":6008,"Ġske":6009,"eroid":6010,"Ġload":6011,"Ġemphasis":6012,"Ġbilayer":6013,"Ġrelevance":6014,"Ġcoverage":6015,"Ġtimescales":6016,"Ġdeuter":6017,"Ġneglected":6018,"Ġminima":6019,"Ġcascade":6020,"ifying":6021,"diz":6022,"Ġdimensionless":6023,"Ġheavi":6024,"Ġnormalization":6025,"Ġdoublet":6026,"Ġled":6027,"Ġrs":6028,"Ġintensities":6029,"Ġ500":6030,"etary":6031,"Ġbelie":6032,"Ġtargets":6033,"Ġbring":6034,"port":6035,"Ġbund":6036,"nection":6037,"Ġaccom":6038,"Ġdatab":6039,"Ġfourth":6040,"Ġsecurity":6041,"Ġsoftware":6042,"ox":6043,"tru":6044,"ifies":6045,"cdm":6046,"Ġvalley":6047,"map":6048,"Ġ37":6049,"Ġaspect":6050,"Ġcompens":6051,"Ġmarkovian":6052,"ima":6053,"Ġelu":6054,"Ġisland":6055,"ided":6056,"Ġapproximated":6057,"Ġfocused":6058,"[\\":6059,"Ġclock":6060,"Ġgenerates":6061,"Ġattach":6062,"Ġparamagnetic":6063,"cos":6064,"Ġoperating":6065,"Ġsto":6066,"Ġmail":6067,"Ġdemand":6068,"Ġinterfaces":6069,"Ġ1995":6070,"Ġinvolve":6071,"bre":6072,"elves":6073,"adily":6074,"cp":6075,"}_{":6076,"Ġsay":6077,"Ġku":6078,"Ġacad":6079,"related":6080,"ush":6081,"tered":6082,"Ġimposed":6083,"Ġagents":6084,"tity":6085,"Ġprotot":6086,"Ġtevatron":6087,"iner":6088,"Ġspir":6089,"Ġcontam":6090,"Ġ27":6091,"Ġmodern":6092,"Ġpossibilities":6093,"Ġsfr":6094,"Ġhetero":6095,"dynamics":6096,"Ġrelies":6097,"Ġamplification":6098,"yc":6099,"Ġlab":6100,"Ġcorona":6101,"Ġregarding":6102,"ool":6103,"Ġol":6104,"Ġneur":6105,"Ġyielding":6106,"Ġstatus":6107,"fill":6108,"Ġsitter":6109,"Ġintense":6110,"Ġparent":6111,"123":6112,"Ġmerging":6113,"reh":6114,"Ġinters":6115,"ffic":6116,"Ġjus":6117,"Ġspectrom":6118,"118":6119,"uclear":6120,"Ġcomputations":6121,"Ġlapl":6122,"Ġensembles":6123,"Ġrepresentative":6124,"Ġmachine":6125,"Ġlanguage":6126,"Ġhartree":6127,"Ġexplains":6128,"Ġauthor":6129,"Ġsatellites":6130,"gma":6131,"Ġind":6132,"Ġnone":6133,"Ġfis":6134,"Ġcontained":6135,"Ġgranular":6136,"Ġaper":6137,"oscalar":6138,"Ġspring":6139,"Ġrespective":6140,"ude":6141,"Ġrequ":6142,"Ġincons":6143,"pty":6144,"Ġdetections":6145,"Ġaccompanied":6146,"ij":6147,"rg":6148,"Ġspectrograph":6149,"Ġcumul":6150,"Ġcommunity":6151,"Ġmonoton":6152,"pless":6153,"Ġenab":6154,"Ġtunable":6155,"Ġtrunc":6156,"Ġ%":6157,"Ġwol":6158,"Ġmission":6159,"Ġfoundation":6160,"Ġsolv":6161,"Ġoscillatory":6162,"Ġdecaying":6163,"Ġopportun":6164,"field":6165,"Ġown":6166,"allow":6167,"alpha":6168,"Ġhb":6169,"ili":6170,"Ġintui":6171,"Ġtorque":6172,"Ġholograph":6173,"cession":6174,"Ġarrang":6175,"pe":6176,"Ġprotost":6177,"link":6178,"Ġinconsist":6179,"Ġmodifications":6180,"Ġneural":6181,"Ġaccreting":6182,"Ġcomplementary":6183,"Ġbench":6184,"tivities":6185,"Ġembedding":6186,"Ġpreparation":6187,"Ġrecip":6188,"Ġstriking":6189,"Ġcamp":6190,"Ġcenters":6191,"Ġfilaments":6192,"omorphism":6193,"Ġmot":6194,"Ġgh":6195,"Ġprosp":6196,"Ġtraffic":6197,"Ġstatistically":6198,"schild":6199,"Ġreviewed":6200,"Ġsubsequently":6201,"Ġhanded":6202,"Ġlogic":6203,"Ġsudden":6204,"Ġnl":6205,"Ġkh":6206,"Ġintervals":6207,"Ġhelicity":6208,"Ġaddressed":6209,"Ġprojective":6210,"Ġcompreh":6211,"122":6212,"Ġfluids":6213,"Ġoccupation":6214,"Ġbit":6215,"Ġlee":6216,"Ġplau":6217,"Ġgapless":6218,"Ġcyclic":6219,"Ġscanning":6220,"Ġsubspace":6221,"Ġapplies":6222,"Ġindividuals":6223,"doi":6224,"Ġmultiplicity":6225,"phe":6226,"130":6227,"Ġtopologically":6228,"Ġemerges":6229,"Ġdid":6230,"Ġjo":6231,"Ġhelical":6232,"Ġperspective":6233,"io":6234,"Ġpy":6235,"Ġtal":6236,"escence":6237,"Ġmd":6238,"Ġverified":6239,"Ġ|":6240,"osyn":6241,"Ġfeyn":6242,"Ġ74":6243,"Ġpointed":6244,"Ġdepletion":6245,"fold":6246,"Ġseven":6247,"Ġqed":6248,"Ġviewed":6249,"Ġgaas":6250,"Ġoccupied":6251,"abolic":6252,"Ġnodal":6253,"Ġarbitrarily":6254,"Ġbenef":6255,"Ġattain":6256,"126":6257,"manif":6258,"Ġ85":6259,"Ġcombine":6260,"Ġreplaced":6261,"Ġru":6262,"Ġinco":6263,"Ġstrictly":6264,"Ġswe":6265,"Ġrelease":6266,"Ġmodulated":6267,"Ġcloser":6268,"Ġresolve":6269,"net":6270,"Ġ00":6271,"Ġsqueezed":6272,"ymmetric":6273,"oped":6274,"Ġrealize":6275,"Ġfrance":6276,"lor":6277,"oids":6278,"Ġmodulus":6279,"Ġdefining":6280,"pm":6281,"}^":6282,"Ġquick":6283,"Ġarp":6284,"Ġoscillating":6285,"Ġcylindrical":6286,"Ġld":6287,"Ġbethe":6288,"Ġryd":6289,"romagnet":6290,"Ġoccurring":6291,"Ġrequirement":6292,"Ġquadr":6293,"Ġquench":6294,"Ġhermi":6295,"Ġbenchmark":6296,"Ġport":6297,"Ġleg":6298,"ensurate":6299,"ards":6300,"Ġsup":6301,"Ġalgebras":6302,"Ġemerge":6303,"Ġech":6304,"oted":6305,"apunov":6306,"Ġprobabil":6307,"Ġmetastable":6308,"124":6309,"Ġmicroscopy":6310,"^{-":6311,"Ġcombinations":6312,"Ġcoexistence":6313,"Ġreducing":6314,"sim":6315,"emic":6316,"ambigu":6317,"Ġcdw":6318,"Ġresource":6319,"Ġart":6320,"Ġcomparisons":6321,"bor":6322,"Ġdecon":6323,"Ġrelate":6324,"Ġ34":6325,"Ġconnections":6326,"Ġassist":6327,"Ġtrees":6328,"Ġrobustness":6329,"Ġsig":6330,"121":6331,"Ġphenomenology":6332,"Ġinstantaneous":6333,"Ġhybridiz":6334,"eros":6335,"Ġmagellanic":6336,"Ġneither":6337,"Ġuniversitt":6338,"Ġneighboring":6339,"Ġrequirements":6340,"teness":6341,"mut":6342,"pts":6343,"Ġsad":6344,"iring":6345,"Ġabsent":6346,"Ġmoduli":6347,"lens":6348,"Ġrabi":6349,"127":6350,"Ġoffset":6351,"cepts":6352,"changed":6353,"Ġboh":6354,"tes":6355,"ensively":6356,"Ġevolves":6357,"Ġlam":6358,"Ġprobed":6359,"Ġ82":6360,"Ġmaximally":6361,"Ġexceeds":6362,"Ġdos":6363,"Ġnanopar":6364,"ani":6365,"Ġboost":6366,"Ġdetecting":6367,"Ġacts":6368,")^":6369,"kh":6370,"Ġpions":6371,"Ġwho":6372,"Ġrad":6373,"Ġemerging":6374,"Ġoffers":6375,"Ġphysik":6376,"Ġfs":6377,"Ġvon":6378,"Ġlimitations":6379,"Ġharmon":6380,"Ġspanning":6381,"Ġslo":6382,"Ġidentifying":6383,"Ġsegment":6384,"Ġbeli":6385,"Ġformulated":6386,"Ġflavour":6387,"osynth":6388,"Ġamb":6389,"Ġopening":6390,"Ġfrustrated":6391,"cher":6392,"Ġkim":6393,"Ġhexagonal":6394,"depart":6395,"Ġcomplexes":6396,"Ġcontinuously":6397,"ault":6398,"Ġbog":6399,"Ġpapers":6400,"Ġsheet":6401,"bal":6402,"rb":6403,"Ġapart":6404,"Ġlond":6405,"Ġrx":6406,"Ġneighbour":6407,"Ġremnants":6408,"Ġdeformed":6409,"Ġtechnical":6410,"Ġpal":6411,"Ġze":6412,"Ġreconnection":6413,"Ġlyapunov":6414,"Ġinser":6415,"Ġlut":6416,"Ġunambigu":6417,"Ġremo":6418,"Ġrydberg":6419,"Ġsequ":6420,"Ġtexture":6421,"Ġfeynman":6422,"haps":6423,"Ġextraction":6424,"Ġkinds":6425,"itaev":6426,"ean":6427,"nes":6428,"Ġperhaps":6429,"Ġastrophysics":6430,"Ġlb":6431,"Ġcouple":6432,"Ġtrends":6433,"Ġbelieved":6434,"Ġgapped":6435,"Ġrenormalized":6436,"Ġopens":6437,"angle":6438,"Ġirregular":6439,"Ġtransmitted":6440,"Ġcontacts":6441,"Ġentirely":6442,"Ġweb":6443,"Ġplanes":6444,"mp":6445,"Ġcoarse":6446,"Ġexclusive":6447,"Ġnorm":6448,"ked":6449,"Ġnucleation":6450,"Ġpermit":6451,"Ġberry":6452,"Ġdiamond":6453,"Ġhf":6454,"Ġconnectivity":6455,"Ġadvantages":6456,"massive":6457,"hol":6458,"Ġattempt":6459,"Ġschwarzschild":6460,"''":6461,"mathrm":6462,"Ġresources":6463,"Ġrash":6464,"Ġ32":6465,"Ġsmallest":6466,"Ġago":6467,"Ġidentity":6468,"Ġdispersive":6469,"Ġsensor":6470,"Ġsubgroup":6471,"Ġaxes":6472,"Ġserve":6473,"Ġlange":6474,"ournal":6475,"Ġhermitian":6476,"Ġsloan":6477,"theta":6478,"Ġdiffers":6479,"Ġworking":6480,"Ġrashba":6481,"cor":6482,"lepton":6483,"Ġsea":6484,"Ġklein":6485,"Ġintergalactic":6486,"Ġimm":6487,"Ġprobes":6488,"Ġregularization":6489,"Ġaccounts":6490,"timate":6491,"Ġshallow":6492,"Ġseed":6493,"Ġ1000":6494,"Ġantenna":6495,"Ġadjacent":6496,"Ġdeal":6497,"Ġcontra":6498,"Ġamoun":6499,"ociation":6500,"Ġattack":6501,"Ġconstructing":6502,"giant":6503,"lambda":6504,"Ġ45":6505,"Ġcollinear":6506,"Ġemphasize":6507,"Ġremoved":6508,"Ġbrill":6509,"Ġlati":6510,"uting":6511,"versely":6512,"Ġcellular":6513,"Ġreaching":6514,"sigma":6515,"Ġjac":6516,"Ġyb":6517,"128":6518,"Ġrisk":6519,"Ġinterm":6520,"Ġ68":6521,"Ġelectrostatic":6522,"Ġpreserving":6523,"Ġobjective":6524,"ghts":6525,"Ġgravitation":6526,"Ġexpectations":6527,"Ġnoisy":6528,"ĠĠĠĠĠĠĠ":6529,"Ġheli":6530,"Ġfigures":6531,"mass":6532,"odies":6533,"Ġprecession":6534,"Ġpolyt":6535,"Ġ1994":6536,"Ġdiagonalization":6537,"Ġlondon":6538,"Ġface":6539,"Ġjam":6540,"Ġjoh":6541,"Ġslab":6542,"Ġmagnetized":6543,"enkov":6544,"Ġbill":6545,"Ġfluorescence":6546,"Ġlu":6547,"uted":6548,"def":6549,"Ġimper":6550,"Ġsole":6551,"Ġsucces":6552,"Ġirreducible":6553,"ata":6554,"Ġeps":6555,"ahed":6556,"Ġaust":6557,"sivity":6558,"Ġmorphological":6559,"Ġquenching":6560,"Ġillumin":6561,"mn":6562,"Ġplots":6563,"Ġsou":6564,"Ġovercome":6565,"Ġtriangle":6566,"Ġshadow":6567,"Ġperi":6568,"Ġbaseline":6569,"Ġnucleons":6570,"Ġatten":6571,"ctic":6572,"cid":6573,"ometers":6574,"ilit":6575,"Ġtranslation":6576,"Ġrecovered":6577,"Ġreconstructed":6578,"department":6579,"inter":6580,"Ġlv":6581,"Ġconcepts":6582,"atest":6583,"Ġprobabilistic":6584,"Ġwmap":6585,"roduction":6586,"Ġspot":6587,"ubov":6588,"ipolar":6589,"Ġlinked":6590,"Ġsubstitution":6591,"Ġcuprates":6592,"ript":6593,"versible":6594,"Ġchip":6595,"Ġequally":6596,"Ġ87":6597,"Ġfinan":6598,"Ġtransit":6599,"rangle":6600,"cur":6601,"Ġinference":6602,"Ġclassified":6603,"Ġpersistent":6604,"itive":6605,"Ġarrow":6606,"Ġgross":6607,"Ġpassage":6608,"pd":6609,"attering":6610,"Ġdrawn":6611,"Ġsubmill":6612,"osh":6613,"Ġcolliders":6614,"Ġfacilit":6615,"Ġinsights":6616,"Ġintr":6617,"Ġbranches":6618,"Ġsequential":6619,"uly":6620,"Ġbeta":6621,"Ġabsorbed":6622,"Ġtheoretic":6623,"Ġmesoscopic":6624,"Ġferro":6625,"Ġpacket":6626,"Ġinflationary":6627,"Ġ33":6628,"Ġbrightest":6629,"Ġwalks":6630,"iro":6631,"Ġlocations":6632,"Ġdamped":6633,"Ġcomprehensive":6634,"Ġincoherent":6635,"Ġlatit":6636,"kowski":6637,"Ġreferred":6638,"Ġaddi":6639,"Ġstiff":6640,"Ġproposal":6641,"}{\\":6642,"Ġeos":6643,"etry":6644,"Ġcompanions":6645,"Ġastronomical":6646,"Ġcollection":6647,"Ġconfirms":6648,"Ġprogramming":6649,"Ġct":6650,"Ġdy":6651,"icate":6652,"xible":6653,"Ġestimating":6654,"Ġgenus":6655,"Ġspherically":6656,"Ġmssm":6657,"Ġnebulae":6658,"Ġhappens":6659,"ashi":6660,"Ġ2016":6661,"ominant":6662,"Ġmetallicities":6663,"Ġvalued":6664,"Ġintroduces":6665,"oftwo":6666,"Ġaxion":6667,"bach":6668,"eller":6669,"Ġvaried":6670,"Ġconnecting":6671,"Ġmigration":6672,"ny":6673,"Ġthm":6674,"Ġreadily":6675,"Ġbaryonic":6676,"ha":6677,"edu":6678,"Ġchina":6679,"Ġcompeting":6680,"Ġexcluded":6681,"Ġvalu":6682,"Ġredd":6683,"Ġneighborhood":6684,"Ġoptomechanical":6685,"Ġfeasible":6686,"Ġbrillou":6687,"Ġfro":6688,"Ġtab":6689,"Ġhours":6690,"Ġfold":6691,"Ġseparately":6692,"Ġretain":6693,"Ġfinds":6694,"ris":6695,"Ġbc":6696,"ented":6697,"Ġnoted":6698,"Ġresonators":6699,"silon":6700,"Ġcamb":6701,"Ġcomment":6702,"Ġshot":6703,"Ġstarts":6704,"302":6705,"Ġtransmit":6706,"Ġlangevin":6707,"dx":6708,"Ġcharacterizing":6709,"Ġinsensi":6710,"Ġdestro":6711,"Ġpiece":6712,"Ġshower":6713,"Ġionizing":6714,"Ġatmospheres":6715,"coming":6716,"Ġspectrometer":6717,"Ġbrillouin":6718,"Ġtempl":6719,"Ġlateral":6720,"Ġrigorous":6721,"Ġnumerous":6722,"za":6723,"Ġci":6724,"Ġlemma":6725,"Ġmultic":6726,"Ġdramatically":6727,"Ġfinancial":6728,"Ġfoot":6729,"Ġ89":6730,"Ġmiddle":6731,"Ġblocks":6732,"Ġcephe":6733,"Ġpric":6734,"Ġabsorbing":6735,"Ġpublic":6736,"Ġchallenges":6737,"Ġisothermal":6738,"Ġcovariance":6739,"Ġintrigu":6740,"fv":6741,"Ġfal":6742,"Ġtag":6743,"133":6744,"Ġbackward":6745,"Ġintersection":6746,"jy":6747,"recent":6748,"Ġjup":6749,"Ġequi":6750,"Ġmarginal":6751,"Ġamounts":6752,"Ġcc":6753,"Ġconsiderations":6754,"Ġdatabase":6755,"oking":6756,"Ġbending":6757,"Ġshare":6758,"ecm":6759,"Ġchanged":6760,"Ġexploit":6761,"Ġrepeated":6762,"Ġdoubly":6763,"Ġaperture":6764,"Ġattenu":6765,"Ġparabolic":6766,"Ġends":6767,"Ġliu":6768,"Ġpopular":6769,"Ġquasiparticles":6770,"Ġaxisymmetric":6771,"Ġdilute":6772,"Ġintriguing":6773,"ao":6774,"Ġperiodicity":6775,"Ġsupporting":6776,"Ġneighbors":6777,"Ġholographic":6778,"Ġlived":6779,"eps":6780,"Ġoriginate":6781,"Ġbroadband":6782,"Ġnmr":6783,"ille":6784,"Ġmatched":6785,"Ġenvironmental":6786,"Ġheterogeneous":6787,"Ġsymbols":6788,"Ġcambridge":6789,"gp":6790,"uri":6791,"tinger":6792,"Ġgc":6793,"Ġconcentrated":6794,"Ġsummarize":6795,"Ġpuzz":6796,"kl":6797,"Ġclumps":6798,"Ġcoincides":6799,"Ġmonolayer":6800,"ifor":6801,"Ġquar":6802,"Ġinfall":6803,"Ġ42":6804,"Ġlasers":6805,"Ġbrighter":6806,"Ġteleport":6807,"Ġams":6808,"Ġnlo":6809,"text":6810,"Ġliquids":6811,"Ġtriggered":6812,"Ġcovariant":6813,"sum":6814,"Ġinn":6815,"aki":6816,"Ġergod":6817,"Ġassisted":6818,"Ġecon":6819,"Ġprevent":6820,"steresis":6821,"process":6822,"Ġeccentricity":6823,"Ġpixel":6824,"Ġsaddle":6825,"Ġrect":6826,"Ġabstract":6827,"Ġsupermassive":6828,"Ġcoincidence":6829,"ydro":6830,"eng":6831,"Ġlig":6832,"Ġprompt":6833,"Ġdex":6834,"Ġdrag":6835,"Ġlandsc":6836,"Ġmapped":6837,"Ġattraction":6838,"aff":6839,"Ġnd":6840,"Ġom":6841,"etrics":6842,"Ġconstru":6843,"Ġgrand":6844,"Ġinspi":6845,"Ġchemistry":6846,"lik":6847,"Ġsensing":6848,"Ġfried":6849,"Ġrib":6850,"Ġcv":6851,"Ġforb":6852,"Ġopac":6853,"Ġnucleosynth":6854,"Ġhysteresis":6855,"Ġchoices":6856,"char":6857,"Ġdeduced":6858,"nas":6859,"}^{":6860,"Ġachievable":6861,"rest":6862,"Ġreverse":6863,"Ġtwice":6864,"Ġregression":6865,"Ġforeground":6866,"haus":6867,"Ġmodify":6868,"Ġlightest":6869,"lectivity":6870,"Ġpolymers":6871,"Ġmarket":6872,"Ġmicrolens":6873,"Ġperfectly":6874,"fl":6875,"Ġhii":6876,"Ġfilters":6877,"tilde":6878,"Ġconvenient":6879,"Ġrecoil":6880,"Ġisotopes":6881,"Ġburning":6882,"Ġintrac":6883,"Ġconcentrations":6884,"Ġdisturb":6885,"129":6886,"Ġtherm":6887,"Ġtd":6888,"univers":6889,"Ġdifferenti":6890,"Ġpeaked":6891,"Ġinstruments":6892,"Ġquadrature":6893,"Ġwaveguides":6894,"Ġskyrmion":6895,"\\\\":6896,"Ġswift":6897,"whm":6898,"Ġpractice":6899,"Ġreflects":6900,"Ġluttinger":6901,"comes":6902,"ato":6903,"Ġoverview":6904,"rack":6905,"Ġseparations":6906,"Ġplausible":6907,":\",":6908,"aren":6909,"Ġyu":6910,"Ġconsum":6911,"Ġexcitons":6912,"Ġ64":6913,"Ġuncor":6914,"Ġleptons":6915,"ollary":6916,"plane":6917,"Ġmonopole":6918,"ortions":6919,"inger":6920,"Ġnv":6921,"Ġ150":6922,"Ġcoal":6923,"Ġcanada":6924,"Ġoutcome":6925,"Ġmesh":6926,"Ġaffine":6927,"Ġexploiting":6928,"Ġpenetr":6929,"midt":6930,"bu":6931,"sen":6932,"Ġthems":6933,"Ġtau":6934,"elled":6935,"Ġgenerator":6936,"Ġoriginally":6937,"Ġiterative":6938,"Ġdivision":6939,"type":6940,"Ġprotected":6941,"136":6942,"Ġthemselves":6943,"Ġdir":6944,"Ġbodies":6945,"Ġfluctuating":6946,"Ġexhibiting":6947,"sin":6948,"aton":6949,"mathcal":6950,"Ġnp":6951,"Ġelong":6952,"Ġmagnetism":6953,"Ġplasmas":6954,"Ġfairly":6955,"Ġcusp":6956,"Ġskew":6957,"Ġcolle":6958,"Ġ31":6959,"Ġhaloes":6960,"Ġshells":6961,"Ġbs":6962,"Ġimportantly":6963,"Ġmedian":6964,"ativity":6965,"reev":6966,"Ġrealizations":6967,"kd":6968,"Ġ>":6969,"Ġobst":6970,"Ġpreferred":6971,"Ġpassing":6972,"ifornia":6973,"Ġmetrics":6974,"umb":6975,"Ġprocedures":6976,"sia":6977,"Ġproven":6978,"Ġzeros":6979,"Ġfiltering":6980,"Ġrecorded":6981,"Ġdu":6982,"Ġtermin":6983,"Ġdevelopments":6984,"Ġsimpler":6985,"Ġcontrolling":6986,"Ġwells":6987,"Ġ81":6988,"Ġthermally":6989,"Ġpomer":6990,"chen":6991,"scaled":6992,"Ġdelocal":6993,"zer":6994,"Ġworm":6995,"Ġdimensionality":6996,"sky":6997,"ulating":6998,"versity":6999,"140":7000,"Ġspecified":7001,"ires":7002,"Ġresum":7003,"rupt":7004,"Ġexpos":7005,"Ġmagnetores":7006,"Ġproteins":7007,"Ġrend":7008,"urs":7009,"plectic":7010,"Ġtrade":7011,"Ġqso":7012,"zen":7013,"rec":7014,"Ġappe":7015,"Ġoverd":7016,"oti":7017,"rogen":7018,"dington":7019,"Ġperturbed":7020,"Ġeigenfunction":7021,"Ġprogenitors":7022,"Ġepid":7023,"Ġagent":7024,"131":7025,"Ġmixtures":7026,"Ġdivided":7027,"Ġpassive":7028,"Ġmelting":7029,"mber":7030,"}}\\":7031,"Ġcovers":7032,"Ġ55":7033,"Ġtails":7034,"Ġrequiring":7035,"Ġfwhm":7036,"Ġsolvent":7037,"Ġrevis":7038,"Ġconvective":7039,"oliubov":7040,"Ġinspired":7041,"Ġmr":7042,"Ġlineto":7043,"Ġanalogue":7044,"Ġbarriers":7045,"Ġcoincide":7046,"Ġtracking":7047,"Ġinertial":7048,"Ġconjugate":7049,"Ġqsos":7050,"Ġinsensitive":7051,"aven":7052,"ience":7053,"Ġade":7054,"Ġ36":7055,"Ġpolaron":7056,"Ġeddington":7057,"Ġpulsed":7058,"Ġcategory":7059,"Ġwf":7060,"Ġshed":7061,"Ġexpansions":7062,"Ġcuts":7063,"Ġadopt":7064,"Ġarpes":7065,"Ġcalifornia":7066,"Ġassembly":7067,"_\\":7068,"Ġrely":7069,"Ġevid":7070,"Ġje":7071,"Ġthanks":7072,"Ġlith":7073,"Ġcurved":7074,"Ġfolding":7075,"Ġimproves":7076,"Ġcorrectly":7077,"Ġgeodesic":7078,"Ġinfinitely":7079,"Ġspreading":7080,"Ġundergoes":7081,"Ġtay":7082,"Ġnonperturb":7083,"Ġbiased":7084,"Ġreceiver":7085,"Ġtomography":7086,"Ġtruncated":7087,"Ġreddening":7088,"Ġlen":7089,"Ġjournal":7090,"Ġanalysed":7091,"Ġnitrogen":7092,"gl":7093,"Ġsb":7094,"relation":7095,"Ġgrating":7096,"Ġchirality":7097,"Ġtriangles":7098,"Ġdecoupling":7099,"Ġbogoliubov":7100,"scaledwidth":7101,"Ġhan":7102,"Ġyork":7103,"Ġgluons":7104,"Ġnucleosynthesis":7105,"Ġbat":7106,"Ġandreev":7107,"sibility":7108,"Ġeffort":7109,"Ġdecision":7110,"Ġinterested":7111,"iii":7112,"Ġapplicability":7113,"Ġdynamo":7114,"commut":7115,"Ġballistic":7116,"Ġquickly":7117,"aring":7118,"Ġmonth":7119,"Ġunitarity":7120,"Ġalternating":7121,"kal":7122,"Ġspac":7123,"Ġinterlayer":7124,"Ġunless":7125,"Ġschool":7126,"Ġ73":7127,"Ġhybridization":7128,"Ġparis":7129,"Ġqui":7130,"Ġrms":7131,"Ġdispersions":7132,"bands":7133,"Ġinternational":7134,"Ġfrustration":7135,"Ġprescription":7136,"Ġviable":7137,"Ġcentrality":7138,"Ġelectrodes":7139,"Ġcer":7140,"Ġejection":7141,"Ġunification":7142,"Ġsusp":7143,"likely":7144,"Ġanne":7145,"Ġunlikely":7146,"Ġparticip":7147,"Ġempty":7148,"Ġdefines":7149,"Ġtoroidal":7150,"Ġneumann":7151,"Ġgpa":7152,"Ġimf":7153,"Ġextensively":7154,"Ġdegra":7155,"Ġapparently":7156,"Ġsemimet":7157,"Ġpubl":7158,"Ġwireless":7159,"Ġextrapolation":7160,"nu":7161,"Ġshowers":7162,"kyo":7163,"Ġdraw":7164,"Ġconstituent":7165,"Ġwolf":7166,"Ġ<":7167,"Ġdeb":7168,"Ġmethodology":7169,"Ġcentro":7170,"Ġastrom":7171,"Ġflexible":7172,"Ġspinor":7173,"Ġbehaves":7174,"Ġformulae":7175,"Ġsolely":7176,"Ġowing":7177,"Ġemergent":7178,"Ġdeterminant":7179,"Ġdifficulty":7180,"polarized":7181,"Ġrecipro":7182,"qcd":7183,"Ġpay":7184,"Ġbern":7185,"Ġdecades":7186,"ners":7187,"Ġlm":7188,"Ġnel":7189,"Ġhomology":7190,"Ġinconsistent":7191,"Ġsigma":7192,"Ġdecoding":7193,"Ġ62":7194,"Ġ1992":7195,"Ġchoosing":7196,"Ġreasons":7197,"Ġsouthern":7198,"lemma":7199,"Ġcher":7200,"132":7201,"Ġanomalies":7202,"Ġauto":7203,"Ġmanipulation":7204,"Ġpredominant":7205,"Ġtoler":7206,"Ġaccep":7207,"Ġefforts":7208,"Ġdepos":7209,"Ġrecall":7210,"Ġnanost":7211,"timately":7212,"intill":7213,"Ġlac":7214,"Ġwires":7215,"Ġongoing":7216,"resolved":7217,"relati":7218,"Ġ111":7219,"ellation":7220,"Ġvacancy":7221,"Ġpseudoscalar":7222,"Ġnanotubes":7223,"Ġguarante":7224,"photon":7225,"mathbf":7226,"Ġconcern":7227,"mediately":7228,"Ġsettings":7229,"Ġcircuits":7230,"Ġreadout":7231,"Ġparadigm":7232,"Ġtalk":7233,"prop":7234,"Ġadsorption":7235,"Ġmaser":7236,"Ġko":7237,"Ġscintill":7238,"Ġaccord":7239,"Ġgauss":7240,"Ġepis":7241,"Ġharmonics":7242,"Ġgib":7243,"Ġsymplectic":7244,"Ġeurop":7245,"Ġregarded":7246,"Ġgm":7247,"Ġunexp":7248,"Ġdemonstrating":7249,"Ġ1993":7250,"Ġrb":7251,"akov":7252,"Ġnotation":7253,"Ġqds":7254,"Ġrussia":7255,"romagnetism":7256,"relativistic":7257,"Ġsides":7258,"Ġwd":7259,"Ġreionization":7260,"Ġib":7261,"Ġnoncommut":7262,"Ġslower":7263,"Ġimprovements":7264,"Ġincoming":7265,"Ġevaporation":7266,"pb":7267,"Ġnb":7268,"Ġmodest":7269,"Ġtransformed":7270,"Ġeqn":7271,"Ġ71":7272,"Ġimplicit":7273,"Ġarchival":7274,"Ġfails":7275,"Ġtaylor":7276,"Ġtitle":7277,"Ġdiversity":7278,"Ġjan":7279,"Ġbases":7280,"Ġgrown":7281,"Ġaux":7282,"Ġvirgo":7283,"Ġprospects":7284,"bib":7285,"Ġbun":7286,"Ġliv":7287,"Ġspi":7288,"Ġdeceler":7289,"Ġinterferometry":7290,"ribed":7291,"Ġassumes":7292,"Ġamplif":7293,"Ġencoded":7294,"Ġretri":7295,"Ġincompres":7296,"Ġinherent":7297,"Ġgar":7298,"Ġexoplan":7299,"otential":7300,"Ġunresolved":7301,"Ġmob":7302,"Ġmagnon":7303,"Ġlayered":7304,"Ġdepicted":7305,"Ġpm":7306,"ami":7307,"Ġimmediately":7308,"Ġimpos":7309,"Ġsigns":7310,"Ġthermo":7311,"Ġsolids":7312,"Ġmills":7313,"Ġincomple":7314,"Ġtwisted":7315,"factor":7316,"tos":7317,"Ġinjected":7318,"Ġgut":7319,"Ġfibers":7320,"Ġevident":7321,"Ġoverla":7322,"Ġappearing":7323,"Ġgames":7324,"Ġruns":7325,"Ġdataset":7326,"Ġobscured":7327,"Ġarchitecture":7328,"sn":7329,"Ġkhz":7330,"Ġarms":7331,"Ġschmidt":7332,"Ġseparable":7333,"Ġsuited":7334,"Ġprime":7335,"Ġpinning":7336,"Ġelucid":7337,"Ġcontradic":7338,"beta":7339,"Ġstem":7340,"stand":7341,"rab":7342,"Ġprobing":7343,"Ġapproaching":7344,"Ġintegrating":7345,"Ġcollisional":7346,"Ġadditive":7347,"Ġunexpected":7348,"Ġgp":7349,"pher":7350,"Ġdefinite":7351,"Ġconfining":7352,"150":7353,"Ġtransparen":7354,"Ġelectrodynamics":7355,"Ġwinding":7356,"Ġnonperturbative":7357,"gonal":7358,"Ġbipolar":7359,"Ġgets":7360,"Ġ120":7361,"138":7362,"Ġoriginates":7363,"Ġwavefunctions":7364,"Ġquint":7365,"Ġinvestigating":7366,"Ġpolariz":7367,"Ġrecovery":7368,"rd":7369,"Ġbang":7370,"Ġdee":7371,"Ġpriori":7372,"Ġparametrization":7373,"Ġcontract":7374,"istinguish":7375,"roscopically":7376,"Ġdelta":7377,"Ġextremal":7378,"Ġcaptured":7379,"Ġdedicated":7380,"134":7381,"Ġ93":7382,"Ġoriginating":7383,"Ġsharing":7384,"Ġwarp":7385,"Ġpreferential":7386,"Ġalter":7387,"Ġvisibility":7388,"Ġconducting":7389,"Ġepochs":7390,"Ġsuccessive":7391,"Ġteleportation":7392,"Ġadequ":7393,"zing":7394,"Ġsupergiant":7395,"Ġregardless":7396,"jet":7397,"Ġub":7398,"Ġthz":7399,"Ġ49":7400,"Ġminkowski":7401,"Ġsecre":7402,"aking":7403,"Ġ86":7404,"Ġ97":7405,"elike":7406,"Ġmonotonic":7407,"Ġdonor":7408,"Ġarrangement":7409,"Ġthor":7410,"Ġml":7411,"Ġgene":7412,"Ġinterf":7413,"orted":7414,"Ġclassify":7415,"Ġkink":7416,"Ġclarify":7417,"Ġuncorrelated":7418,"=@":7419,"wr":7420,"alth":7421,"Ġestimators":7422,"Ġdramatic":7423,"Ġcovered":7424,"Ġstripe":7425,"mic":7426,"Ġham":7427,"Ġgase":7428,"oneyc":7429,"Ġconducted":7430,"Ġcooperative":7431,"Ġcatalogue":7432,"Ġbeginning":7433,"Ġgd":7434,"Ġrotations":7435,"Ġreasonably":7436,"Ġadvances":7437,"Ġfailure":7438,"Ġsized":7439,"mathgroup":7440,"Ġoutcomes":7441,"Ġtheorems":7442,"Ġfreeze":7443,"Ġconverges":7444,"Ġvapor":7445,"Ġunpre":7446,"Ġbelt":7447,"Ġcausal":7448,"Ġdelayed":7449,"Ġreceived":7450,"Ġsurvival":7451,"Ġindistinguish":7452,"oneycomb":7453,"cr":7454,"Ġactions":7455,"Ġlatest":7456,"Ġuniversi":7457,"Ġaccounting":7458,"Ġexperience":7459,"Ġhem":7460,"401":7461,"Ġsmc":7462,"Ġbelieve":7463,"Ġspirals":7464,"Ġmobile":7465,"Ġreads":7466,"Ġcarrying":7467,"Ġambigu":7468,"Ġfp":7469,"Ġbehave":7470,"Ġanisotropies":7471,"ered":7472,"Ġdw":7473,"Ġnir":7474,"urrent":7475,"emission":7476,"deg":7477,"135":7478,"Ġfloquet":7479,"Ġtransparency":7480,"Ġgaseous":7481,"ek":7482,"Ġreact":7483,"Ġll":7484,"Ġnest":7485,"ams":7486,"Ġ39":7487,"Ġincreasingly":7488,"eness":7489,"Ġperiodically":7490,"Ġdeveloping":7491,"amaterial":7492,"Ġmicrolensing":7493,"Ġpomeron":7494,"inz":7495,"Ġ57":7496,"Ġerup":7497,"Ġdevelops":7498,"Ġneutrons":7499,"ogeneities":7500,"Ġpseudog":7501,"Ġminimization":7502,"uch":7503,"Ġforcing":7504,"Ġfragments":7505,"Ġdiffractive":7506,"Ġtorsion":7507,"Ġadapt":7508,"dif":7509,"Ġdama":7510,"Ġhaw":7511,"Ġensure":7512,"Ġleptonic":7513,"Ġlorentzian":7514,"Ġsoci":7515,"rand":7516,"Ġmeasurable":7517,"Ġ43":7518,"Ġ78":7519,"Ġdiscontinuous":7520,"Ġfisica":7521,"Ġsolvable":7522,"Ġvaluable":7523,"Ġaccepted":7524,"Ġtoday":7525,"Ġvla":7526,"gravity":7527,"Ġunbound":7528,"Ġnanoparticles":7529,"bes":7530,"Ġwise":7531,"Ġdf":7532,"Ġ06":7533,"Ġmetamaterial":7534,"Ġiras":7535,"Ġprotoplan":7536,"Ġgenu":7537,"Ġsemiconductors":7538,"Ġobey":7539,"mar":7540,"Ġwit":7541,"icial":7542,"Ġnak":7543,"Ġcohom":7544,"ended":7545,"Ġ105":7546,"Ġmaxima":7547,"Ġsaturated":7548,"Ġpoles":7549,"Ġbubbles":7550,"Ġreturn":7551,"Ġconvolution":7552,"Ġlandscape":7553,"nected":7554,"tally":7555,"Ġsand":7556,"Ġbn":7557,"Ġtokyo":7558,"Ġincidence":7559,"Ġ77":7560,"Ġslip":7561,"Ġdusty":7562,"Ġpressures":7563,"oscale":7564,"psi":7565,"Ġkar":7566,"Ġboun":7567,"Ġplates":7568,"Ġ84":7569,"Ġpacking":7570,"Ġpointing":7571,"fr":7572,"leigh":7573,"Ġnic":7574,"olating":7575,"Ġequilib":7576,"Ġroll":7577,"Ġamorph":7578,"Ġ400":7579,"Ġpropagate":7580,"after":7581,"path":7582,"Ġspacetimes":7583,"Ġaccelerator":7584,"Ġalternatively":7585,"Ġconfirming":7586,"^\\":7587,"iers":7588,"Ġpet":7589,"Ġgw":7590,"Ġfire":7591,"Ġpla":7592,"Ġcalor":7593,"Ġconcre":7594,"Ġkinetics":7595,"Ġlifetimes":7596,"ohydro":7597,"box":7598,"Ġarrival":7599,"Ġrectang":7600,"att":7601,"stone":7602,"Ġobtains":7603,"Ġdistinguished":7604,"www":7605,"Ġbirth":7606,"Ġremove":7607,"Ġmich":7608,"state":7609,"Ġversions":7610,"Ġ83":7611,"Ġserv":7612,"Ġspheroid":7613,"Ġsecure":7614,"Ġhundred":7615,"Ġgradually":7616,"Ġdroplet":7617,"ivari":7618,"partial":7619,"eroids":7620,"Ġcooled":7621,"Ġinterferometric":7622,"Ġmagnetoresistance":7623,"Ġopin":7624,"Ġelse":7625,"Ġdifficul":7626,"Ġmild":7627,"Ġminimize":7628,"bris":7629,"Ġsz":7630,"Ġtin":7631,"Ġlep":7632,"Ġzig":7633,"Ġrayleigh":7634,"Ġwalker":7635,"Ġlabeled":7636,"Ġquiet":7637,"ats":7638,"Ġhoneycomb":7639,"olding":7640,"Ġphotod":7641,"Ġstructured":7642,"Ġmagnetically":7643,"Ġdifficulties":7644,"Ġdeposition":7645,"Ġimplied":7646,"sica":7647,"skii":7648,"Ġconstitute":7649,"Ġcontributes":7650,"Ġjupiter":7651,"edge":7652,"Ġrm":7653,"yne":7654,"Ġround":7655,"uck":7656,"137":7657,"Ġqpo":7658,"Ġpolarizations":7659,"Ġcriticality":7660,"Ġneutralino":7661,"Ġorganized":7662,"fir":7663,"Ġvo":7664,"Ġmillis":7665,"Ġfainter":7666,"Ġkaon":7667,"Ġheterost":7668,"Ġword":7669,"omers":7670,"unct":7671,"Ġ53":7672,"Ġecho":7673,"iar":7674,"Ġdebris":7675,"Ġmodular":7676,"Ġdemonstration":7677,"lines":7678,"Ġgenetic":7679,"print":7680,"Ġaccounted":7681,"Ġcherenkov":7682,"Ġxy":7683,"Ġ48":7684,"Ġhera":7685,"Ġstabilized":7686,"Ġadmit":7687,"Ġdrops":7688,"Ġccd":7689,"anov":7690,"Ġsees":7691,"Ġdisplayed":7692,"thing":7693,"mail":7694,"Ġstop":7695,"stre":7696,"urface":7697,"Ġrescal":7698,"Ġformulate":7699,"Ġspontaneously":7700,"Ġeclipsing":7701,"tis":7702,"Ġbridge":7703,"atomic":7704,"Ġunchanged":7705,"Ġlinearized":7706,"veness":7707,"Ġbragg":7708,"Ġdatasets":7709,"Ġdeeper":7710,"Ġdich":7711,"Ġhr":7712,"Ġconformation":7713,"vectors":7714,"Ġbreakdown":7715,"Ġcapacit":7716,"Ġcarefully":7717,")=":7718,"orrelation":7719,"Ġdise":7720,"Ġslit":7721,"Ġconverge":7722,"Ġautoc":7723,"Ġepsf":7724,"Ġphotop":7725,"Ġheated":7726,"inski":7727,"Ġpartons":7728,"Ġtracks":7729,"Ġdeconf":7730,"with":7731,"ert":7732,"Ġdecade":7733,"Ġpowered":7734,"Ġdeterminations":7735,"Ġcdm":7736,"iliary":7737,"Ġcri":7738,"ellow":7739,"Ġdistortions":7740,"Ġabrupt":7741,"Ġ46":7742,"Ġtransferred":7743,"Ġcreating":7744,"Ġoxide":7745,"Ġkeeping":7746,"eshbach":7747,"Ġpseudogap":7748,"Ġphotospheric":7749,"Ġinputs":7750,"Ġenrichment":7751,"Ġforbidden":7752,"Ġauxiliary":7753,"hole":7754,"tau":7755,"Ġfeshbach":7756,"Ġmw":7757,"Ġmonotonically":7758,"Ġamorphous":7759,"Ġigm":7760,"Ġos":7761,"Ġbits":7762,"gev":7763,"Ġ67":7764,"Ġsquark":7765,"Ġmagnetohydro":7766,"Ġswitch":7767,"Ġreflecting":7768,"Ġsubtract":7769,"Ġpolariton":7770,"Ġplaquet":7771,"Ġdressed":7772,"ruption":7773,"Ġindication":7774,"Ġslopes":7775,"Ġionic":7776,"Ġopacity":7777,"Ġdisloc":7778,"Ġtraps":7779,"139":7780,"Ġseparating":7781,"Ġmember":7782,"Ġguide":7783,"Ġsampled":7784,"Ġdeduce":7785,"km":7786,"Ġatlas":7787,"Ġselective":7788,"Ġrelay":7789,"Ġsuppose":7790,"Ġloud":7791,"Ġprograms":7792,"Ġthoma":7793,"Ġcompac":7794,"Ġkr":7795,"Ġkeck":7796,"Ġabsorbers":7797,"Ġbackgrounds":7798,"Ġproportion":7799,"Ġrelationships":7800,"winger":7801,"]\\":7802,"Ġkick":7803,"Ġcouples":7804,"Ġlost":7805,"Ġorientations":7806,"Ġincomm":7807,"Ġfeasibility":7808,"gap":7809,"Ġhydrodynamical":7810,"Ġincorporate":7811,"rally":7812,"Ġitiner":7813,"Ġalloc":7814,"Ġschwinger":7815,"Ġhosts":7816,"Ġflex":7817,"Ġprol":7818,"Ġchap":7819,"opy":7820,"Ġjones":7821,"Ġrelic":7822,"conds":7823,"Ġstrongest":7824,"Ġcolloidal":7825,"Ġ91":7826,"Ġabsorber":7827,"Ġopportunity":7828,"Ġster":7829,"Ġproc":7830,"Ġeuropean":7831,"Ġtubes":7832,"1038":7833,"Ġdiscord":7834,"Ġcapabilities":7835,"Ġdecreased":7836,"Ġmillion":7837,"Ġplatform":7838,"Ġale":7839,"istically":7840,"ules":7841,"Ġasc":7842,"Ġartif":7843,"Ġsket":7844,"Ġdestroy":7845,"utrin":7846,"Ġadmits":7847,"Ġprice":7848,"Ġkol":7849,"Ġwhenever":7850,"Ġruled":7851,"dependence":7852,"can":7853,"Ġfed":7854,"Ġque":7855,"Ġ10000":7856,"Ġencoding":7857,"bons":7858,"Ġbud":7859,"Ġant":7860,"Ġdeformations":7861,"Ġcyclot":7862,"Ġnovae":7863,"Ġuc":7864,"Ġaxi":7865,"onov":7866,"Ġnucl":7867,"Ġgiants":7868,"Ġmillimeter":7869,"Ġdiverges":7870,"Ġreplace":7871,"Ġcontamination":7872,"Ġec":7873,"Ġcontour":7874,"Ġcharmon":7875,"Ġfulfill":7876,"Ġreliability":7877,"+(":7878,"qs":7879,"uma":7880,"Ġhin":7881,"Ġgem":7882,"Ġ160":7883,"Ġ38":7884,"onom":7885,"Ġportion":7886,"Ġbb":7887,"chy":7888,"chel":7889,"Ġdelays":7890,"Ġupdate":7891,"hs":7892,"Ġpock":7893,"Ġtry":7894,"Ġstock":7895,"Ġsust":7896,"Ġks":7897,"Ġpoinc":7898,"Ġjumps":7899,"Ġhead":7900,"dependent":7901,"Ġattached":7902,"min":7903,"matical":7904,"Ġ96":7905,"Ġ1991":7906,"Ġpdf":7907,"Ġimpossible":7908,"algeb":7909,"Ġtan":7910,"Ġmk":7911,"Ġ76":7912,"Ġutilizing":7913,"Ġdiagnostic":7914,"high":7915,"Ġstm":7916,"Ġshared":7917,"Ġ52":7918,"Ġemitters":7919,"Ġconjectured":7920,"Ġactivation":7921,"Ġincompressible":7922,"Ġsustain":7923,"Ġfsica":7924,"Ġ115":7925,"antom":7926,"Ġfunctionals":7927,"Ġsimilarities":7928,"Ġcolliding":7929,"yer":7930,"Ġdru":7931,"itch":7932,"imer":7933,"Ġsegreg":7934,"ensus":7935,"phase":7936,"Ġimbal":7937,"Ġglobally":7938,"Ġstringent":7939,"Ġthresholds":7940,"Ġsectors":7941,")-(":7942,"Ġaval":7943,"Ġstored":7944,"Ġexploited":7945,"Ġpsr":7946,"Ġconservative":7947,"Ġdissociation":7948,"pos":7949,"Ġquer":7950,"Ġmodelled":7951,"Ġterminal":7952,"Ġcreates":7953,"Ġphotoemission":7954,"Ġplayed":7955,"Ġnoncommutative":7956,"acian":7957,"Ġtransforms":7958,"astro":7959,"Ġinfn":7960,"exam":7961,"Ġtasks":7962,"Ġtruncation":7963,"Ġpredominantly":7964,"Ġbacter":7965,"ara":7966,"ico":7967,"Ġlda":7968,"essel":7969,"Ġderiving":7970,"Ġattempts":7971,"Ġoverlapping":7972,"Ġwet":7973,"Ġgcs":7974,"Ġmatches":7975,"Ġfalls":7976,"Ġtranslational":7977,"Ġprototype":7978,"Ġanc":7979,"Ġsheets":7980,"Ġsubtraction":7981,"stream":7982,"rae":7983,"Ġleaves":7984,"Ġcols":7985,"Ġsometimes":7986,"Ġlaun":7987,"Ġcaptures":7988,"Ġbilli":7989,"md":7990,"reci":7991,"Ġsupergravity":7992,"Ġschematic":7993,"Ġrandomness":7994,"Ġcircul":7995,"Ġbranes":7996,"gino":7997,"Ġcdf":7998,"Ġchecked":7999,"Ġrosat":8000,"Ġmultipole":8001,"Ġprev":8002,"Ġexclusion":8003,"Ġmismat":8004,"Ġitinerant":8005,"Ġblow":8006,"Ġmf":8007,"Ġwider":8008,"Ġdiscretization":8009,"Ġdevoted":8010,"Ġstabilization":8011,"Ġgoverning":8012,"Ġattenuation":8013,"tile":8014,"Ġwest":8015,"urg":8016,"Ġcham":8017,"Ġunid":8018,"Ġcompleteness":8019,"141":8020,"Ġnanoc":8021,"Ġiteration":8022,"^-":8023,"yle":8024,"ese":8025,"quely":8026,"Ġminimizing":8027,"Ġacknowledge":8028,"Ġavalan":8029,"feld":8030,"tr":8031,"inte":8032,"itation":8033,"Ġequatorial":8034,"Ġheur":8035,"iodic":8036,"Ġdeuteron":8037,"Ġmt":8038,"Ġsuff":8039,"Ġzn":8040,"Ġinsp":8041,"Ġelectrode":8042,"Ġstagger":8043,"Ġsps":8044,"Ġgenerically":8045,"Ġexcitonic":8046,"Ġsio":8047,"Ġavoiding":8048,"Ġquantified":8049,"Ġpermutation":8050,"Ġeigenfunctions":8051,"Ġginz":8052,"Ġgenerators":8053,"Ġmoderately":8054,"Ġoutbursts":8055,"Ġunfortun":8056,"Ġcohomology":8057,"col":8058,"Ġcme":8059,"Ġfash":8060,"Ġcurie":8061,"Ġnanoscale":8062,"Ġff":8063,"Ġkinematical":8064,"Ġwitness":8065,"omm":8066,"emical":8067,"Ġtraces":8068,"Ġformally":8069,"Ġbalanced":8070,"Ġdefinitions":8071,"Ġsynthes":8072,"Ġreferences":8073,"Ġblazars":8074,"Ġcyclotron":8075,"sq":8076,"mento":8077,"Ġunderes":8078,"ovich":8079,"Ġexciting":8080,"Ġminus":8081,"Ġoccurred":8082,"Ġunpreced":8083,"iqu":8084,"tron":8085,"Ġejected":8086,"Ġregge":8087,"Ġoutper":8088,"145":8089,"Ġincorporated":8090,"Ġsubmillimeter":8091,"Ġancill":8092,"Ġunprecedented":8093,"hal":8094,"atom":8095,"Ġbeg":8096,"Ġ61":8097,"Ġeigenstate":8098,"Ġcry":8099,"itous":8100,"Ġgri":8101,"ida":8102,"Ġlept":8103,"Ġappreci":8104,"Ġequals":8105,"Ġprobable":8106,"Ġsched":8107,"Ġ79":8108,"Ġcombines":8109,"Ġsatisfact":8110,"biased":8111,"Ġgibbs":8112,"Ġginzburg":8113,"Ġfading":8114,"isa":8115,"Ġles":8116,"Ġleave":8117,"Ġexplaining":8118,"Ġimproving":8119,"Ġphotoionization":8120,"Ġobstac":8121,"Ġfashion":8122,"sol":8123,"Ġfem":8124,"Ġlibr":8125,"142":8126,"Ġinfluenced":8127,"Ġincorporating":8128,"cular":8129,"Ġdb":8130,"ancing":8131,"Ġdisruption":8132,"Ġflight":8133,"Ġcontrols":8134,"Ġpossesses":8135,"Ġnanotube":8136,"Ġthomas":8137,"dw":8138,"zo":8139,"Ġtoy":8140,"Ġ44":8141,"Ġcomputationally":8142,"sically":8143,"Ġsan":8144,"rell":8145,"empor":8146,"Ġdecline":8147,"Ġvariant":8148,"Ġaccelerating":8149,"Ġworth":8150,"Ġbolometric":8151,"Ġoctet":8152,"Ġanticip":8153,"Ġergodic":8154,"Ġbim":8155,"Ġnine":8156,"Ġspain":8157,"Ġsegments":8158,"Ġfrequently":8159,"partimento":8160,"Ġellipticals":8161,"Ġfavored":8162,"Ġheavier":8163,"atically":8164,"nature":8165,"Ġsg":8166,"atch":8167,"Ġpairwise":8168,"Ġsinus":8169,"obser":8170,"Ġproofs":8171,"hlung":8172,"Ġhawking":8173,"Ġphotoproduction":8174,"Ġtric":8175,"berts":8176,"Ġsmbh":8177,"Ġbulges":8178,"Ġmagic":8179,"Ġexpanded":8180,"Ġinverted":8181,"Ġnanowires":8182,"Ġstiffness":8183,"+@":8184,"rection":8185,"Ġgord":8186,"oming":8187,"Ġspots":8188,"Ġdominance":8189,"while":8190,"Ġpanels":8191,"Ġriemannian":8192,"Ġacquired":8193,"Ġlaplacian":8194,"aign":8195,"Ġum":8196,"Ġds":8197,"Ġcontraction":8198,"Ġcolours":8199,"Ġoutl":8200,"144":8201,"Ġ92":8202,"Ġplasmonic":8203,"Ġvoltages":8204,"Ġpractically":8205,"Ġingredient":8206,"lar":8207,"Ġ180":8208,"Ġche":8209,"dec":8210,"Ġsublattice":8211,"Ġtraced":8212,"Ġwaals":8213,"Ġcapability":8214,"omorphisms":8215,"Ġaustral":8216,"based":8217,"hn":8218,"160":8219,"Ġmarch":8220,"Ġferroelectric":8221,"cas":8222,"exc":8223,"itable":8224,"Ġuniquely":8225,"Ġintrinsically":8226,"Ġunfortunately":8227,"quad":8228,"Ġcompressed":8229,"acc":8230,"Ġleak":8231,"nikov":8232,"Ġtransparent":8233,"Ġhistories":8234,"Ġbelonging":8235,"Ġhopf":8236,"olate":8237,"Ġunbiased":8238,"Ġinvis":8239,"Ġsummation":8240,"Ġbundle":8241,"uv":8242,"Ġreyn":8243,"Ġconsiders":8244,"Ġcorrelator":8245,"Ġcollege":8246,"Ġpoincar":8247,"ht":8248,"Ġspite":8249,"Ġalfv":8250,"Ġsuffer":8251,"abs":8252,"Ġkra":8253,"Ġmultif":8254,"Ġ88":8255,"Ġtune":8256,"Ġconverted":8257,"Ġspeeds":8258,"Ġinhomogeneities":8259,"Ġexplorer":8260,"Ġexposure":8261,"onium":8262,"Ġ130":8263,"Ġgrained":8264,"eval":8265,"ished":8266,"Ġrefractive":8267,"Ġthermalization":8268,"Ġnt":8269,"Ġmodules":8270,"Ġcasc":8271,"Ġpreserved":8272,"Ġinstanton":8273,"Ġmessage":8274,"Ġincommensurate":8275,"Ġrewr":8276,"oscow":8277,"Ġremoval":8278,"Ġcancel":8279,"truecm":8280,"df":8281,"tia":8282,"Ġpf":8283,"quis":8284,"Ġrelating":8285,"Ġorganization":8286,"Ġghost":8287,"Ġconcrete":8288,"Ġalfvn":8289,"*(":8290,"Ġenhances":8291,"Ġcrust":8292,"Ġglasses":8293,"Ġsummarized":8294,"umer":8295,"Ġutility":8296,"strahlung":8297,"Ġdecoupled":8298,"Ġtf":8299,"orov":8300,"Ġoutline":8301,"Ġvacancies":8302,"Ġequivalently":8303,"Ġvibration":8304,"Ġcancellation":8305,"Ġtraveling":8306,"Ġfalse":8307,"Ġubiqu":8308,"lumin":8309,"Ġhill":8310,"Ġletters":8311,"Ġcoincident":8312,"Ġforest":8313,"Ġaccommod":8314,"Ġgravitationally":8315,"Ġtotally":8316,"ril":8317,"Ġ250":8318,"Ġsimulating":8319,"ventional":8320,"Ġ72":8321,"ductive":8322,"Ġflatten":8323,"Ġregularity":8324,"ogenic":8325,"Ġsensors":8326,"Ġdisplacements":8327,"ville":8328,"Ġmoscow":8329,"Ġlf":8330,"146":8331,"402":8332,"Ġresponses":8333,"Ġevaluating":8334,"Ġfavorable":8335,"Ġdisappears":8336,"Ġolder":8337,"Ġneurons":8338,";\\":8339,"oys":8340,"Ġsaf":8341,"Ġcms":8342,"array":8343,"Ġframes":8344,"Ġnambu":8345,"Ġrestrictions":8346,"Ġbelongs":8347,"Ġpent":8348,"Ġlp":8349,"Ġkag":8350,"Ġiee":8351,"Ġlenses":8352,"Ġsweep":8353,"Ġdeposited":8354,"Ġheuristic":8355,"cra":8356,"Ġmol":8357,"elle":8358,"Ġdisag":8359,"physi":8360,"Ġtraining":8361,"Ġmultivari":8362,"Ġmembranes":8363,"Ġattracted":8364,"Ġenabling":8365,"first":8366,"]-":8367,"cil":8368,"Ġmit":8369,"Ġphantom":8370,"Ġrod":8371,"Ġhandle":8372,"Ġmorphologies":8373,"ogenesis":8374,"Ġpoorly":8375,"van":8376,"}(\\":8377,"isph":8378,"Ġsubjected":8379,"Ġlooking":8380,"Ġera":8381,"Ġkept":8382,"Ġ94":8383,"Ġreleased":8384,"Ġdeliver":8385,"Ġexceeding":8386,"})$":8387,"joint":8388,"Ġmb":8389,"Ġhab":8390,"Ġgy":8391,"Ġalpha":8392,"Ġfirstly":8393,"Ġcontras":8394,"Ġepit":8395,"Ġtechnologies":8396,"Ġposter":8397,"Ġsurrounded":8398,"Ġstro":8399,"imetric":8400,"Ġimped":8401,"arded":8402,"Ġmeta":8403,"Ġsmith":8404,"Ġmonitor":8405,"Ġstacking":8406,"Ġirradiation":8407,"Ġstaggered":8408,"Ġreynolds":8409,"Ġ125":8410,"Ġphotosphere":8411,"Ġlocked":8412,"Ġmanag":8413,"Ġemissions":8414,"Ġ56":8415,"Ġcrossings":8416,"Ġinterferometers":8417,"Ġconstitutes":8418,"Ġtilt":8419,"Ġepidemic":8420,"Ġrectangular":8421,"Ġcod":8422,"Ġef":8423,"Ġparti":8424,"aka":8425,"Ġaverages":8426,"Ġrelaxed":8427,"Ġrevealing":8428,"Ġachieving":8429,"Ġsubtle":8430,"Ġthous":8431,"imp":8432,"Ġmicroscop":8433,"Ġbonding":8434,"Ġgenuine":8435,"get":8436,"Ġstr":8437,"Ġroute":8438,"Ġattribute":8439,"Ġmuons":8440,"Ġhomot":8441,"Ġsecular":8442,"Ġundergoing":8443,"Ġbifurc":8444,"Ġkeplerian":8445,"Ġthousand":8446,"cell":8447,"zag":8448,"Ġshrin":8449,"direction":8450,"Ġimplementing":8451,"Ġultimately":8452,"Ġtendency":8453,"Ġupdated":8454,"Ġtetragonal":8455,"Ġsubsystems":8456,"Ġcampaign":8457,"tp":8458,"Ġstee":8459,"Ġric":8460,"Ġloading":8461,"Ġsunsp":8462,"Ġadapted":8463,"matrix":8464,"Ġresembles":8465,"Ġdub":8466,"ogram":8467,"Ġcalculus":8468,"Ġconflic":8469,"Ġlobe":8470,"Ġlensed":8471,"Ġhuge":8472,"Ġjaco":8473,"Ġlatitude":8474,"Ġprotoplanetary":8475,"rme":8476,"Ġnsf":8477,"Ġcontinue":8478,"Ġintracluster":8479,"url":8480,"Ġwavelet":8481,"Ġ63":8482,"Ġcontinuation":8483,"Ġmartin":8484,"Ġhelpful":8485,"Ġautomatically":8486,"010":8487,"Ġbis":8488,"Ġnag":8489,"odyne":8490,"Ġdistill":8491,"Ġ140":8492,"second":8493,"Ġdepar":8494,"Ġreflectivity":8495,"Ġdescriptions":8496,"Ġlogical":8497,"Ġdestruction":8498,"Ġtetrahed":8499,"Ġbohm":8500,"Ġincomplete":8501,"Ġgordon":8502,"ders":8503,"Ġstark":8504,"Ġdependencies":8505,"143":8506,"Ġprecurs":8507,"Ġentropic":8508,"Ġcommunications":8509,"Ġaccordingly":8510,"Ġrestriction":8511,"Ġachieves":8512,"Ġproposals":8513,"Ġlvy":8514,"=\\":8515,"inos":8516,"Ġ58":8517,"Ġadopting":8518,"Ġgoldstone":8519,"Ġantennas":8520,"gue":8521,"mev":8522,"Ġrelates":8523,"Ġ108":8524,"Ġconcentrate":8525,"Ġexploration":8526,"Ġreciprocal":8527,"Ġindistinguishable":8528,"Ġtb":8529,"Ġplastic":8530,"Ġpumped":8531,"Ġingredients":8532,"Ġintuitive":8533,"dynamic":8534,"Ġparall":8535,"istribution":8536,"Ġcolored":8537,"Ġspinning":8538,"Ġunderd":8539,"Ġuniaxial":8540,"Ġclosure":8541,"Ġcalibrated":8542,"Ġhemisph":8543,"ront":8544,"Ġsoon":8545,"scattering":8546,"Ġ106":8547,"Ġ69":8548,"Ġpersistence":8549,"car":8550,"Ġut":8551,"Ġleaving":8552,"Ġarcs":8553,"Ġimpul":8554,"Ġdefici":8555,"Ġthroughput":8556,"Ġsums":8557,"Ġinfluences":8558,"Ġsmoothly":8559,"Ġthorough":8560,"Ġzigzag":8561,"Ġnomin":8562,"iment":8563,"Ġkk":8564,"Ġkil":8565,"Ġperforms":8566,"Ġblackbody":8567,"heating":8568,"Ġpackage":8569,"Ġrxte":8570,"cz":8571,"Ġew":8572,"ructive":8573,"Ġdipoles":8574,"Ġprojecti":8575,"Ġconserving":8576,"Ġcommutative":8577,"Ġmillisecond":8578,"eties":8579,"Ġpush":8580,"Ġgray":8581,"Ġorbiting":8582,"valent":8583,"Ġremin":8584,"Ġblockade":8585,"Ġassemb":8586,"restrial":8587,"Ġcharmonium":8588,"Ġgeneralizes":8589,"Ġbins":8590,"Ġswim":8591,"Ġeclipse":8592,"Ġramp":8593,"ectiveness":8594,"fu":8595,"ym":8596,"ulti":8597,"Ġverification":8598,"Ġefficiencies":8599,"geness":8600,"Ġhypothes":8601,"Ġunconventional":8602,"Ġfb":8603,"Ġunpolarized":8604,"Ġreports":8605,"Ġclassically":8606,"Ġbreath":8607,"Ġtransients":8608,"Ġutilized":8609,"Ġsteeper":8610,"._":8611,"Ġbp":8612,"ticity":8613,"Ġshan":8614,"istor":8615,"Ġ109":8616,"Ġmasers":8617,"Ġorganic":8618,"Ġattractor":8619,"standing":8620,"Ġparallax":8621,"nucle":8622,"Ġwaven":8623,"Ġdras":8624,"Ġoveres":8625,"Ġsuppl":8626,"Ġquintess":8627,"fast":8628,"Ġroad":8629,"msstrahlung":8630,"Ġpriv":8631,"Ġroughness":8632,"Ġdesirable":8633,"Ġacadem":8634,"Ġsq":8635,"Ġanhar":8636,"Ġlind":8637,"Ġasteroids":8638,"Ġantisymmetric":8639,"Ġstarbursts":8640,"Ġdrastically":8641,",#":8642,"tran":8643,"Ġhh":8644,"Ġ113":8645,"acial":8646,"Ġscalars":8647,"ghz":8648,"Ġ41":8649,"180":8650,"Ġimplementations":8651,"Ġturning":8652,"Ġunambiguously":8653,"tor":8654,"Ġfinitely":8655,"Ġtopics":8656,"Ġbroader":8657,"Ġserves":8658,"amped":8659,"Ġvibrations":8660,"Ġfacility":8661,"Ġshadowing":8662,"Ġfano":8663,"Ġalle":8664,"ander":8665,"Ġeffectiveness":8666,"Ġexploring":8667,"Ġindicative":8668,"Ġharv":8669,"Ġdivergen":8670,"Ġparadox":8671,"Ġmarginally":8672,"Ġautocorrelation":8673,"reds":8674,"Ġtopic":8675,"403":8676,"Ġbremsstrahlung":8677,"Ġsplitter":8678,"Ġturned":8679,"Ġcausing":8680,"Ġsterile":8681,"Ġmultivariate":8682,"cast":8683,"ller":8684,"Ġincorporates":8685,"Ġremoving":8686,"Ġobviously":8687,"Ġfault":8688,"orth":8689,"Ġeit":8690,"Ġlc":8691,"ury":8692,"ional":8693,"Ġ1990":8694,"Ġdirectional":8695,"Ġskyrme":8696,"Ġavoided":8697,"Ġhundreds":8698,"Ġmimo":8699,"},-":8700,"Ġbz":8701,"Ġhope":8702,"iger":8703,"izer":8704,"Ġreplacing":8705,"Ġdicke":8706,"defini":8707,"dc":8708,"modes":8709,"Ġcau":8710,"Ġinher":8711,"Ġbf":8712,"usc":8713,"oseism":8714,"Ġoutgoing":8715,"Ġxx":8716,"Ġpulsation":8717,"Ġdmrg":8718,"abstract":8719,"Ġkel":8720,"Ġencl":8721,"Ġoptimize":8722,"Ġsubmitted":8723,"Ġfabrication":8724,")$":8725,"Ġcen":8726,"Ġwu":8727,"Ġdoc":8728,"Ġrpa":8729,"Ġjuly":8730,"Ġdesy":8731,"Ġgrest":8732,"hr":8733,"Ġcft":8734,"icti":8735,"Ġstan":8736,"Ġ07":8737,"Ġdrives":8738,"Ġaug":8739,"Ġmultiplex":8740,"Ġlyrae":8741,"Ġcooperation":8742,"board":8743,"laton":8744,"Ġconjunction":8745,"Ġcompeti":8746,"})+(":8747,"Ġcontributing":8748,"manifolds":8749,"Ġari":8750,"Ġbow":8751,"Ġexhibited":8752,"Ġrestrict":8753,"Ġfcc":8754,"orption":8755,"ople":8756,"ago":8757,"Ġ08":8758,"Ġyan":8759,"Ġinflaton":8760,"Ġenter":8761,"Ġpackets":8762,"Ġsubstrates":8763,"Ġassigned":8764,"head":8765,"inf":8766,"Ġny":8767,"Ġcompil":8768,"Ġdependences":8769,"Ġantiquark":8770,"romagnetically":8771,"normal":8772,"Ġdept":8773,"Ġsuperior":8774,"151":8775,"cia":8776,"Ġsignaling":8777,"Ġellipso":8778,"Ġwan":8779,"quant":8780,"Ġjune":8781,"Ġabell":8782,"Ġlocality":8783,"Ġmonoch":8784,"Ġindicators":8785,"Ġsynchronized":8786,"Ġvlbi":8787,"Ġstran":8788,"Ġkoh":8789,"Ġcorner":8790,"Ġboard":8791,"Ġdistorted":8792,"Ġimpose":8793,"Ġalloys":8794,"Ġcryp":8795,"Ġoptimum":8796,"Ġscreened":8797,"Ġgsave":8798,"Ġgrestore":8799,"nelling":8800,"elli":8801,"Ġbiases":8802,"Ġamplifier":8803,"Ġieee":8804,"Ġnc":8805,"ocentric":8806,"Ġdiverse":8807,"Ġplayers":8808,"Ġstarted":8809,"Ġproposition":8810,"Ġpredictive":8811,"Ġbelle":8812,"Ġdiscrepancies":8813,"wavelength":8814,"corollary":8815,"Ġelongated":8816,"sqrt":8817,"][":8818,"kker":8819,"Ġpick":8820,"Ġforth":8821,"Ġalkal":8822,"Ġpark":8823,"sson":8824,"akes":8825,"Ġenumer":8826,"Ġindependence":8827,"linic":8828,"Ġsplittings":8829,"Ġnorthern":8830,"Ġfabricated":8831,"Ġnanowire":8832,"Ġsent":8833,"Ġcast":8834,"ella":8835,"ecube":8836,"Ġbalmer":8837,"Ġicm":8838,"Ġinhomogeneity":8839,"lattices":8840,"cmin":8841,"Ġstretching":8842,"Ġpne":8843,"ember":8844,"Ġadve":8845,"oving":8846,"Ġqkd":8847,"atories":8848,"Ġconstraining":8849,"Ġexplosions":8850,"Ġdepths":8851,"Ġmutually":8852,"Ġarrows":8853,"Ġmonths":8854,"utrino":8855,"craft":8856,"neg":8857,"Ġple":8858,"Ġbd":8859,"Ġ54":8860,"301":8861,"Ġaimed":8862,"Ġmotivation":8863,"Ġclaimed":8864,"Ġislands":8865,"Ġpenetration":8866,"Ġcard":8867,"Ġpurity":8868,"Ġsimons":8869,"Ġposed":8870,"ips":8871,"Ġstands":8872,"Ġaims":8873,"Ġprojections":8874,"Ġsurvive":8875,"Ġtilted":8876,"Ġheavily":8877,"manifold":8878,"Ġnanostructures":8879,"Ġconcerned":8880,"Ġaccordance":8881,"Ġcrab":8882,"lections":8883,"Ġking":8884,"ysh":8885,"Ġroots":8886,"Ġswitzer":8887,"Ġpreserve":8888,"Ġdiscriminate":8889,"Ġlithium":8890,"definition":8891,"onds":8892,"Ġmsc":8893,"rome":8894,"Ġdipartimento":8895,"Ġmagnets":8896,"Ġequality":8897,"Ġpolarisation":8898,"Ġpolyg":8899,"Ġshortest":8900,"Ġvolumes":8901,"Ġcollisionless":8902,"Ġsuppresses":8903,"Ġinterpolation":8904,"Ġswitzerland":8905,"ef":8906,"Ġemail":8907,"Ġlot":8908,"Ġdiquark":8909,"002":8910,"Ġ107":8911,"Ġplasm":8912,"planar":8913,"Ġstatement":8914,"Ġstimulated":8915,"Ġservice":8916,"Ġmismatch":8917,"Ġpad":8918,"Ġbessel":8919,"Ġeve":8920,"ower":8921,"Ġrna":8922,"Ġroberts":8923,"Ġmultilayer":8924,"auer":8925,"Ġstatistic":8926,"Ġadjoint":8927,"Ġdilaton":8928,"Ġopinion":8929,"Ġquintessence":8930,"bb":8931,"hes":8932,"log":8933,"oni":8934,"Ġuns":8935,"Ġyama":8936,"Ġfreely":8937,"Ġ1987":8938,"Ġorigins":8939,"Ġtoric":8940,"Ġdroplets":8941,"Ġpiecewise":8942,"Ġannealing":8943,"tio":8944,"Ġpg":8945,"Ġtreating":8946,"Ġantiferromagnet":8947,"Ġicecube":8948,"Ġdimers":8949,"Ġadjusted":8950,"recently":8951,"kb":8952,"mog":8953,"Ġask":8954,"Ġparameterized":8955,"Ġpeople":8956,"Ġinertia":8957,"Ġexceptional":8958,"Ġseesaw":8959,"Ġtent":8960,"Ġmand":8961,"Ġseconds":8962,"Ġflaring":8963,"Ġindicator":8964,"cially":8965,"Ġgravitating":8966,"Ġseds":8967,"Ġterrestrial":8968,"ech":8969,"Ġquoti":8970,"ichlet":8971,"Ġpresuma":8972,"Ġpredicting":8973,"Ġoperate":8974,"Ġtunnelling":8975,"Ġpartly":8976,"Ġhelm":8977,"Ġsearching":8978,"rime":8979,"leton":8980,"Ġdisent":8981,"Ġassociations":8982,"Ġhypers":8983,"Ġtensors":8984,"Ġmachines":8985,"Ġdiscontinuity":8986,"Ġdirichlet":8987,"Ġys":8988,"tives":8989,"Ġpitaev":8990,"Ġwant":8991,"Ġey":8992,"Ġhome":8993,"003":8994,"fully":8995,"Ġstrangeness":8996,"Ġfring":8997,"Ġreversible":8998,"Ġmal":8999,"ressive":9000,"155":9001,"Ġsecondly":9002,"classical":9003,"Ġmirrors":9004,"Ġenergetically":9005,"Ġphysique":9006,"Ġtemplate":9007,"Ġsuspension":9008,"Ġpresumably":9009,"Ġmart":9010,"Ġcategories":9011,"Ġrevisit":9012,"Ġsecret":9013,"Ġclon":9014,"149":9015,"nier":9016,"Ġintegers":9017,"Ġgeometrically":9018,"instit":9019,"Ġhorizons":9020,"Ġcoordination":9021,"Ġaccompl":9022,"dad":9023,"Ġpip":9024,"Ġseman":9025,"Ġimmediate":9026,"147":9027,"Ġcharacterizes":9028,"magne":9029,"Ġsevere":9030,"Ġuncover":9031,"]#":9032,"kel":9033,"Ġdar":9034,"Ġdys":9035,"Ġtro":9036,"Ġexer":9037,"oclinic":9038,"Ġ51":9039,"Ġcrosses":9040,"Ġinstances":9041,"sonic":9042,"Ġvlt":9043,"Ġpermittivity":9044,"Ġperipher":9045,"Ġfrozen":9046,"proposition":9047,"Ġthermoelectric":9048,"Ġinterfacial":9049,"Ġpitaevskii":9050,"Ġsizable":9051,"Ġtach":9052,"Ġbist":9053,"Ġbag":9054,"vec":9055,"acly":9056,"Ġrow":9057,"queness":9058,"Ġfitness":9059,"Ġbreakup":9060,"Ġcorrecting":9061,"Ġnaive":9062,"Ġdiscrimination":9063,"Ġgeodesics":9064,"ius":9065,"Ġcrow":9066,"Ġbru":9067,"eles":9068,"Ġrv":9069,"Ġrub":9070,"Ġbecoming":9071,"Ġparameterization":9072,"Ġflash":9073,"Ġgaussianity":9074,"smic":9075,"Ġdivergent":9076,"Ġadsorbed":9077,"Ġobeys":9078,"Ġalex":9079,"Ġbuck":9080,"Ġbook":9081,"Ġqgp":9082,"Ġcart":9083,"Ġsubstructure":9084,"aclysmic":9085,"ired":9086,"nuclear":9087,"Ġcb":9088,"Ġ...":9089,"Ġbab":9090,"lear":9091,"ilab":9092,"channel":9093,"Ġlobes":9094,"Ġextracting":9095,"Ġlifsh":9096,"Ġpersists":9097,"Ġcoalescence":9098,"Ġreminis":9099,"peter":9100,"tl":9101,"Ġnas":9102,"Ġnls":9103,"Ġrising":9104,"Ġaugment":9105,"Ġensures":9106,"Ġexclude":9107,"Ġrepeat":9108,"rupted":9109,"Ġenabled":9110,"Ġsinusoidal":9111,"Ġjacobi":9112,"Ġpresently":9113,"Ġundet":9114,"Ġdifferently":9115,"Ġmodulations":9116,"Ġtechnological":9117,"Ġnebular":9118,"Ġarcsec":9119,"hen":9120,"oot":9121,"pass":9122,"Ġpi":9123,"Ġexter":9124,"ecting":9125,"Ġdisjoint":9126,"Ġcomoving":9127,"Ġmov":9128,"Ġregul":9129,"Ġspinless":9130,"Ġimposing":9131,"Ġranged":9132,"Ġtract":9133,"rystall":9134,"Ġmacro":9135,"Ġadiabatically":9136,"Ġaccumulation":9137,"Ġconstructions":9138,"Ġmicroscope":9139,"han":9140,"pn":9141,"empl":9142,"idal":9143,"Ġtwin":9144,"Ġcataclysmic":9145,"Ġpermits":9146,"Ġcatalogs":9147,"Ġrecognition":9148,"Ġequipped":9149,"Ġaugust":9150,"arat":9151,"Ġrear":9152,"Ġspur":9153,"Ġfacult":9154,"Ġreservoirs":9155,"Ġneglecting":9156,"Ġallocation":9157,"Ġsen":9158,"Ġrein":9159,"Ġkitaev":9160,"Ġenters":9161,"Ġlaplace":9162,"&=":9163,"eff":9164,"Ġexit":9165,"Ġuniqueness":9166,"Ġ104":9167,"Ġimaged":9168,"irection":9169,"Ġdiagnostics":9170,"Ġsatisfactory":9171,"],":9172,"_/":9173,"bos":9174,"rically":9175,"reson":9176,"Ġinflow":9177,"Ġmultipartite":9178,"Ġminutes":9179,"Ġeigenvectors":9180,"Ġferromagnetism":9181,"Ġpoland":9182,"Ġpreserves":9183,"Ġcopies":9184,"Ġnonlocality":9185,"Ġpatches":9186,"Ġacademy":9187,"Ġreminiscent":9188,"name":9189,"Ġsaw":9190,"Ġok":9191,"Ġasca":9192,"anted":9193,"aday":9194,"Ġmoun":9195,"Ġwavevector":9196,"Ġsubsets":9197,"Ġacceptance":9198,"Ġprotostellar":9199,"Ġassembled":9200,"quantum":9201,"Ġlifshitz":9202,"zi":9203,"Ġkp":9204,"Ġunre":9205,"Ġgraphical":9206,"Ġuh":9207,"Ġoctahed":9208,"Ġfamiliar":9209,"Ġstretched":9210,"Ġadequate":9211,"Ġdivergences":9212,"lich":9213,"Ġsant":9214,"Ġfission":9215,"Ġpore":9216,"Ġacs":9217,"Ġnotably":9218,"Ġtransiting":9219,"Ġvariants":9220,"Ġhyd":9221,"Ġstacked":9222,"Ġcontinues":9223,"mag":9224,"Ġwake":9225,"Ġfib":9226,"Ġmangan":9227,"170":9228,"Ġoxford":9229,"proton":9230,"Ġeliminate":9231,"Ġoutlined":9232,"Ġcrypt":9233,"entr":9234,"Ġcones":9235,"sey":9236,"Ġplaces":9237,"Ġfokker":9238,"152":9239,"Ġferromagnet":9240,"Ġillustrates":9241,"appa":9242,"Ġimbalance":9243,"langle":9244,"Ġpresentation":9245,"Ġtopologies":9246,"Ġpulsations":9247,"Ġdeeply":9248,"Ġreversed":9249,"Ġeuv":9250,"Ġappeared":9251,"itting":9252,"Ġwimp":9253,"Ġelectronics":9254,"Ġgenerality":9255,"Ġrealizing":9256,"Ġfermilab":9257,"Ġrefraction":9258,"Ġcontinuity":9259,"Ġcyg":9260,"Ġclosest":9261,"Ġglassy":9262,"Ġcircularly":9263,"Ġsalpeter":9264,"Ġmimic":9265,"Ġelsewhere":9266,"Ġforced":9267,"Ġirac":9268,"Ġgeneralizations":9269,"Ġmultim":9270,"501":9271,"Ġfixing":9272,"ombic":9273,"Ġconsecu":9274,"Ġcausality":9275,"Ġafterglows":9276,"}_{\\":9277,"orh":9278,"Ġvide":9279,"Ġunion":9280,"Ġvolati":9281,"Ġaccreted":9282,"Ġindia":9283,"Ġcygn":9284,"Ġentropies":9285,"rasolar":9286,"Ġmultiplic":9287,"Ġblazar":9288,"wide":9289,"Ġfd":9290,"Ġbrid":9291,"ros":9292,"Ġisomorphic":9293,"Ġobli":9294,"eva":9295,"Ġifx":9296,"Ġtracing":9297,"Ġoperational":9298,"Ġtracer":9299,"Ġparametrized":9300,"Ġmonopoles":9301,"Ġpermutations":9302,"Ġplaquette":9303,"Ġsegregation":9304,"ela":9305,"Ġfocal":9306,"Ġcontrollable":9307,"Ġbrain":9308,"Ġmaximize":9309,"Ġsociety":9310,"Ġubiquitous":9311,"Ġahar":9312,"Ġsv":9313,"Ġped":9314,"Ġproving":9315,"Ġdece":9316,"Ġindications":9317,"502":9318,"Ġthermodynamical":9319,"Ġasymptotics":9320,"Ġfacilities":9321,"Ġexplanations":9322,"Ġprepare":9323,"lab":9324,"vation":9325,"Ġsas":9326,"Ġmats":9327,"ichi":9328,"acies":9329,"Ġlect":9330,"Ġrout":9331,"Ġsubgraph":9332,"Ġspacecraft":9333,"Ġaging":9334,"Ġauger":9335,"Ġpropagators":9336,"Ġorion":9337,"brane":9338,"Ġvorticity":9339,"Ġsdw":9340,"Ġacknowledges":9341,"Ġfacilitate":9342,"Ġspheroidal":9343,"Ġschedul":9344,"bif":9345,"Ġthom":9346,"term":9347,"aded":9348,"Ġcollect":9349,"Ġarcmin":9350,"Ġzen":9351,"Ġsnap":9352,"Ġoccupancy":9353,"Ġguarantee":9354,"Ġcepheids":9355,"Ġfriedmann":9356,"iling":9357,"Ġinterband":9358,"Ġpaul":9359,"science":9360,"156":9361,"Ġfaraday":9362,"bye":9363,"Ġoxides":9364,"Ġmanifestation":9365,"Ġhomotopy":9366,"Ġexterior":9367,"rystalline":9368,"sis":9369,"Ġsort":9370,"ister":9371,"esimal":9372,"Ġdress":9373,"Ġbore":9374,"lets":9375,"Ġstein":9376,"Ġexchang":9377,"Ġtransc":9378,"Ġextrasolar":9379,"Ġhamilton":9380,"model":9381,"Ġvalidate":9382,"Ġpolic":9383,"Ġacquire":9384,"Ġprototyp":9385,"var":9386,"alc":9387,"Ġapparat":9388,"Ġdetach":9389,"158":9390,"Ġmonod":9391,"Ġestablishing":9392,"Ġreliably":9393,"Ġrecurrence":9394,"Ġmeaningful":9395,"Ġavalanche":9396,"Ġcauchy":9397,"{{\\":9398,"Ġig":9399,"Ġcust":9400,"Ġinhibit":9401,"Ġbrack":9402,"Ġhv":9403,"Ġconference":9404,"Ġmad":9405,"Ġdebye":9406,"ovsk":9407,"Ġ66":9408,"Ġsearched":9409,"height":9410,"Ġultrafast":9411,"Ġsuitably":9412,"Ġpurposes":9413,"Ġisotope":9414,"Ġreturns":9415,"Ġdrude":9416,"bru":9417,"mi":9418,"rability":9419,"Ġalt":9420,"Ġoption":9421,"berger":9422,"ponent":9423,"Ġqpos":9424,"Ġhydrostatic":9425,"itesimal":9426,"Ġadvance":9427,"sche":9428,"Ġtightly":9429,"Ġastrometric":9430,"Ġapparatus":9431,"ln":9432,"ume":9433,"Ġkram":9434,"dust":9435,"Ġinterven":9436,"Ġclassic":9437,"Ġcrossed":9438,"Ġsecondoftwo":9439,"Ġunclear":9440,"Ġreproducing":9441,"Ġcollapsing":9442,"ophys":9443,"Ġrgb":9444,"Ġfireball":9445,"firstoftwo":9446,"site":9447,"ref":9448,"Ġsept":9449,"Ġsubc":9450,"Ġlimitation":9451,"Ġconsensus":9452,"Ġqc":9453,"Ġentering":9454,"Ġinfinitesimal":9455,"Ġplanetesimal":9456,"Ġswitched":9457,"Ġcuprate":9458,"Ġky":9459,"Ġspectroscopically":9460,"ilepton":9461,"Ġcorrelators":9462,"Ġsett":9463,"spaces":9464,"Ġignored":9465,"Ġactivated":9466,"Ġpolaritons":9467,"Ġjohns":9468,"Ġpublication":9469,"ober":9470,"issivity":9471,"Ġtc":9472,"ermost":9473,"olecular":9474,"Ġqmc":9475,"ierls":9476,"Ġcommunities":9477,"Ġsalt":9478,"Ġhappen":9479,"Ġdivis":9480,"Ġpreferentially":9481,"Ġdyson":9482,"},\\":9483,"Ġwealth":9484,"Ġdeath":9485,"Ġliou":9486,"Ġentries":9487,"romagnets":9488,"Ġstrand":9489,"Ġorthorh":9490,"Ġfalling":9491,"Ġcopper":9492,"Ġkolmog":9493,"font":9494,"wan":9495,"xs":9496,"Ġineffici":9497,"cont":9498,"Ġzones":9499,"201":9500,"Ġassociate":9501,"Ġnormally":9502,"Ġhomodyne":9503,"Ġconcerns":9504,"Ġflavors":9505,"Ġencountered":9506,"super":9507,"bling":9508,"Ġwish":9509,"Ġvast":9510,"Ġ09":9511,"Ġviolated":9512,"Ġdiffe":9513,"Ġdominating":9514,"Ġillustration":9515,"Ġstreams":9516,"Ġtangential":9517,"holtz":9518,"Ġquartic":9519,"Ġliving":9520,"Ġdisease":9521,"ae":9522,"Ġaid":9523,"Ġsma":9524,"apes":9525,"Ġreality":9526,"Ġhelps":9527,"Ġsnrs":9528,"Ġcircumst":9529,"Ġtangent":9530,"Ġaccumulated":9531,"Ġcompressible":9532,"Ġlmx":9533,"Ġkolmogorov":9534,"Ġisra":9535,"Ġspars":9536,"Ġraw":9537,"Ġpreprint":9538,"Ġvarieties":9539,"Ġsubd":9540,"Ġcorrelate":9541,"Ġlightcur":9542,"Ġexamining":9543,"Ġproto":9544,"Ġappropriately":9545,"Ġirrele":9546,"Ġclaims":9547,"Ġcomprising":9548,"Ġbundles":9549,"Ġunambiguous":9550,"comp":9551,"sb":9552,"Ġbid":9553,"Ġrema":9554,"Ġhamb":9555,"ete":9556,"Ġshif":9557,"ynch":9558,"disper":9559,"ji":9560,"Ġckm":9561,"olis":9562,"Ġexempl":9563,"Ġconcur":9564,"Ġlagrange":9565,"Ġdeceleration":9566,"Ġelucidate":9567,"integ":9568,"hard":9569,"Ġtp":9570,"Ġsuperradi":9571,"Ġspeculate":9572,"Ġmicron":9573,"Ġbackscattering":9574,"Ġirres":9575,"Ġargon":9576,"Ġhardware":9577,"Ġeasier":9578,"Ġcontamin":9579,"kev":9580,"Ġbus":9581,"imetry":9582,"Ġcoma":9583,"Ġchir":9584,"Ġ59":9585,"tivated":9586,"Ġelasticity":9587,"Ġsilica":9588,"Ġcomputers":9589,"Ġenvelopes":9590,"cuo":9591,"Ġextrapolated":9592,"Ġproceeds":9593,"Ġarrive":9594,"Ġcompetitive":9595,"mode":9596,"Ġpeierls":9597,"Ġopposed":9598,"Ġautomata":9599,"Ġenriched":9600,"Ġomitted":9601,"Ġribbon":9602,"Ġartifact":9603,"Ġdeparture":9604,"Ġprojectile":9605,"[#":9606,"ey":9607,"Ġfif":9608,"Ġdt":9609,"Ġexec":9610,"Ġmodule":9611,"Ġimmers":9612,"Ġglue":9613,"Ġinterpretations":9614,"beit":9615,"Ġutilize":9616,"Ġoctober":9617,"Ġbump":9618,"ette":9619,"Ġkur":9620,"^{(":9621,"Ġhistor":9622,"Ġprimitive":9623,"Ġresummation":9624,"Ġmonochromatic":9625,"irectional":9626,"Ġisrael":9627,"dy":9628,"fi":9629,"pin":9630,"Ġsoph":9631,"Ġlighter":9632,"Ġphosph":9633,"Ġplanned":9634,"Ġapril":9635,"148":9636,"oked":9637,"Ġyounger":9638,"Ġmotor":9639,"Ġbounce":9640,"Ġcritically":9641,"dagger":9642,"new":9643,"ison":9644,"asure":9645,"Ġ117":9646,"Ġnonclassical":9647,"Ġscalable":9648,"escent":9649,"hertz":9650,"Ġoptimally":9651,"Ġpockets":9652,"Ġconsecutive":9653,"Ġsophistic":9654,"ather":9655,"Ġbcc":9656,"otes":9657,"acting":9658,"Ġradially":9659,"physical":9660,"Ġcommensurate":9661,"Ġrigor":9662,"Ġinnermost":9663,"Ġsynthesized":9664,"Ġirrelevant":9665,"oured":9666,"Ġsag":9667,"Ġhers":9668,"Ġves":9669,"Ġbiology":9670,"Ġperturbatively":9671,"Ġequilibration":9672,"Ġadvection":9673,"Ġdecember":9674,"Ġridge":9675,"periodic":9676,"Ġrc":9677,"Ġcollima":9678,"Ġmetro":9679,"cdot":9680,"Ġmicrost":9681,"Ġdistinguishing":9682,"Ġdimin":9683,"Ġresolving":9684,"Ġretrieval":9685,"Ġmultiplicative":9686,"Ġremained":9687,"Ġoc":9688,"enko":9689,"aru":9690,"Ġnav":9691,"Ġhair":9692,"Ġsuz":9693,"Ġalloy":9694,"ishing":9695,"Ġintegrability":9696,"Ġcontinued":9697,"Ġfocuses":9698,"Ġhomogen":9699,"clic":9700,"ournals":9701,"Ġtiny":9702,"Ġeast":9703,"Ġnw":9704,"Ġmagnification":9705,"Ġgeneralizing":9706,"Ġwavef":9707,"ropic":9708,"avier":9709,"epsilon":9710,"Ġoutputs":9711,"Ġperme":9712,"Ġconceptual":9713,"Ġstripes":9714,"Ġinstrumental":9715,"Ġohmic":9716,"Ġwormhole":9717,"Ġuniversidad":9718,"Ġbifurcations":9719,"Ġhelmholtz":9720,"alcogen":9721,"Ġorthorhombic":9722,"bas":9723,"Ġalbeit":9724,"Ġdilepton":9725,"Ġtherein":9726,"157":9727,"Ġnanor":9728,"Ġnamed":9729,"Ġconstituents":9730,"Ġresemble":9731,"Ġspringer":9732,"Ġbilliard":9733,"Ġsunspot":9734,"dot":9735,"hy":9736,"mos":9737,"nm":9738,"Ġwes":9739,"Ġdsph":9740,"level":9741,"Ġ-.":9742,"Ġresc":9743,"Ġcorro":9744,"spec":9745,"book":9746,"Ġsaid":9747,"Ġjustif":9748,"Ġdamage":9749,"Ġhamburg":9750,"ank":9751,"ulsion":9752,"Ġvice":9753,"Ġratch":9754,"Ġperman":9755,"Ġmanusc":9756,"ections":9757,"Ġinteracts":9758,"Ġaffecting":9759,"Ġmonotone":9760,"Ġpuzzle":9761,"ileptonic":9762,"win":9763,"Ġoce":9764,"Ġeg":9765,"oder":9766,"Ġalumin":9767,"irgs":9768,"keley":9769,"Ġtrial":9770,"Ġantiproton":9771,"Ġredund":9772,"Ġcarries":9773,"Ġepr":9774,"Ġpenal":9775,"Ġprescribed":9776,"Ġimmersed":9777,"Ġcep":9778,"ett":9779,"osecond":9780,"ectrum":9781,"Ġsuble":9782,"Ġobservers":9783,"Ġevolutions":9784,"Ġhereafter":9785,"Ġ1989":9786,"Ġ600":9787,"Ġresultant":9788,"Ġmonomer":9789,"ĠĠĠĠĠĠ":9790,"Ġserious":9791,"Ġremote":9792,"Ġdesigns":9793,"Ġviewpoint":9794,"Ġorientational":9795,"Ġsteering":9796,"ahn":9797,"Ġinitiated":9798,"Ġchromospheric":9799,"Ġwannier":9800,")/":9801,"oration":9802,"Ġnr":9803,"Ġpreced":9804,"Ġemb":9805,"Ġ102":9806,"Ġelabor":9807,"Ġfundamentally":9808,"Ġdegeneracies":9809,"Ġsetups":9810,"Ġstabilize":9811,"Ġirreversible":9812,"Ġbegins":9813,"Ġpartitions":9814,"Ġmanuscript":9815,"Ġmjy":9816,"Ġstated":9817,"Ġshiel":9818,"Ġorbif":9819,"Ġeso":9820,"auber":9821,"Ġbroadened":9822,"Ġhardness":9823,"Ġempirically":9824,"motivated":9825,"Ġjustified":9826,"university":9827,"physik":9828,"*.":9829,"cin":9830,"det":9831,"vare":9832,"etriz":9833,"earing":9834,"Ġnanob":9835,"Ġcopy":9836,"atoire":9837,"Ġimpedance":9838,"Ġdocument":9839,"kpc":9840,"lity":9841,"Ġdl":9842,"Ġtell":9843,"Ġperovsk":9844,"Ġarran":9845,"Ġcompleted":9846,"Ġsilicate":9847,"Ġpasses":9848,"Ġunusually":9849,"Ġaharonov":9850,"Ġirrespective":9851,"dane":9852,"uary":9853,"Ġhen":9854,"etti":9855,"Ġscope":9856,"Ġpah":9857,"Ġexposed":9858,"Ġspintron":9859,"condition":9860,"partition":9861,"Ġsupply":9862,"Ġreplica":9863,"Ġlieb":9864,"Ġprotection":9865,"Ġfavors":9866,"Ġproceedings":9867,"Ġdegrad":9868,"Ġpolarizability":9869,"Ġflexibility":9870,"Ġisoch":9871,"Ġparties":9872,"Ġchi":9873,"agraph":9874,"astron":9875,"Ġidler":9876,"Ġsolver":9877,"153":9878,"Ġmonomers":9879,"Ġsmoothing":9880,"Ġdistinction":9881,"Ġincorrect":9882,"points":9883,"Ġdestroyed":9884,"Ġmultifract":9885,"Ġclu":9886,"rov":9887,"Ġcomments":9888,"Ġip":9889,"005":9890,"Ġroles":9891,"Ġpopulated":9892,"Ġmovement":9893,"Ġinclined":9894,"Ġcompressibility":9895,"Ġsemimetal":9896,"Ġrigorously":9897,"fm":9898,"len":9899,"mpc":9900,"Ġtheor":9901,"Ġgn":9902,"urus":9903,"Ġoutward":9904,"olean":9905,"Ġoperated":9906,"Ġsemileptonic":9907,"Ġcoherently":9908,"Ġconcluded":9909,"Ġdecomposed":9910,"Ġboron":9911,"Ġencounters":9912,"Ġbenefit":9913,"Ġunbounded":9914,"Ġlibrary":9915,"Ġjohnson":9916,"Ġherschel":9917,"finite":9918,"Ġtl":9919,"Ġnotions":9920,"uba":9921,"rought":9922,"Ġhaldane":9923,"Ġindividually":9924,"Ġcertainly":9925,"issner":9926,"Ġrecurrent":9927,"imetre":9928,"interacting":9929,"Ġreactor":9930,"Ġheterostructures":9931,"not":9932,"orbit":9933,"Ġhaus":9934,"Ġgave":9935,"Ġidentities":9936,"Ġmerge":9937,"Ġveh":9938,"Ġcumulative":9939,"Ġguarantees":9940,"Ġnested":9941,"Ġtachy":9942,"Ġnonthermal":9943,"Ġphotoc":9944,"Ġheights":9945,"Ġphotoelectron":9946,"Ġcalorimeter":9947,"canonical":9948,"210":9949,"lag":9950,"isper":9951,"Ġbrought":9952,"Ġchance":9953,"Ġboolean":9954,"Ġclif":9955,"Ġequilibri":9956,"Ġtransvers":9957,"Ġ103":9958,"Ġlinearity":9959,"Ġcosts":9960,"block":9961,"Ġheterogeneity":9962,"Ġselecting":9963,"algebra":9964,"Ġbimodal":9965,"Ġnominal":9966,"dor":9967,"Ġactivities":9968,"Ġtimelike":9969,"Ġsof":9970,"Ġupward":9971,"Ġdiscussing":9972,"Ġamplified":9973,"Ġmask":9974,"Ġgains":9975,"Ġstresses":9976,"Ġballs":9977,"Ġdetuned":9978,"Ġassignment":9979,"Ġcylinders":9980,"Ġjanuary":9981,"Ġmagnetohydrodynamic":9982,"})+({":9983,"beck":9984,"Ġ001":9985,"Ġpks":9986,"Ġdas":9987,"Ġkore":9988,"Ġsimulator":9989,"Ġsoftening":9990,"Ġinternet":9991,"Ġsideband":9992,"shell":9993,"Ġberkeley":9994,"Ġresistive":9995,"Ġacceptable":9996,"Ġdelocalized":9997,"Ġindust":9998,"Ġbad":9999,"Ġweiss":10000,"uniform":10001,"Ġsuperlattice":10002,"Ġxu":10003,"Ġdeficit":10004,"Ġrefined":10005,"Ġrevised":10006,"Ġgrate":10007,"Ġsplits":10008,"Ġrecursive":10009,"Ġbrings":10010,"Ġsic":10011,"Ġfan":10012,"Ġinversely":10013,"Ġnight":10014,"Ġproves":10015,"ils":10016,"Ġalma":10017,"Ġmodifies":10018,"Ġ112":10019,"Ġki":10020,"Ġkl":10021,"Ġlips":10022,"Ġdoing":10023,"Ġrefinement":10024,"Ġphotonics":10025,"Ġfreezing":10026,"Ġgravitino":10027,"Ġhydroph":10028,"Ġconfirmation":10029,"lie":10030,"Ġgoals":10031,"Ġfabry":10032,"Ġdepleted":10033,"Ġmaintaining":10034,"Ġrecognized":10035,"Ġcapacitance":10036,"Ġlisa":10037,"Ġhg":10038,"star":10039,"adic":10040,"Ġnonrelativistic":10041,"ograms":10042,"Ġgenerations":10043,"Ġasteroid":10044,"Ġsimplicial":10045,"Ġmagnetar":10046,"Ġfronts":10047,"Ġintermitt":10048,"Ġdeconfinement":10049,"Ġshannon":10050,"Ġseptember":10051,"xx":10052,"Ġsod":10053,"Ġsine":10054,"Ġfaces":10055,"Ġmeet":10056,"Ġcogn":10057,"Ġfibre":10058,"Ġlocking":10059,"Ġmind":10060,"Ġspatio":10061,"forming":10062,"Ġisotopic":10063,"Ġlisted":10064,"Ġconsumption":10065,"Ġadaptation":10066,"Ġmetamaterials":10067,"Ġchamber":10068,"py":10069,"rist":10070,"Ġtit":10071,"Ġinev":10072,"ults":10073,"igroup":10074,"udes":10075,"aux":10076,"154":10077,"Ġresolutions":10078,"Ġpathways":10079,"Ġmagnetosphere":10080,"appro":10081,"Ġstreaming":10082,"Ġexperienced":10083,"Ġrigidity":10084,"Ġgradual":10085,"Ġaggregation":10086,"Ġirradiated":10087,"example":10088,"Ġepitaxial":10089,"Ġprecursor":10090,"nn":10091,"Ġwat":10092,"Ġsubspaces":10093,"class":10094,"Ġhosting":10095,"Ġversa":10096,"Ġattractors":10097,"Ġarchitectures":10098,"Ġeconom":10099,"Ġfaculty":10100,"Ġequilibria":10101,"uto":10102,"Ġgovern":10103,"poly":10104,"Ġtauri":10105,"Ġcoexisting":10106,"ouless":10107,"Ġcomprises":10108,"Ġligo":10109,"Ġligand":10110,"Ġbian":10111,"Ġbps":10112,"Ġmrk":10113,"aken":10114,"007":10115,"Ġpresenting":10116,"away":10117,"Ġergs":10118,"Ġcorrespondingly":10119,"Ġvisco":10120,"Ġoxid":10121,"Ġsilver":10122,"Ġobstacle":10123,"Ġplasmons":10124,"Ġsophisticated":10125,"Ġcorrobor":10126,"num":10127,"Ġthouless":10128,"remark":10129,"Ġinduction":10130,"Ġdd":10131,"Ġresist":10132,"Ġlev":10133,"Ġresulted":10134,"Ġours":10135,"Ġrecomm":10136,"Ġfacts":10137,"Ġheld":10138,"Ġabundant":10139,"Ġgluino":10140,"Ġaddressing":10141,"Ġmanifests":10142,"Ġsusceptible":10143,"Ġclumpy":10144,"Ġdisagre":10145,"Ġunderdoped":10146,"Ġwavenumber":10147,"Ġharvest":10148,"avity":10149,"lights":10150,"encing":10151,"Ġdav":10152,"Ġdla":10153,"atibility":10154,"ubo":10155,"Ġqcp":10156,"Ġrandomized":10157,"405":10158,"physreva":10159,"Ġviolate":10160,"Ġstopping":10161,"Ġimperf":10162,"Ġtemplates":10163,"Ġalkali":10164,"Ġfellow":10165,"ingly":10166,"Ġreside":10167,"Ġhcn":10168,"Ġspaced":10169,"Ġchec":10170,"Ġpolyhed":10171,"Ġoffs":10172,"Ġcrucially":10173,"Ġellipticity":10174,"Ġdoubling":10175,"Ġencounter":10176,"Ġmanagement":10177,"Ġquotient":10178,"bruary":10179,"ann":10180,"Ġmri":10181,"cht":10182,"Ġmodal":10183,"Ġnoninteracting":10184,"Ġrouting":10185,"Ġtriaxial":10186,"Ġdesigning":10187,"Ġdeviate":10188,"Ġdeviates":10189,"Ġguided":10190,"Ġtracers":10191,"meson":10192,"Ġposterior":10193,"Ġricci":10194,"Ġhemisphere":10195,"Ġcollimated":10196,"oly":10197,"sal":10198,"enger":10199,"Ġcg":10200,"Ġeaves":10201,"Ġhc":10202,"Ġfort":10203,"Ġvoids":10204,"Ġoptic":10205,"Ġenfor":10206,"Ġdecl":10207,"165":10208,"pended":10209,"Ġhyperon":10210,"Ġdepartament":10211,"Ġcompressive":10212,"ynchron":10213,"uer":10214,"Ġdh":10215,"eda":10216,"Ġbak":10217,"Ġborder":10218,"Ġnavier":10219,"urn":10220,"Ġconical":10221,"Ġdead":10222,"Ġunp":10223,"Ġvalle":10224,"Ġintegrate":10225,"Ġflowing":10226,"Ġreconc":10227,"Ġsuperfluidity":10228,"Ġpsf":10229,"Ġviolations":10230,"timated":10231,"Ġeliminated":10232,"Ġskyrmions":10233,"Ġdict":10234,"Ġnonetheless":10235,"Ġwetting":10236,").,":10237,"Ġkg":10238,"ione":10239,"Ġhighlights":10240,"Ġ101":10241,"Ġflag":10242,"ordan":10243,"Ġglauber":10244,"Ġbonn":10245,"Ġultimate":10246,"Ġkernels":10247,"Ġhbt":10248,"Ġimperfect":10249,"observ":10250,"decay":10251,"ux":10252,"Ġak":10253,"Ġsom":10254,"Ġsid":10255,"Ġced":10256,"Ġkas":10257,"Ġintercon":10258,"Ġdiode":10259,"scale":10260,"Ġfirm":10261,"Ġfebruary":10262,"logy":10263,"Ġirs":10264,"Ġpropagates":10265,"spin":10266,"Ġpartonic":10267,"thmetic":10268,"Ġshaded":10269,"Ġtractable":10270,"Ġarranged":10271,"psilon":10272,"two":10273,"Ġhm":10274,"ferm":10275,"Ġrepub":10276,"Ġwaiting":10277,"Ġemploys":10278,"},{":10279,"Ġillumination":10280,"Ġdislocations":10281,"Ġaustralia":10282,"fa":10283,"Ġfel":10284,"Ġfinger":10285,"Ġ-\\":10286,"Ġgi":10287,"1016":10288,"Ġpaid":10289,"mmetriz":10290,"Ġzeld":10291,"Ġupcoming":10292,"Ġgeneralised":10293,"tize":10294,"Ġultras":10295,"Ġeverywhere":10296,"Ġmaintained":10297,"Ġkohn":10298,"Ġsnapsh":10299,"Ġocean":10300,"Ġcw":10301,"Ġdg":10302,"Ġlte":10303,"Ġvoid":10304,"therland":10305,"Ġenzy":10306,"Ġnove":10307,"Ġimplication":10308,"Ġreviews":10309,"Ġblocking":10310,"Ġmathematically":10311,"Ġsemiconducting":10312,"Ġfuv":10313,"....":10314,"nyi":10315,"holes":10316,"kappa":10317,"Ġteller":10318,"rative":10319,"Ġraised":10320,"Ġkir":10321,"Ġradiated":10322,"ught":10323,"Ġstudents":10324,"Ġgraphite":10325,"Ġholomorphic":10326,"Ġultral":10327,"Ġmonitored":10328,"varepsilon":10329,"Ġlinking":10330,"Ġcommer":10331,"Ġrestoration":10332,"Ġrefers":10333,"Ġisovector":10334,"Ġprevents":10335,"Ġurb":10336,"Ġsure":10337,"Ġfw":10338,"Ġhat":10339,"asion":10340,"Ġzeta":10341,"param":10342,"Ġtiss":10343,"Ġguaranteed":10344,"Ġcryogenic":10345,"lay":10346,"Ġhour":10347,"Ġdiscon":10348,"Ġsuperimp":10349,"Ġpotts":10350,"Ġcharacterised":10351,"expl":10352,"Ġavailability":10353,"Ġdiffusivity":10354,"Ġlabels":10355,"Ġautomatic":10356,"Ġanticipated":10357,"Ġanharmonic":10358,"Ġrobertson":10359,"Ġcircumstances":10360,"vis":10361,"Ġcant":10362,"iton":10363,"Ġdealing":10364,"Ġsolves":10365,"Ġclustered":10366,"insky":10367,"Ġcollapsed":10368,"Ġgenes":10369,"Ġlags":10370,"Ġpione":10371,"Ġenergetics":10372,"Ġbank":10373,"Ġsubgroups":10374,"Ġcepheid":10375,"Ġarithmetic":10376,"Ġeye":10377,"Ġkramers":10378,"Ġdegradation":10379,"030":10380,"Ġmv":10381,"Ġconversely":10382,"Ġspt":10383,"ider":10384,"energy":10385,"Ġmeanwhile":10386,"Ġshaping":10387,"Ġsimplify":10388,"Ġestablishes":10389,"Ġmicrocanonical":10390,"Ġpieces":10391,"onomous":10392,"Ġspurious":10393,"apping":10394,"nard":10395,"Ġlsp":10396,"Ġstay":10397,"Ġkob":10398,"Ġrises":10399,"Ġdistinc":10400,"Ġnotic":10401,"Ġinsu":10402,"Ġsliding":10403,"Ġenhancements":10404,"Ġsaturates":10405,"Ġbohr":10406,"Ġwarped":10407,"tist":10408,"Ġcnt":10409,"Ġpier":10410,"Ġkalu":10411,"Ġacquis":10412,"Ġdia":10413,"Ġemissivity":10414,"Ġroy":10415,"Ġlipid":10416,"Ġsubaru":10417,"Ġblast":10418,"175":10419,"Ġseverely":10420,"Ġconductor":10421,"Ġpatch":10422,"Ġtextures":10423,"Ġdebate":10424,"Ġbreathing":10425,"Ġvideo":10426,"Ġnovember":10427,"fin":10428,"ml":10429,"wers":10430,"there":10431,"Ġglit":10432,"Ġalph":10433,"vert":10434,"under":10435,"Ġ210":10436,"Ġunperturb":10437,"Ġmoon":10438,"Ġcharging":10439,"Ġrayet":10440,"lectively":10441,"Ġconstrains":10442,"Ġseparates":10443,"Ġemphasized":10444,"Ġinnov":10445,"gi":10446,"prime":10447,"Ġpqcd":10448,"anol":10449,"qubit":10450,"Ġ350":10451,"Ġ\\(":10452,"Ġreflections":10453,"Ġlowering":10454,"ney":10455,"Ġvirtually":10456,"Ġiterations":10457,"Ġinsuffici":10458,"**":10459,"hel":10460,"Ġoam":10461,"enh":10462,"raw":10463,"uty":10464,"Ġdiffering":10465,"Ġenlar":10466,"Ġtruly":10467,"Ġsmoothed":10468,"Ġfamous":10469,"Ġlearn":10470,"Ġscheduling":10471,"Ġzeldovich":10472,"Ġunperturbed":10473,"^+":10474,"oke":10475,"Ġfunct":10476,"Ġ235":10477,"Ġnoting":10478,"Ġroma":10479,"lusters":10480,"Ġ1988":10481,"Ġmont":10482,"404":10483,"Ġsuspended":10484,"Ġemitter":10485,"obic":10486,"Ġcompositions":10487,"Ġreceive":10488,"sphere":10489,"Ġpyro":10490,"Ġbenefits":10491,"Ġcirculation":10492,"Ġsax":10493,"Ġdry":10494,"uss":10495,"Ġcompares":10496,"ayashi":10497,"Ġdecis":10498,"Ġcmr":10499,"Ġlinesh":10500,"601":10501,"Ġredistribution":10502,"Ġaccelerate":10503,"Ġshocked":10504,"ittance":10505,"Ġpseudospin":10506,"Ġavoids":10507,"Ġsharply":10508,"Ġhipp":10509,"Ġunfolding":10510,"Ġeconomic":10511,"Ġquery":10512,"Ġkagome":10513,"Ġhypotheses":10514,"Ġkaluza":10515,"iness":10516,"Ġlasing":10517,"Ġnonline":10518,"Ġye":10519,"205":10520,"Ġquarkonium":10521,"Ġchemically":10522,"Ġdurham":10523,"Ġmutation":10524,"Ġadjusting":10525,"Ġquiescence":10526,"Ġintermittent":10527,"Ġacquisition":10528,"tw":10529,"tier":10530,"Ġsided":10531,"Ġdor":10532,"Ġbic":10533,"Ġmori":10534,"urfaces":10535,"Ġ119":10536,"iest":10537,"Ġwilli":10538,"Ġpolyakov":10539,"Ġsemigroup":10540,"ompass":10541,"prl":10542,"Ġfuzz":10543,"Ġsubstituting":10544,"Ġsketch":10545,"Ġliouville":10546,"Ġmetrology":10547,"]$":10548,"fix":10549,"Ġwer":10550,"Ġwitten":10551,"Ġeth":10552,"icles":10553,"Ġji":10554,"004":10555,"Ġnonneg":10556,"parallel":10557,"Ġblo":10558,"Ġfewer":10559,"Ġbuoy":10560,"}}{":10561,"Ġacquires":10562,"Ġcumulants":10563,"Ġattacks":10564,"charge":10565,"Ġscintillation":10566,"Ġfemtos":10567,"Ġaugmented":10568,"Ġnonlinearities":10569,"}-":10570,"Ġpitch":10571,"Ġbj":10572,"Ġont":10573,"ria":10574,"aku":10575,"Ġmultidimensional":10576,"oster":10577,"Ġalgorithmic":10578,"801":10579,"Ġencompass":10580,"=\"^":10581,"Ġnnlo":10582,"Ġisochron":10583,"!\\":10584,"^(":10585,"oi":10586,"Ġfg":10587,"Ġporous":10588,"Ġcentury":10589,"159":10590,"Ġfoli":10591,"166":10592,"Ġrotated":10593,"Ġoriginated":10594,"Ġelemental":10595,"Ġhuang":10596,"Ġdestructive":10597,"Ġautomated":10598,"Ġrip":10599,"Ġwfpc":10600,"Ġexchanges":10601,"bel":10602,"Ġuniv":10603,"ado":10604,"Ġcoron":10605,"Ġjordan":10606,"Ġwhereby":10607,"Ġtrain":10608,"Ġsupposed":10609,"161":10610,"Ġpolydisper":10611,"Ġeigenvector":10612,"Ġinterpreting":10613,"Ġstratified":10614,"Ġresiduals":10615,"Ġaggregate":10616,"Ġmyster":10617,"Ġeruption":10618,"Ġtricritical":10619,"Ġclifford":10620,"ena":10621,"Ġft":10622,"Ġdrell":10623,"Ġreform":10624,"Ġgir":10625,"ressively":10626,"Ġ165":10627,"Ġcoin":10628,"Ġseism":10629,"Ġnoncon":10630,"Ġdeflection":10631,"Ġimager":10632,"235":10633,"Ġexternally":10634,"Ġclassifications":10635,"Ġviewing":10636,"Ġconvention":10637,"Ġsystematics":10638,"Ġprojects":10639,"Ġsupercurrent":10640,"Ġkelvin":10641,"Ġcloning":10642,"Ġnanorib":10643,"({\\":10644,"Ġpra":10645,"Ġreader":10646,"odynamics":10647,"Ġunequ":10648,"Ġcompletion":10649,"Ġpolyc":10650,"Ġdisplaced":10651,"Ġrenormalizable":10652,"Ġregularized":10653,"Ġexclusively":10654,"Ġdmft":10655,"Ġoccupy":10656,"Ġybco":10657,"Ġinvisible":10658,"institute":10659,")[":10660,"-)":10661,"Ġthori":10662,"Ġtori":10663,"iteness":10664,"Ġeh":10665,"Ġnative":10666,"Ġphil":10667,"Ġunav":10668,"Ġemerged":10669,"biotic":10670,"Ġaccompanying":10671,"Ġepisodes":10672,"Ġdisagreement":10673,"pack":10674,"qc":10675,"tible":10676,"Ġpil":10677,"Ġtt":10678,"Ġnu":10679,"astically":10680,"Ġunaff":10681,"Ġevan":10682,"Ġlocate":10683,"Ġmond":10684,"Ġmono":10685,"Ġendow":10686,"Ġpseudop":10687,"Ġcollaborations":10688,"Ġfuel":10689,"Ġlanguages":10690,"Ġpnicti":10691,"Ġspirit":10692,"Ġquarter":10693,"ivariant":10694,"Ġfa":10695,"Ġlamb":10696,"chn":10697,"Ġdeut":10698,"ectic":10699,"many":10700,"Ġqpc":10701,"Ġspecify":10702,"Ġgrey":10703,"Ġcooler":10704,"cool":10705,"Ġperformances":10706,"Ġbluesh":10707,"Ġnarrower":10708,"Ġengineered":10709,"Ġmessages":10710,",^,^,^,^":10711,"Ġleakage":10712,"Ġconcurrence":10713,"isen":10714,"Ġrevi":10715,"Ġlt":10716,"Ġresearchers":10717,"Ġgeneva":10718,"Ġhistogram":10719,"Ġjointly":10720,"Ġsuperpositions":10721,"Ġdeuterium":10722,"Ġdistillation":10723,"Ġunaffected":10724,"zil":10725,"Ġtes":10726,"Ġtum":10727,"entation":10728,"Ġhn":10729,"Ġva":10730,"geometric":10731,"Ġphr":10732,"Ġ170":10733,"Ġvertically":10734,"Ġgaugino":10735,"Ġgoods":10736,"Ġdoublets":10737,"Ġthink":10738,"Ġsolitary":10739,"Ġwriting":10740,"Ġcataly":10741,"Ġcrystallographic":10742,"Ġpixels":10743,"Ġbacteria":10744,"Ġancilla":10745,"Ġreinfor":10746,"Ġsar":10747,"Ġnut":10748,"rian":10749,"Ġcli":10750,"Ġblr":10751,"Ġinvest":10752,"Ġusefulness":10753,"cavity":10754,"Ġstripping":10755,"Ġdiverge":10756,"Ġantine":10757,"Ġaccommodate":10758,"Ġuhec":10759,"ele":10760,"kle":10761,"Ġfren":10762,"Ġpus":10763,"Ġintensive":10764,"ava":10765,"Ġtransfers":10766,"Ġilc":10767,"Ġperspec":10768,"Ġaxially":10769,"foli":10770,"Ġpes":10771,"Ġtack":10772,"Ġtables":10773,"Ġlr":10774,"Ġhoc":10775,"Ġgb":10776,"igmatic":10777,"Ġlive":10778,"Ġupgra":10779,"Ġhadronization":10780,"Ġrunaway":10781,"Ġsupplemented":10782,"Ġcrystallization":10783,"Ġcnrs":10784,"Ġrossi":10785,"Ġcompensated":10786,"Ġmandel":10787,"Ġimperfections":10788,"Ġdistinctive":10789,"Ġperspectives":10790,"fre":10791,"Ġfun":10792,"ulus":10793,"chain":10794,"Ġsuperlumin":10795,"Ġexcite":10796,"Ġtravers":10797,"Ġconvergent":10798,"Ġrosen":10799,"Ġlegend":10800,"Ġexoplanets":10801,"Ġambiguity":10802,"imov":10803,"eme":10804,"Ġlem":10805,"Ġboot":10806,"Ġ800":10807,"802":10808,"Ġcoloring":10809,"Ġdeterminants":10810,"Ġreasoning":10811,"erica":10812,"Ġbraid":10813,"Ġdiameters":10814,"Ġthermop":10815,"Ġstems":10816,"Ġwavefront":10817,"Ġrepublic":10818,"Ġfad":10819,"Ġdp":10820,"Ġquanta":10821,"Ġzr":10822,"Ġtermination":10823,"Ġdefin":10824,"loop":10825,"Ġlowered":10826,"ochemical":10827,"Ġharder":10828,"Ġtorques":10829,"Ġvalidation":10830,"Ġaddresses":10831,"Ġpromise":10832,"Ġencode":10833,"Ġreceiv":10834,"Ġlacking":10835,"Ġneighbourhood":10836,"Ġtolerant":10837,"iable":10838,"mention":10839,"yama":10840,"enty":10841,"Ġbeat":10842,"Ġchromatic":10843,"acters":10844,"ibo":10845,"Ġtrav":10846,"Ġpolarity":10847,"202":10848,"Ġgeo":10849,"Ġyielded":10850,"Ġsubsam":10851,"Ġdilution":10852,"Ġdestabil":10853,"Ġcategor":10854,"Ġrescaled":10855,"Ġconflict":10856,"Ġog":10857,"Ġinducing":10858,"Ġvhe":10859,"Ġfli":10860,"163":10861,"Ġsnow":10862,"Ġobservationally":10863,"Ġsucceed":10864,"Ġminimized":10865,"Ġtaper":10866,"Ġminority":10867,"electronic":10868,"Ġloaded":10869,"Ġbfkl":10870,"Ġborel":10871,"Ġpermanent":10872,"parametric":10873,"mentioned":10874,"bone":10875,"inar":10876,"onia":10877,"Ġhod":10878,"ola":10879,"olumin":10880,"Ġcox":10881,"Ġchic":10882,"Ġrods":10883,"Ġfrequent":10884,"Ġsilic":10885,"Ġpositrons":10886,"Ġprototypical":10887,"Ġinsufficient":10888,"drop":10889,"thms":10890,"Ġpor":10891,"Ġpca":10892,"Ġreactive":10893,"uration":10894,"Ġwhil":10895,"Ġaltered":10896,"Ġsez":10897,"Ġunim":10898,"Ġtransloc":10899,"cessing":10900,"Ġsuperh":10901,"Ġfrag":10902,"Ġmicrom":10903,"Ġcomparative":10904,"Ġpackings":10905,"aith":10906,"blad":10907,"Ġassessment":10908,"ivariate":10909,"Ġaccomplished":10910,"qmd":10911,"sa":10912,"align":10913,"Ġhl":10914,"asi":10915,"sty":10916,"Ġasser":10917,"Ġkal":10918,"Ġunable":10919,"Ġcorollary":10920,"Ġheart":10921,"Ġcorrelates":10922,"Ġattribut":10923,"185":10924,"188":10925,"Ġguess":10926,"Ġcolumns":10927,"quarks":10928,"Ġthousands":10929,"refring":10930,"Ġwhilst":10931,"bold":10932,"fw":10933,"more":10934,"multi":10935,"Ġfos":10936,"orn":10937,"ulf":10938,"Ġ155":10939,"Ġsupersonic":10940,"Ġrotate":10941,"Ġnegativity":10942,"Ġconvert":10943,"Ġworst":10944,"Ġbelief":10945,"Ġexoplanet":10946,"Ġafore":10947,"tische":10948,"Ġdn":10949,"Ġdang":10950,"Ġnord":10951,"ouse":10952,"thered":10953,"Ġnotable":10954,"forma":10955,"Ġbasically":10956,"Ġinfected":10957,"Ġwash":10958,"162":10959,"Ġunited":10960,"atern":10961,"Ġprogressively":10962,"Ġautonomous":10963,"Ġhypo":10964,"Ġversati":10965,"Ġbhs":10966,"Ġdisappearance":10967,"Ġforthcoming":10968,"Ġpolygons":10969,"Ġrescattering":10970,"Ġcedex":10971,"jan":10972,"sub":10973,"Ġaven":10974,"Ġot":10975,"Ġcube":10976,"issible":10977,"Ġwkb":10978,"Ġinas":10979,"Ġandre":10980,"Ġisolation":10981,"Ġstays":10982,"Ġdeplo":10983,"Ġnothing":10984,"Ġqi":10985,"Ġbecame":10986,"Ġexamination":10987,"Ġscatterings":10988,"Ġeduc":10989,"Ġsensitively":10990,"Ġpositivity":10991,"Ġtriangulation":10992,"Ġretarded":10993,"Ġheral":10994,"Ġincompatible":10995,"Ġbunch":10996,"Ġstroke":10997,"Ġinefficient":10998,"pot":10999,"vised":11000,"inely":11001,"Ġward":11002,"Ġcontributed":11003,"Ġcalc":11004,"Ġlock":11005,"Ġblind":11006,"Ġpositively":11007,"Ġoptimality":11008,"Ġmagnetost":11009,"Ġcatalogues":11010,"Ġmitig":11011,"Ġarrangements":11012,"Ġldos":11013,"Ġsemimetals":11014,"Ġcentroid":11015,"diff":11016,"nuclei":11017,"Ġnonnegative":11018,"Ġfemtosecond":11019,"oluminescence":11020,"Ġsac":11021,"Ġfid":11022,"Ġreheating":11023,"Ġnash":11024,"Ġcompatibility":11025,"Ġdijet":11026,"Ġelectrically":11027,"Ġexpects":11028,"Ġtransistor":11029,"Ġcharacters":11030,"Ġundoped":11031,"Ġsingly":11032,"aved":11033,"Ġradioactive":11034,"Ġcapill":11035,"Ġtreatments":11036,"Ġdivide":11037,"Ġmotors":11038,"Ġsubtracted":11039,"Ġlindblad":11040,"Ġperipheral":11041,"Ġthermopower":11042,"uchi":11043,"Ġstic":11044,"Ġslepton":11045,"Ġorac":11046,"rose":11047,"Ġrever":11048,"Ġhs":11049,"uni":11050,"Ġitem":11051,"Ġobservatories":11052,"Ġplacing":11053,"Ġgalile":11054,"Ġdepolar":11055,"string":11056,"Ġenhancing":11057,"Ġbarred":11058,"guin":11059,"Ġcuo":11060,"Ġpiezo":11061,"Ġfilamentary":11062,"yaev":11063,"Ġbanach":11064,"Ġgemini":11065,"Ġoutperforms":11066,"Ġorbifold":11067,"Ġkorea":11068,"Ġbootstra":11069,"Ġfaith":11070,"Ġwing":11071,"arcos":11072,"ully":11073,"ston":11074,"plas":11075,"Ġrp":11076,"Ġunexpl":11077,"aptic":11078,"Ġundert":11079,"rinsic":11080,"Ġcenta":11081,"Ġpartners":11082,"physics":11083,"Ġdownward":11084,"Ġzhou":11085,"Ġfiltered":11086,"Ġspanned":11087,"Ġdecompositions":11088,"Ġequipartition":11089,"Ġspike":11090,"bell":11091,"pul":11092,"pectrum":11093,"lev":11094,"Ġrelying":11095,"cha":11096,"chitz":11097,"Ġkane":11098,"ibly":11099,"164":11100,"Ġbirefring":11101,"ivalent":11102,"Ġminimally":11103,"Ġphotoion":11104,"Ġdiluted":11105,"Ġbao":11106,"Ġsegmentation":11107,"Ġsustained":11108,"Ġhabitable":11109,"Ġdepartamento":11110,"Ġpeters":11111,"Ġisomorphism":11112,"Ġcorot":11113,"Ġplayer":11114,"Ġspectrally":11115,"agon":11116,"iller":11117,"Ġtermed":11118,"Ġ1985":11119,"Ġscatterers":11120,"169":11121,"Ġconnects":11122,"coura":11123,"Ġgained":11124,"Ġbrazil":11125,"Ġmultiplicities":11126,"Ġcompactification":11127,"Ġmultimode":11128,"Ġsodium":11129,"Ġcognitive":11130,"321":11131,";#":11132,"ja":11133,"rast":11134,"Ġceles":11135,"leb":11136,"Ġwein":11137,"Ġrt":11138,"ermin":11139,"Ġencoura":11140,"Ġtheoretische":11141,"Ġgrass":11142,"idelberg":11143,"Ġboxes":11144,"Ġproposes":11145,"Ġprotostars":11146,"Ġlipschitz":11147,"Ġdisconnected":11148,"Ġaforementioned":11149,"nz":11150,"}+\\":11151,"Ġae":11152,"ito":11153,"Ġkubo":11154,"Ġry":11155,"acu":11156,"Ġsubhal":11157,"Ġamen":11158,"ensile":11159,"Ġoptimizing":11160,"Ġvalidated":11161,"irect":11162,"Ġdelocalization":11163,"Ġcontradiction":11164,"inskii":11165,"jl":11166,"qr":11167,"rain":11168,"Ġ114":11169,"aya":11170,"ager":11171,"602":11172,"Ġbaths":11173,"Ġforecas":11174,"Ġkaons":11175,"Ġpolytope":11176,"Ġtagged":11177,"Ġalexander":11178,"Ġratchet":11179,"dorff":11180,"Ġhipparcos":11181,"Ġaer":11182,"entified":11183,"Ġcad":11184,"esium":11185,"Ġreally":11186,"ride":11187,"otyp":11188,"Ġrhe":11189,"Ġsoi":11190,"Ġmatro":11191,"Ġatomistic":11192,"Ġapproached":11193,"Ġmete":11194,"Ġcontroversi":11195,"Ġcleo":11196,"Ġsensitivities":11197,"Ġtransmitter":11198,"Ġsuggestive":11199,"Ġorientable":11200,"Ġguiding":11201,"Ġmisalign":11202,"Ġdiverging":11203,"Ġreplic":11204,"Ġlearned":11205,"Ġhighlighted":11206,"Ġopportunities":11207,"Ġspacings":11208,"nl":11209,"tik":11210,"Ġnaz":11211,"chair":11212,"Ġparsec":11213,"Ġnept":11214,"Ġintended":11215,"aged":11216,"uminous":11217,"Ġintegr":11218,"Ġdiscretized":11219,"Ġrotationally":11220,"Ġmicrocavity":11221,"Ġretro":11222,"Ġquantifying":11223,"Ġenclosed":11224,"efined":11225,")+":11226,"imation":11227,"Ġaa":11228,"Ġhung":11229,"Ġdeals":11230,"Ġunphysical":11231,"rug":11232,"Ġmultiwavelength":11233,"Ġschematically":11234,"167":11235,"Ġidentically":11236,"Ġmixings":11237,"spect":11238,"ateral":11239,"Ġmultiplication":11240,"Ġintervening":11241,"Ġglueball":11242,"Ġhausdorff":11243,"Ġvalleys":11244,"Ġpseudopotential":11245,"dam":11246,"junction":11247,"mhz":11248,"Ġpend":11249,"Ġdun":11250,"Ġdell":11251,"arc":11252,"Ġng":11253,"Ġstere":11254,"Ġincrement":11255,"Ġmeter":11256,"Ġkinematically":11257,"Ġmultiplet":11258,"Ġmerit":11259,"Ġendpoint":11260,"Ġberlin":11261,"Ġcombinator":11262,"Ġrecovers":11263,"Ġfascin":11264,"Ġfracture":11265,"Ġarmchair":11266,"Ġkhler":11267,"kr":11268,"pted":11269,"Ġsis":11270,"Ġinject":11271,"Ġegre":11272,"Ġpreference":11273,"Ġross":11274,"Ġnov":11275,"Ġlimb":11276,"ians":11277,"theore":11278,"Ġ1986":11279,"Ġprofound":11280,"Ġimpacts":11281,"Ġwindows":11282,"Ġramsey":11283,"Ġlennard":11284,"Ġstanford":11285,"Ġsuperimposed":11286,"Ġegret":11287,"note":11288,"Ġfq":11289,"Ġwen":11290,"Ġwds":11291,"Ġnh":11292,"chl":11293,"Ġinteratomic":11294,"Ġrock":11295,"Ġfluor":11296,"Ġheidelberg":11297,"Ġbinomial":11298,"303":11299,"Ġmodulo":11300,"Ġconjectures":11301,"Ġbilinear":11302,"Ġcartesian":11303,"Ġvolatility":11304,"Ġfifth":11305,"^#":11306,"oo":11307,"Ġinac":11308,"Ġdlas":11309,"analy":11310,"icz":11311,"Ġhint":11312,"250":11313,"Ġredshifted":11314,"Ġnanof":11315,"Ġbroadly":11316,"Ġsuggestion":11317,"Ġillustrative":11318,"Ġrepetition":11319,"Ġrecursion":11320,"Ġmaximization":11321,"Ġcumulant":11322,"Ġattained":11323,"Ġspacelike":11324,"Ġastrometry":11325,"Ġgrids":11326,"rance":11327,"Ġcontex":11328,"Ġcentri":11329,"Ġtelec":11330,"Ġcaustic":11331,"Ġvlba":11332,"Ġlaunched":11333,"Ġhypersurface":11334,"Ġcontexts":11335,"}^{\\":11336,"icle":11337,"Ġhong":11338,"Ġgel":11339,"Ġ135":11340,"Ġsex":11341,"Ġradiatively":11342,"Ġdefault":11343,"203":11344,"Ġfolded":11345,"Ġseeing":11346,"264":11347,"linations":11348,"Ġreceivers":11349,"Ġputative":11350,"Ġmissions":11351,"Ġmanganites":11352,"bow":11353,"Ġtrop":11354,"Ġmller":11355,"sev":11356,"Ġcalab":11357,"Ġadatom":11358,"Ġupstream":11359,"Ġbecs":11360,"Ġinstall":11361,"Ġberg":11362,"Ġiterated":11363,"Ġjamming":11364,"Ġskewness":11365,"Ġfringes":11366,"Ġrearrang":11367,"widetilde":11368,"Ġperovskite":11369,")}\\":11370,"uing":11371,"wood":11372,"ony":11373,"Ġwra":11374,"Ġhump":11375,"ulates":11376,"etz":11377,"Ġalbed":11378,"Ġ1984":11379,"Ġoscillates":11380,"503":11381,"Ġbroadcast":11382,"Ġdiscoveries":11383,"Ġsuggestions":11384,"Ġsusceptibilities":11385,"Ġtraditionally":11386,"Ġprogramme":11387,"Ġflattening":11388,"Ġhistorical":11389,"Ġbianchi":11390,"Ġwerner":11391,"Ġthread":11392,"Ġinward":11393,"Ġqud":11394,"ysis":11395,"Ġ230":11396,"plex":11397,"teen":11398,"Ġextrinsic":11399,"Ġlatent":11400,"209":11401,"Ġmechanically":11402,"Ġbiom":11403,"195":11404,"Ġeigenmodes":11405,"Ġmerely":11406,"Ġalternate":11407,"Ġcollapses":11408,"mates":11409,"Ġpinned":11410,"Ġmanipulate":11411,"Ġcommuting":11412,"Ġevidences":11413,"Ġharvesting":11414,"Ġhypothe":11415,"jp":11416,"lers":11417,"otion":11418,"tem":11419,"Ġsnia":11420,"Ġfc":11421,"Ġisoscalar":11422,"Ġcomet":11423,"Ġ127":11424,"Ġchrist":11425,"Ġperimeter":11426,"Ġgalact":11427,"ameter":11428,"Ġsubband":11429,"Ġmetrop":11430,"Ġcmes":11431,"Ġmerid":11432,"Ġexcluding":11433,"Ġsunyaev":11434,"Ġexpands":11435,"Ġshifting":11436,"Ġcoronagraph":11437,"late":11438,"ogn":11439,"ink":11440,"reads":11441,"Ġwings":11442,"rog":11443,"Ġmus":11444,"Ġnac":11445,"Ġanch":11446,"Ġdele":11447,"Ġ122":11448,"Ġlocus":11449,"Ġ700":11450,"Ġformulations":11451,"Ġinstituto":11452,"Ġpayoff":11453,"Ġdislocation":11454,"Ġtransversal":11455,"Ġdeploy":11456,"Ġcelestial":11457,",-":11458,"/\\":11459,"gm":11460,"top":11461,"uous":11462,"zh":11463,"Ġao":11464,"Ġaware":11465,"Ġnps":11466,"Ġbepp":11467,"Ġopto":11468,"Ġyellow":11469,"2010":11470,"Ġuniverses":11471,"Ġtrivi":11472,"Ġtiling":11473,"Ġremainder":11474,"Ġfavour":11475,"Ġmultipoles":11476,"Ġelusive":11477,"Ġlbgs":11478,"Ġpuzzling":11479,"emporal":11480,"Ġcryptography":11481,"Ġfascinating":11482,"Ġsle":11483,"Ġpati":11484,"Ġ.\\":11485,"Ġtensile":11486,"Ġtok":11487,"omy":11488,"Ġken":11489,"Ġkam":11490,"ande":11491,"Ġchargino":11492,"Ġ1980":11493,"168":11494,"Ġcloak":11495,"Ġmemories":11496,"Ġcrs":11497,"Ġdrain":11498,"Ġlogarithmically":11499,"Ġbigger":11500,"Ġbudget":11501,"Ġfulfilled":11502,"Ġleptogenesis":11503,"solid":11504,"Ġsparsity":11505,"Ġpermeability":11506,"ben":11507,"fts":11508,"gd":11509,"xico":11510,"|\\":11511,"Ġlay":11512,"odi":11513,"options":11514,"Ġpage":11515,"Ġpaired":11516,"Ġprocessed":11517,"Ġcosmologies":11518,"Ġbackbone":11519,"Ġamongst":11520,"Ġanalogues":11521,"afe":11522,"Ġcircumnuclear":11523,"Ġlabelled":11524,"Ġmultifractal":11525,"300":11526,"nell":11527,"pq":11528,"zn":11529,"}+":11530,"Ġdens":11531,"Ġven":11532,"Ġvar":11533,"weight":11534,"Ġcorrug":11535,"Ġpov":11536,"ynamically":11537,"cyc":11538,"rick":11539,"Ġsinglets":11540,"190":11541,"header":11542,"Ġname":11543,"dened":11544,"component":11545,"Ġpdfs":11546,"Ġparametr":11547,"Ġlooks":11548,"Ġscaledwidth":11549,"Ġsommer":11550,"Ġhypothetical":11551,"=-":11552,"gener":11553,"thal":11554,"Ġciv":11555,"Ġwl":11556,"Ġbt":11557,"Ġbss":11558,"Ġlose":11559,"ticular":11560,"olo":11561,"ampl":11562,"Ġmodifying":11563,"Ġquatern":11564,"Ġrain":11565,"Ġkms":11566,"Ġcontempor":11567,"ughlin":11568,"Ġqw":11569,"}}$":11570,"Ġdistinguishable":11571,"Ġcancer":11572,"Ġintermitten":11573,"Ġnasa":11574,"Ġalphab":11575,"Ġsezione":11576,"),":11577,"journals":11578,"tium":11579,"Ġmen":11580,"Ġlap":11581,"Ġcompos":11582,"ionic":11583,"arius":11584,"Ġphysic":11585,"Ġenorm":11586,"Ġsuperb":11587,"Ġpowder":11588,"Ġsink":11589,"172":11590,"Ġspatiot":11591,"Ġnanomechanical":11592,"Ġcris":11593,"Ġestimations":11594,"Ġminimizes":11595,"Ġmultiplied":11596,"Ġphenomenologically":11597,"Ġnik":11598,"Ġmaximizing":11599,"Ġsubdwarf":11600,"Ġultraluminous":11601,":#":11602,"aa":11603,"db":11604,"here":11605,"iop":11606,"Ġnai":11607,"Ġgan":11608,"Ġcontours":11609,"Ġroche":11610,"upled":11611,"allis":11612,"ropolar":11613,"Ġbandgap":11614,"2012":11615,"Ġflatter":11616,"exchange":11617,"Ġhardly":11618,"Ġcatastro":11619,"Ġtruecm":11620,"Ġidealized":11621,"Ġtransforming":11622,"Ġfruit":11623,"ophot":11624,"Ġexperiences":11625,"Ġdonors":11626,"Ġacknowledg":11627,"Ġimmune":11628,"Ġdeficient":11629,"&=&":11630,"lov":11631,"mps":11632,"onormal":11633,"titial":11634,"Ġsak":11635,"Ġcpt":11636,"oting":11637,"Ġaltit":11638,"Ġrim":11639,"Ġtwenty":11640,"istine":11641,"Ġrectification":11642,"173":11643,"Ġcouncil":11644,"Ġapproximating":11645,"Ġrestored":11646,"Ġexplosive":11647,"Ġrho":11648,"Ġpristine":11649,"Ġdemanding":11650,"Ġpyth":11651,"Ġfootnote":11652,"Ġretrieved":11653,"Ġsupergiants":11654,"Ġappreciable":11655,"Ġkpz":11656,"Ġfuzzy":11657,"Ġcapillary":11658,"Ġoracle":11659,"Ġintermittency":11660,"-_":11661,"_(":11662,"bc":11663,"fly":11664,"Ġud":11665,"Ġkui":11666,"Ġlever":11667,"Ġjack":11668,"Ġnonuniform":11669,"Ġphotoluminescence":11670,"Ġwaveforms":11671,"Ġwavepack":11672,"Ġmetas":11673,"pson":11674,"Ġsmectic":11675,"Ġdenoting":11676,"Ġswitches":11677,"Ġpoissonian":11678,"Ġmembership":11679,"Ġstretch":11680,"Ġconstructive":11681,"Ġundetected":11682,"Ġpolicy":11683,"Ġoxidation":11684,"Ġevanescent":11685,"Ġsuperluminal":11686,"Ġthings":11687,"Ġdan":11688,"Ġtook":11689,"empty":11690,"Ġseas":11691,"Ġgalex":11692,"Ġcharmed":11693,"Ġcolloids":11694,"Ġwaveform":11695,"Ġoperates":11696,"Ġnegatively":11697,"Ġgraviton":11698,"Ġswapping":11699,"Ġrenew":11700,"Ġslowing":11701,"Ġconductors":11702,"Ġgaia":11703,"Ġlhcb":11704,"Ġvisualization":11705,"Ġtsallis":11706,"Ġstoichi":11707,"Ġinterstitial":11708,"pdf":11709,"Ġsubmillimetre":11710,"Ġniel":11711,"style":11712,"Ġbeij":11713,"Ġali":11714,"Ġconfusion":11715,"Ġinvoking":11716,"Ġrotor":11717,"Ġ900":11718,"Ġslice":11719,"Ġpulsating":11720,"Ġbluer":11721,"Ġsymbiotic":11722,"Ġbonnet":11723,"Ġspans":11724,"Ġpartitioning":11725,"Ġmorse":11726,"Ġaggregates":11727,"Ġnanoparticle":11728,"Ġunidentified":11729,"Ġpolycrystalline":11730,"Ġphrases":11731,"ystem":11732,"isc":11733,"Ġ240":11734,"Ġnoises":11735,"key":11736,"iba":11737,"Ġqss":11738,"Ġpolarons":11739,"Ġhomogeneity":11740,"Ġzhu":11741,"Ġplateaus":11742,"Ġeuro":11743,"Ġcomptonization":11744,"Ġtriggering":11745,"Ġdavid":11746,"Ġchromosphere":11747,"Ġdissoci":11748,"Ġevidenced":11749,"Ġheterostructure":11750,"Ġbootstrap":11751,"core":11752,"cup":11753,"oz":11754,"Ġfuse":11755,"anal":11756,"Ġhess":11757,"amn":11758,"osov":11759,"deev":11760,"Ġnonmagnetic":11761,"Ġphysica":11762,"Ġyou":11763,"Ġdescent":11764,"Ġconditioned":11765,"Ġscatterer":11766,"Ġunco":11767,"Ġreproduction":11768,"Ġseemingly":11769,"Ġmnchen":11770,"Ġdisplaying":11771,"Ġdigraph":11772,"Ġdrastic":11773,"Ġattachment":11774,"Ġjohn":11775,"Ġrescaling":11776,"mg":11777,"Ġsach":11778,"Ġcrac":11779,"Ġwrong":11780,"Ġbend":11781,"used":11782,"Ġimprin":11783,"Ġdenomin":11784,"803":11785,"Ġfuller":11786,"Ġmagnetars":11787,"Ġstripped":11788,"Ġpercentage":11789,"Ġinspection":11790,"Ġzeno":11791,"Ġchicago":11792,"dh":11793,"Ġwis":11794,"Ġtuc":11795,"Ġspectropolar":11796,"Ġ01":11797,"Ġsupercool":11798,"jecture":11799,"Ġcentrally":11800,"204":11801,"Ġoscillate":11802,"174":11803,"Ġrobin":11804,"Ġsupercritical":11805,"Ġcompensation":11806,"Ġtranslocation":11807,"Ġamenable":11808,"Ġach":11809,"Ġcot":11810,"Ġdq":11811,"ington":11812,"Ġmcc":11813,"Ġmbl":11814,"Ġnick":11815,"Ġrk":11816,"Ġnotes":11817,"iven":11818,"Ġopened":11819,"Ġmarkets":11820,"ship":11821,"Ġanalogs":11822,"Ġquenches":11823,"Ġdiscontinuities":11824,"Ġmessenger":11825,"Ġconvinc":11826,"__@":11827,"Ġnoticed":11828,"bra":11829,"jk":11830,"rep":11831,"aten":11832,"Ġcole":11833,"Ġsco":11834,"dex":11835,"add":11836,"Ġdiscusses":11837,"Ġlongest":11838,"Ġredder":11839,"Ġhypergeometric":11840,"Ġnmssm":11841,"Ġtriggers":11842,"Ġarchive":11843,"bhs":11844,"Ġkeeps":11845,"Ġacademic":11846,"Ġradical":11847,"Ġremoves":11848,"Ġhelioseism":11849,"Ġcascades":11850,"Ġprivate":11851,"namefont":11852,"varphi":11853,"Ġsuzaku":11854,"Ġcommercial":11855,"Ġgalactocentric":11856,"*-":11857,"binary":11858,"cq":11859,"fb":11860,"myr":11861,"wig":11862,"Ġsav":11863,"Ġlift":11864,"Ġcomets":11865,"Ġkron":11866,"Ġfile":11867,"Ġcontents":11868,"Ġjud":11869,"Ġmoore":11870,"Ġelectromagnetically":11871,"1063":11872,"Ġadds":11873,"conjecture":11874,"2011":11875,"Ġtis":11876,"226":11877,"branes":11878,"Ġeccentr":11879,"Ġtolerance":11880,"Ġnesting":11881,"Ġreconcile":11882,"Ġeccentricities":11883,"500":11884,"gru":11885,"inner":11886,"Ġcab":11887,"Ġton":11888,"Ġhints":11889,"oment":11890,"Ġwee":11891,"Ġregulation":11892,"Ġadhes":11893,"Ġconcord":11894,"Ġbrook":11895,"Ġextraord":11896,"rystals":11897,"Ġtransported":11898,"Ġstrains":11899,"Ġtrust":11900,"Ġvirus":11901,"Ġplaying":11902,"Ġbraking":11903,"Ġsfrs":11904,"planetary":11905,"Ġdividing":11906,"Ġobscuration":11907,"Ġjames":11908,"Ġtentative":11909,"Ġsuperradiant":11910,"given":11911,"Ġfly":11912,"Ġraises":11913,"Ġusage":11914,"Ġsymmetriz":11915,"Ġperot":11916,"Ġnonparametric":11917,"Ġequivariant":11918,"Ġsublattices":11919,"Ġdependency":11920,"Ġinfection":11921,"305":11922,"Ġaster":11923,"Ġdownstream":11924,"Ġsimplifies":11925,"Ġorthonormal":11926,"Ġadmissible":11927,"Ġmgb":11928,"Ġcompensate":11929,"Ġprotostar":11930,"Ġshallower":11931,"Ġdichot":11932,"Ġplanetesimals":11933,"Ġchirp":11934,"Ġthorique":11935,"Ġunavoid":11936,"Ġtravelling":11937,"dom":11938,"Ġsme":11939,"Ġskin":11940,"Ġcq":11941,"Ġcity":11942,"Ġpam":11943,"isations":11944,"Ġmp":11945,"Ġgol":11946,"Ġconce":11947,"Ġexchanged":11948,"ota":11949,"utter":11950,"Ġdisf":11951,"undefined":11952,"Ġcoplanar":11953,"Ġdips":11954,"roproduction":11955,"Ġanomalously":11956,"Ġsheared":11957,"Ġstabilizing":11958,"Ġpdr":11959,"Ġcnot":11960,"Ġsupercell":11961,"Ġcommutation":11962,"Ġhermite":11963,"Ġjacob":11964,"Ġlatitudes":11965,"Ġpublicly":11966,"Ġdisturbance":11967,"Ġrenders":11968,"Ġqueue":11969,"Ġogle":11970,"Ġmisalignment":11971,"chlore":11972,"ael":11973,"Ġastr":11974,"Ġpev":11975,"Ġws":11976,"arxiv":11977,"Ġtower":11978,"Ġisolate":11979,"abund":11980,"Ġlex":11981,"Ġactively":11982,"Ġperse":11983,"Ġprecondition":11984,"Ġ\\{":11985,"Ġsmearing":11986,"pread":11987,"Ġshortly":11988,"Ġsquid":11989,"Ġideally":11990,"Ġeleg":11991,"Ġsubstructures":11992,"Ġclosing":11993,"Ġexcesses":11994,"Ġlaminar":11995,"tisation":11996,"Ġlepto":11997,"Ġinherently":11998,"Ġysos":11999,"Ġmoveto":12000,"mno":12001,"ois":12002,"station":12003,"Ġresort":12004,"Ġkoster":12005,"Ġtransits":12006,"Ġfluence":12007,"Ġspecially":12008,"181":12009,"Ġidentifies":12010,"}\\\\":12011,"Ġmotional":12012,"Ġtriangulations":12013,"Ġjeans":12014,"Ġlenticular":12015,"Ġibid":12016,"Ġascribed":12017,"Ġspintronics":12018,"Ġfaddeev":12019,"Ġeducation":12020,"050":12021,"zw":12022,"Ġ000":12023,"Ġcec":12024,"Ġcrack":12025,"Ġfat":12026,"espread":12027,"Ġmock":12028,"ental":12029,"Ġsham":12030,"Ġkill":12031,"Ġkaw":12032,"Ġoptions":12033,"ucial":12034,"hire":12035,"Ġwidespread":12036,"Ġframeworks":12037,"Ġmarks":12038,"Ġconvenience":12039,"Ġaiming":12040,"Ġoverlaps":12041,"Ġulirgs":12042,"Ġimplicitly":12043,"Ġbabar":12044,"Ġdetached":12045,"Ġlmxbs":12046,"Ġkuiper":12047,"cati":12048,"uki":12049,"timates":12050,"Ġpose":12051,"Ġdend":12052,"Ġtully":12053,"Ġgt":12054,"chemical":12055,"Ġcoars":12056,"Ġkan":12057,"Ġ245":12058,"Ġunve":12059,"ructions":12060,"Ġspectator":12061,"Ġdecide":12062,"Ġzo":12063,"Ġtio":12064,"Ġrichards":12065,"Ġcontroller":12066,"Ġtailored":12067,"Ġresidue":12068,"Ġsurvives":12069,"Ġquadrupolar":12070,"Ġuncondition":12071,"Ġldpc":12072,"Ġoffsets":12073,"dv":12074,"nb":12075,"rw":12076,"Ġavi":12077,"ange":12078,"roll":12079,"Ġlane":12080,"Ġcompelling":12081,"ensure":12082,"Ġsystemic":12083,"Ġgraded":12084,"Ġsupersolid":12085,"Ġimposes":12086,"2013":12087,"Ġseek":12088,"urability":12089,"oka":12090,"Ġmicroc":12091,"when":12092,"operator":12093,"local":12094,"Ġbrun":12095,"versibility":12096,"Ġrussian":12097,"Ġinterpolating":12098,"Ġimmun":12099,"Ġdisentang":12100,"Ġsagitt":12101,"Ġpyrochlore":12102,"Ġlineshape":12103,"Ġbeijing":12104,"vd":12105,"Ġpac":12106,"Ġterica":12107,"organ":12108,"Ġmater":12109,"user":12110,"cho":12111,"Ġobj":12112,"Ġjar":12113,"Ġoutstanding":12114,"Ġpull":12115,"Ġsizeable":12116,"171":12117,"Ġdesorption":12118,"Ġdrawing":12119,"Ġtargeted":12120,"Ġpoloidal":12121,"Ġzhao":12122,"Ġpenguin":12123,"Ġtidally":12124,"Ġtranslates":12125,"Ġnitride":12126,"Ġscintillator":12127,"Ġnaked":12128,"Ġmildly":12129,"Ġspatiotemporal":12130,"ensuremath":12131,"adiab":12132,"year":12133,"})\\":12134,"Ġrix":12135,"Ġsel":12136,"Ġtls":12137,"Ġvital":12138,"Ġshg":12139,"Ġscr":12140,"Ġaccident":12141,"icially":12142,"Ġanalysing":12143,"207":12144,"Ġkek":12145,"Ġhypergraph":12146,"Ġstragg":12147,"Ġnecessity":12148,"Ġfrw":12149,"Ġinstrumentation":12150,"Ġchromodynamics":12151,"Ġneuronal":12152,"''@":12153,"Ġoverdamped":12154,"-(":12155,"gray":12156,"Ġpw":12157,"Ġdisrupted":12158,"Ġrnyi":12159,"Ġjin":12160,"Ġwherein":12161,"Ġtemp":12162,"Ġyba":12163,"Ġmultiscale":12164,"onald":12165,"Ġcompactness":12166,"Ġalternatives":12167,"dense":12168,"Ġcolumb":12169,"Ġscreen":12170,"Ġsemantics":12171,"Ġmonodrom":12172,"Ġfiducial":12173,"_+":12174,"kar":12175,"mbox":12176,"oon":12177,"|^":12178,"Ġpain":12179,"Ġ..":12180,"Ġwars":12181,"Ġbax":12182,"Ġnos":12183,"Ġhof":12184,"quist":12185,"Ġvap":12186,"emer":12187,"Ġcompass":12188,"Ġkw":12189,"Ġacid":12190,"Ġranking":12191,"Ġ1982":12192,"Ġinsets":12193,"Ġelectroly":12194,"obar":12195,"Ġdurations":12196,"Ġfailed":12197,"Ġconformally":12198,"Ġelimination":12199,"Ġdaily":12200,"Ġlsb":12201,"Ġsquarks":12202,"Ġunidirectional":12203,"Ġcygnus":12204,"310":12205,"nan":12206,"oe":12207,"yan":12208,"Ġcsi":12209,"asov":12210,"ulator":12211,"Ġmary":12212,"Ġnetherland":12213,"izability":12214,"Ġzener":12215,"ubbles":12216,"Ġinvestigates":12217,"strm":12218,"linewidth":12219,"Ġpositional":12220,"ospheres":12221,"Ġhardy":12222,"Ġtrimer":12223,"inio":12224,"Ġexploits":12225,"Ġtrigon":12226,"Ġsynchronous":12227,"Ġmanifested":12228,"Ġinsertion":12229,"Ġbatse":12230,"Ġxxz":12231,"Ġunequal":12232,"Ġnetherlands":12233,"Ġthesis":12234,"erkin":12235,"anium":12236,"Ġnil":12237,"asp":12238,"structure":12239,"Ġalto":12240,"Ġphyl":12241,"Ġshi":12242,"Ġcoil":12243,"Ġchu":12244,"Ġobserves":12245,"006":12246,"Ġradion":12247,"Ġzw":12248,"1126":12249,"fty":12250,"Ġmining":12251,"values":12252,"Ġpathway":12253,"Ġspeaking":12254,"Ġultrarelativistic":12255,"Ġgennes":12256,"Ġstatements":12257,"Ġannual":12258,"Ġperiastron":12259,"Ġpenta":12260,"Ġimpulsive":12261,"Ġsubleading":12262,"Ġeavesdrop":12263,"Ġjiang":12264,"Ġtropical":12265,"Ġsagittarius":12266,"jo":12267,"Ġcoded":12268,"Ġpassi":12269,"Ġdal":12270,"Ġbg":12271,"Ġlsc":12272,"Ġ175":12273,"Ġquart":12274,"Ġgalerkin":12275,"script":12276,"Ġnewpath":12277,"Ġupt":12278,"Ġsetgray":12279,"Ġsetlinewidth":12280,"Ġmultiply":12281,"Ġteam":12282,"rightarrow":12283,"otropic":12284,"Ġpartner":12285,"Ġclosepath":12286,"Ġhadama":12287,"Ġlasinio":12288,"litz":12289,"Ġmultiplets":12290,"Ġdiagrammatic":12291,"Ġhotter":12292,"Ġcapacities":12293,"Ġpsfig":12294,"Ġbottlen":12295,"Ġintuition":12296,"Ġfeder":12297,"Ġtissue":12298,"Ġcontroversial":12299,"Ġrixs":12300,"posi":12301,"Ġwedge":12302,"Ġtam":12303,"Ġrecept":12304,"odec":12305,"Ġcoated":12306,"Ġchsh":12307,"Ġaber":12308,"Ġsubclass":12309,"Ġmethanol":12310,"1212":12311,"Ġoversh":12312,"Ġhealth":12313,"3601":12314,"245":12315,"Ġlasting":12316,"Ġsynaptic":12317,"Ġbosonization":12318,"Ġalgebraically":12319,"Ġpurs":12320,"Ġbondi":12321,"eldysh":12322,"Ġladders":12323,"Ġintersecting":12324,"Ġpolytopes":12325,"Ġappealing":12326,"Ġthoroughly":12327,"Ġbuckling":12328,"ogna":12329,"address":12330,"adiabatic":12331,"infty":12332,"Ġpde":12333,"Ġsta":12334,"Ġforn":12335,"Ġconduc":12336,"Ġvill":12337,"Ġkeldysh":12338,"aga":12339,"scaling":12340,"Ġqm":12341,"Ġworksh":12342,"Ġjetp":12343,"Ġinequivalent":12344,"Ġorganisms":12345,"Ġsuppressing":12346,"Ġconjugation":12347,"Ġcomprised":12348,"Ġneighbouring":12349,"Ġpolytropic":12350,"Ġilluminated":12351,"Ġdisturbances":12352,"Ġconformations":12353,"algebras":12354,"Ġallevi":12355,"Ġkyoto":12356,"Ġseismic":12357,"Ġelegant":12358,"Ġbaxter":12359,"Ġhadamard":12360,"Ġworkshop":12361,"turing":12362,"reaction":12363,"oms":12364,"imoto":12365,"igan":12366,"Ġspdc":12367,"Ġmethane":12368,"rink":12369,"Ġesr":12370,"Ġmultiphoton":12371,"Ġstratification":12372,"Ġsimplification":12373,"Ġneutralinos":12374,"Ġsmoothness":12375,"Ġbologna":12376,"Ġextrapol":12377,"Ġescap":12378,"Ġdeconv":12379,"Ġwormholes":12380,"Ġbbn":12381,"Ġfflo":12382,"Ġcontrasts":12383,"boson":12384,"Ġaluminum":12385,"Ġmoriya":12386,"had":12387,"hep":12388,"mk":12389,"Ġoiii":12390,"enna":12391,"Ġtera":12392,"Ġnern":12393,"Ġgf":12394,"Ġshim":12395,"ructured":12396,"Ġexpensive":12397,"Ġplanning":12398,"ubble":12399,"Ġ195":12400,"Ġrespects":12401,"Ġconcave":12402,"Ġinvoked":12403,"Ġgrants":12404,"805":12405,"Ġisotropy":12406,"Ġtriplets":12407,"Ġrhomb":12408,"Ġgoverns":12409,"Ġclarified":12410,"Ġstrikingly":12411,"Ġsketched":12412,"Ġmultiplexing":12413,"Ġhydrophobic":12414,"Ġbjork":12415,"Ġendowed":12416,"Ġconcordance":12417,"Ġnernst":12418,"Ġcach":12419,"Ġpod":12420,"Ġek":12421,"rad":12422,"oss":12423,"utely":12424,"Ġchim":12425,"Ġsimon":12426,"Ġjona":12427,"1088":12428,"Ġschech":12429,"Ġthermon":12430,"Ġintegrand":12431,"179":12432,"Ġbreit":12433,"cdonald":12434,"Ġbeaming":12435,"Ġdenser":12436,"Ġharris":12437,"Ġbuffer":12438,"Ġresonantly":12439,"Ġphotoexc":12440,"Ġherbig":12441,"groupe":12442,"Ġadjustable":12443,"oulos":12444,"Ġgraduate":12445,"Ġribbons":12446,"Ġjeff":12447,"Ġsuffers":12448,"Ġshrink":12449,"observations":12450,"Ġversatile":12451,"Ġthermonuclear":12452,"020":12453,"\\,":12454,"bw":12455,"fc":12456,"enes":12457,"Ġbk":12458,"Ġmz":12459,"Ġanimal":12460,"Ġmech":12461,"Ġquoted":12462,"Ġcoating":12463,"Ġcorners":12464,"Ġix":12465,"Ġmotif":12466,"Ġsov":12467,"Ġ1983":12468,"nik":12469,"symmetry":12470,"Ġdissipated":12471,"Ġremarks":12472,"Ġgolden":12473,"Ġsupercluster":12474,"holm":12475,"Ġinfalling":12476,"Ġergodicity":12477,"Ġsuspensions":12478,"Ġoblique":12479,"Ġartifacts":12480,"Ġelaborate":12481,"Ġrecommend":12482,"frequen":12483,"Ġeavesdropper":12484,"invari":12485,"ische":12486,"Ġdyn":12487,"Ġbafe":12488,"Ġneck":12489,"Ġcantile":12490,"opoly":12491,"Ġpertain":12492,"Ġfoam":12493,"msamn":12494,"ails":12495,"Ġworked":12496,"Ġvela":12497,"Ġ850":12498,"Ġtrem":12499,"Ġpacked":12500,"Ġicos":12501,"Ġviolent":12502,"groupmsamn":12503,"Ġautomaton":12504,"Ġnoticeable":12505,"ĠĠĠĠĠĠĠĠĠĠĠĠĠĠĠĠ":12506,"Ġdiamonds":12507,"Ġmosa":12508,"Ġelongation":12509,"Ġepidem":12510,"Ġqueries":12511,"Ġrewrite":12512,"Ġimpulse":12513,"Ġgrassmann":12514,"Ġalbedo":12515,"bound":12516,"hov":12517,"wal":12518,"erc":12519,"enza":12520,"Ġpunct":12521,"Ġee":12522,"Ġmct":12523,"Ġmun":12524,"Ġnights":12525,"Ġasynchron":12526,"osax":12527,"Ġ128":12528,"Ġ336":12529,"Ġinfrast":12530,"Ġmanu":12531,"Ġpolarimetric":12532,"Ġcomputable":12533,"Ġcosmos":12534,"Ġquasic":12535,"Ġoccasion":12536,"Ġuma":12537,"184":12538,"iao":12539,"Ġlorenz":12540,"product":12541,"Ġanswers":12542,"Ġvoron":12543,"Ġvlasov":12544,"Ġcomprise":12545,"Ġplatforms":12546,"Ġsubtracting":12547,"Ġprolate":12548,"Ġaltaddress":12549,"Ġfruitful":12550,"yclic":12551,"Ġsend":12552,"Ġcav":12553,"Ġfate":12554,"Ġeft":12555,"Ġeik":12556,"Ġphi":12557,"Ġ126":12558,"Ġprefactor":12559,"Ġ040":12560,"Ġ207":12561,"Ġhollow":12562,"Ġhypernuclei":12563,"Ġmappings":12564,"Ġsuperpotential":12565,"Ġeliminating":12566,"Ġintuitively":12567,"Ġinserted":12568,"Ġdifferentiation":12569,"Ġshielding":12570,"Ġantineutrino":12571,"iently":12572,"rash":12573,"Ġcze":12574,"Ġnice":12575,"Ġgx":12576,"Ġgun":12577,"olor":12578,"Ġexhaus":12579,"uda":12580,"Ġsymmetrical":12581,"Ġherein":12582,"Ġspeckle":12583,"Ġcmd":12584,"Ġcapturing":12585,"Ġhydrocar":12586,"Ġelev":12587,"Ġstrips":12588,"Ġcalibrate":12589,"Ġreconstructing":12590,"Ġneuron":12591,"Ġepisode":12592,"Ġamplifiers":12593,"Ġmadrid":12594,"Ġoccul":12595,"alcogenides":12596,"Ġphylogen":12597,"Ġschechter":12598,"bary":12599,"tle":12600,"wich":12601,"Ġama":12602,"Ġson":12603,"enon":12604,"Ġcvs":12605,"Ġtn":12606,"Ġlambda":12607,"Ġncs":12608,"states":12609,"Ġshen":12610,"Ġ137":12611,"Ġcomprom":12612,"Ġunw":12613,"Ġintric":12614,"Ġregister":12615,"Ġxte":12616,"Ġprocessor":12617,"Ġtrading":12618,"Ġmonomial":12619,"Ġcosine":12620,"309":12621,"176":12622,"Ġaxions":12623,"pcnt":12624,"Ġstis":12625,"Ġsaturn":12626,"Ġsaturate":12627,"Ġcpu":12628,"Ġlaboratoire":12629,"truein":12630,"Ġdisturbed":12631,"Ġellipsoidal":12632,"approx":12633,"Ġbuoyancy":12634,"Ġmeteor":12635,"Ġbepposax":12636,"Ġweeks":12637,"Ġicosahed":12638,"340":12639,"bx":12640,"ptive":12641,"Ġcro":12642,"Ġfuk":12643,"eton":12644,"stad":12645,"Ġbeads":12646,"Ġbearing":12647,"otti":12648,"Ġclarity":12649,"Ġrecording":12650,"Ġfactory":12651,"Ġmultiblock":12652,"ductance":12653,"Ġstir":12654,"Ġflatness":12655,"Ġhove":12656,"Ġlogarithms":12657,"Ġthicknesses":12658,"Ġmanipulating":12659,"Ġassessed":12660,"Ġvev":12661,"Ġnoiseless":12662,"Ġgpu":12663,"Ġlecture":12664,"Ġurban":12665,"Ġcoxeter":12666,"Ġweinberg":12667,"Ġrainbow":12668,"Ġenormous":12669,"Ġnielsen":12670,"Ġkosterlitz":12671,"Ġfornax":12672,"Ġbjorken":12673,")_":12674,"==":12675,"alosh":12676,"Ġdzy":12677,"anti":12678,"quas":12679,"Ġonboard":12680,"idity":12681,"Ġors":12682,"Ġsuperlattices":12683,"Ġxenon":12684,"ximal":12685,"Ġintegrations":12686,"Ġgrs":12687,"Ġprecip":12688,"Ġthermodynamically":12689,"Ġepic":12690,"Ġconveniently":12691,"Ġcontrollability":12692,"Ġdmr":12693,"Ġresides":12694,"Ġpossessing":12695,"Ġadsorb":12696,"Ġrooted":12697,"Ġindirectly":12698,"nett":12699,"Ġechelle":12700,"Ġtradeoff":12701,"Ġcontradict":12702,"Ġnicmos":12703,"Ġdressel":12704,"/(":12705,"rics":12706,"edy":12707,"Ġrejection":12708,"Ġlists":12709,"Ġgj":12710,"Ġstressed":12711,"rap":12712,"Ġorange":12713,"izers":12714,"Ġkv":12715,"Ġsubdi":12716,"504":12717,"tizations":12718,"Ġreddened":12719,"Ġtorino":12720,"Ġlaes":12721,"Ġessence":12722,"Ġrestricting":12723,"Ġsuperfluids":12724,"Ġhertz":12725,"Ġabsolutely":12726,"chenko":12727,"Ġannealed":12728,"Ġprivacy":12729,"Ġdisentangle":12730,"Ġgrateful":12731,"Ġviscoelastic":12732,"Ġourselves":12733,"Ġchecking":12734,"fermion":12735,"Ġwilliams":12736,"025":12737,"hu":12738,"lf":12739,"tation":12740,"Ġcow":12741,"Ġpit":12742,"Ġwood":12743,"Ġlub":12744,"Ġhco":12745,"ulum":12746,"Ġwimps":12747,"ifer":12748,"results":12749,"Ġ116":12750,"Ġ158":12751,"Ġsurger":12752,"Ġsubmm":12753,"Ġproblematic":12754,"177":12755,"178":12756,"603":12757,"okande":12758,"Ġantiferromagnets":12759,"Ġdemands":12760,"Ġresummed":12761,"amiokande":12762,"html":12763,"Ġefimov":12764,"Ġbistable":12765,"Ġdiminish":12766,"Ġwestern":12767,"Ġpreceding":12768,"Ġnanoribbons":12769,"irected":12770,"Ġsommerfeld":12771,"Ġdzyalosh":12772,"dal":12773,"mings":12774,"rase":12775,"riger":12776,"zr":12777,"Ġaw":12778,"Ġsake":12779,"ora":12780,"itably":12781,"Ġstore":12782,"Ġcongru":12783,"Ġmeyer":12784,"Ġ225":12785,"Ġjay":12786,"alling":12787,"Ġzeroth":12788,"Ġbio":12789,"Ġslater":12790,"Ġdevised":12791,"Ġpatterned":12792,"Ġorthogonality":12793,"Ġbilayers":12794,"Ġeulerian":12795,"Ġtranscription":12796,"Ġclues":12797,"Ġsofter":12798,"Ġphysicists":12799,"Ġasteroseism":12800,"Ġmonodromy":12801,"Ġeikonal":12802,")]":12803,"nstein":12804,"Ġpiv":12805,"Ġeur":12806,"start":12807,"Ġ134":12808,"Ġras":12809,"Ġmagnons":12810,"Ġequator":12811,"lli":12812,"Ġnews":12813,"Ġfoundations":12814,"187":12815,"Ġlaughlin":12816,"Ġsituated":12817,"awaii":12818,"Ġcnts":12819,"Ġinserting":12820,"Ġdiseases":12821,"Ġdeconfined":12822,"orbital":12823,"2000":12824,"dd":12825,"mix":12826,"Ġaur":12827,"erg":12828,"Ġswar":12829,"Ġhp":12830,"Ġ144":12831,"Ġcompete":12832,"Ġinterparticle":12833,"acci":12834,"Ġdecoder":12835,"Ġrecords":12836,"parameter":12837,"Ġqh":12838,"Ġschur":12839,"Ġstandards":12840,"Ġparty":12841,"Ġphenix":12842,"Ġcommission":12843,"electrics":12844,"chester":12845,"Ġutilizes":12846,"ogenous":12847,"Ġcamer":12848,"Ġdatabases":12849,"simil":12850,"Ġoutperform":12851,"fugal":12852,"Ġpipeline":12853,"Ġjustify":12854,"Ġunexplored":12855,"-.":12856,"510":12857,"orld":12858,"Ġgated":12859,"stable":12860,"Ġsuite":12861,"Ġshares":12862,"Ġlip":12863,"Ġlocalised":12864,"208":12865,"Ġrotates":12866,"Ġsubstellar":12867,"Ġpostulate":12868,"Ġvibron":12869,"Ġoffered":12870,"Ġadvantageous":12871,"Ġparadigmatic":12872,"Ġnumerics":12873,"Ġintersections":12874,"Ġembeddings":12875,"Ġadequately":12876,"Ġobstacles":12877,"]-[":12878,"Ġmounted":12879,"Ġacknowledgements":12880,"(#":12881,"iser":12882,"Ġlud":12883,"Ġspar":12884,"Ġ157":12885,"Ġoblate":12886,"beration":12887,"Ġspinors":12888,"Ġzol":12889,"Ġfiring":12890,"Ġundirected":12891,"Ġoverton":12892,"Ġrefriger":12893,"magnet":12894,"Ġhelix":12895,"Ġrenormalisation":12896,"Ġlifted":12897,"Ġfailures":12898,"Ġsuddenly":12899,"Ġslabs":12900,"Ġtagging":12901,"Ġoverdensity":12902,"Ġbistability":12903,"Ġregulatory":12904,"Ġfunctor":12905,"Ġtrigonometric":12906,"Ġvoronoi":12907,"js":12908,"layers":12909,"tious":12910,"Ġfes":12911,"Ġhawaii":12912,"ensen":12913,"Ġintru":12914,"Ġregulated":12915,"Ġarn":12916,"Ġzb":12917,"Ġcentres":12918,"Ġcomparatively":12919,"307":12920,"193":12921,"Ġricher":12922,"Ġcutting":12923,"Ġfastest":12924,"Ġtemporally":12925,"omar":12926,"Ġcircumbinary":12927,"Ġacknowledgments":12928,"Ġpenalty":12929,"Ġuhecr":12930,"diffusion":12931,"Ġhungary":12932,"Ġsupercooled":12933,"Ġterahertz":12934,"ias":12935,"khar":12936,"rc":12937,"sl":12938,"Ġ~":12939,"Ġsir":12940,"Ġfsr":12941,"Ġln":12942,"Ġlic":12943,"ffman":12944,"Ġlevit":12945,"endlink":12946,"Ġmoved":12947,"ynting":12948,"Ġradiating":12949,"omechan":12950,"Ġxr":12951,"Ġifnum":12952,"Ġknee":12953,"Ġpolarimetry":12954,"Ġquasiclassical":12955,"Ġfactories":12956,"182":12957,"Ġsemil":12958,"Ġlawrence":12959,"sport":12960,"Ġideals":12961,"Ġillustrating":12962,"erican":12963,"Ġencodes":12964,"Ġbonded":12965,"Ġscans":12966,"Ġparametrizations":12967,"Ġresembling":12968,"anitize":12969,"bibempty":12970,"Ġsandwich":12971,"Ġdichro":12972,"Ġabruptly":12973,"Ġthompson":12974,"Ġcalcium":12975,"Ġneptune":12976,"Ġnickel":12977,"innerbibempty":12978,"Ġczech":12979,"startlink":12980,"figur":12981,"nov":12982,"zel":12983,"Ġcay":12984,"Ġdam":12985,"Ġmur":12986,"Ġmfs":12987,"Ġmips":12988,"Ġluc":12989,"Ġnfw":12990,"Ġhon":12991,"Ġhull":12992,"Ġgga":12993,"Ġprov":12994,"Ġ145":12995,"weg":12996,"ruo":12997,"Ġpoynting":12998,"ardt":12999,"Ġamino":13000,"Ġ450":13001,"Ġbranched":13002,"Ġoffice":13003,"Ġsubjects":13004,"Ġturnover":13005,"Ġinstantons":13006,"Ġspectrophot":13007,"Ġmonolayers":13008,"Ġancillary":13009,"Ġwashington":13010,"Ġundertaken":13011,"Ġalphabet":13012,"Ġperseus":13013,"Ġovershoot":13014,"Ġdresselhaus":13015,"how":13016,"Ġses":13017,"Ġinvoke":13018,"ields":13019,"Ġdispersed":13020,"Ġultrahigh":13021,"Ġrichness":13022,"dade":13023,"proble":13024,"Ġquantifies":13025,"Ġsubstituted":13026,"strained":13027,"Ġconformational":13028,"Ġartificially":13029,"Ġflattened":13030,"romechanical":13031,"Ġpilot":13032,"Ġcombinatorics":13033,"):":13034,"={":13035,"bro":13036,"pic":13037,"pop":13038,"Ġov":13039,"Ġcation":13040,"odic":13041,"Ġ136":13042,"Ġcohen":13043,"ellations":13044,"Ġopa":13045,"Ġ010":13046,"Ġsigned":13047,"Ġamerican":13048,"Ġbackreaction":13049,"Ġtigh":13050,"Ġvacua":13051,"Ġnarrowing":13052,"Ġearliest":13053,"Ġengineer":13054,"Ġtilings":13055,"Ġignore":13056,"Ġhighlighting":13057,"Ġclocks":13058,"Ġrevisited":13059,"Ġrolling":13060,"Ġbridges":13061,"Ġlightcurve":13062,"Ġrkky":13063,"Ġcantilever":13064,"draw":13065,"hm":13066,"wos":13067,"west":13068,"edral":13069,"Ġreissner":13070,"Ġhw":13071,"Ġvdw":13072,"Ġintell":13073,"soft":13074,"Ġrows":13075,"1211":13076,"Ġqpt":13077,"Ġmedical":13078,"Ġultrash":13079,"liers":13080,"Ġstrained":13081,"Ġrecovering":13082,"Ġkinks":13083,"Ġmira":13084,"Ġobeying":13085,"Ġswept":13086,"Ġlives":13087,"Ġstrands":13088,"fra":13089,"ira":13090,"onomic":13091,"Ġou":13092,"max":13093,"Ġdew":13094,"Ġ123":13095,"Ġspinon":13096,"Ġ045":13097,"Ġzag":13098,"Ġminute":13099,"183":13100,"Ġantiparallel":13101,"Ġaccelerators":13102,"Ġrapidities":13103,"Ġoppen":13104,"Ġpostse":13105,"Ġpersonal":13106,"inese":13107,"Ġfrank":13108,"oulli":13109,"Ġdrawback":13110,"Ġreciproc":13111,"Ġbernoulli":13112,"Ġtrying":13113,"Ġlaunch":13114,";\\;\\":13115,"Ġlightcurves":13116,"Ġfragile":13117,"Ġmeridional":13118,"Ġdenominator":13119,"Ġrichardson":13120,"cap":13121,"hoff":13122,"nphys":13123,"tens":13124,"}.\\":13125,"Ġfric":13126,"Ġfras":13127,"Ġbent":13128,"Ġstations":13129,"Ġconform":13130,"Ġscar":13131,"Ġunrelated":13132,"Ġjahn":13133,"Ġ016":13134,"Ġgrover":13135,"Ġsubbands":13136,"Ġmultiband":13137,"Ġconcurrent":13138,"Ġrevolution":13139,"Ġbiochemical":13140,"Ġdriver":13141,"arching":13142,"Ġsemide":13143,"Ġlossy":13144,"Ġdominantly":13145,"Ġchandrase":13146,"oftwos":13147,"Ġdiction":13148,"Ġmarkedly":13149,"Ġclockwise":13150,"Ġbeneficial":13151,"''''@":13152,"Ġrender":13153,"Ġsecrecy":13154,"Ġphotodet":13155,"Ġbilliards":13156,"Ġinspiral":13157,"secondoftwos":13158,"Ġpnictides":13159,"Ġintellig":13160,"secondoftwosanitize":13161,"cel":13162,"Ġsper":13163,"Ġlg":13164,"idium":13165,"Ġ139":13166,"ocusing":13167,"ermined":13168,"ario":13169,"009":13170,"Ġposes":13171,"505":13172,"Ġdetectability":13173,"Ġtunability":13174,"Ġhyperc":13175,"Ġphononic":13176,"Ġautomorphism":13177,"Ġreplication":13178,"Ġchecker":13179,"Ġoctup":13180,"adequ":13181,"hara":13182,"Ġtaurus":13183,"Ġmagnetoelectric":13184,"Ġbringing":13185,"Ġquadratures":13186,"Ġnicely":13187,"Ġigr":13188,"Ġpierre":13189,"Ġphilos":13190,"Ġwarsaw":13191,"iors":13192,"rig":13193,"Ġpv":13194,"Ġpms":13195,"Ġinadequ":13196,"Ġty":13197,"Ġbomb":13198,"asse":13199,"lygin":13200,"Ġope":13201,"Ġcalls":13202,"Ġsubprocess":13203,"Ġoutliers":13204,"Ġamster":13205,"parity":13206,"Ġ205":13207,"orientation":13208,"Ġrotators":13209,"Ġhandling":13210,"Ġcoordinated":13211,"ahl":13212,"Ġcircumvent":13213,"Ġ606":13214,"Ġgratings":13215,"Ġplaquettes":13216,"Ġparallaxes":13217,"Ġtrivially":13218,"Ġinfrastructure":13219,"Ġcayley":13220,"Ġamsterdam":13221,"kp":13222,"kms":13223,"kins":13224,"moto":13225,"Ġaq":13226,"Ġsulf":13227,"Ġcis":13228,"Ġeck":13229,"elve":13230,"stack":13231,"Ġwiener":13232,"Ġsund":13233,"Ġcompress":13234,"lude":13235,"Ġselectivity":13236,"Ġiib":13237,"Ġsuperexchange":13238,"Ġdiffusing":13239,"mond":13240,"Ġedm":13241,"Ġsmgs":13242,"Ġbranew":13243,"Ġneighbours":13244,"Ġlandauer":13245,"Ġgetting":13246,"Ġcalibrations":13247,"Ġstraightforwardly":13248,"Ġlinewidths":13249,"Ġbillion":13250,"Ġpricing":13251,"Ġwfc":13252,"Ġphotodiss":13253,"Ġcompactified":13254,"Ġinevitably":13255,"Ġdictated":13256,"Ġcentrifugal":13257,"Ġorsay":13258,"220":13259,"`#":13260,"bole":13261,"beg":13262,"xundefined":13263,"Ġrid":13264,"Ġome":13265,"Ġtern":13266,"Ġgod":13267,"ratically":13268,"ifxundefined":13269,"Ġrd":13270,"Ġscuba":13271,"ferro":13272,"arian":13273,"este":13274,"Ġfunctionality":13275,"Ġbutter":13276,"192":13277,"Ġionisation":13278,"Ġferri":13279,"Ġstabilizer":13280,"Ġmsd":13281,"Ġdoubled":13282,"Ġexpressing":13283,"Ġuniversidade":13284,"Ġbacterial":13285,"Ġrewritten":13286,"Ġbispectrum":13287,"Ġcompiled":13288,"Ġrubidium":13289,"Ġavenue":13290,"Ġdisfav":13291,"Ġzoller":13292,"Ġchandrasekhar":13293,"worth":13294,"isin":13295,"Ġtou":13296,"oless":13297,"imeters":13298,"Ġrw":13299,"Ġrud":13300,"ello":13301,"adays":13302,"connected":13303,"Ġnewman":13304,"Ġ4000":13305,"Ġsymmetrically":13306,"Ġcomputes":13307,"Ġlikewise":13308,"Ġderivations":13309,"Ġtripartite":13310,"Ġidentifications":13311,"Ġnanote":13312,"Ġtransportation":13313,"ginos":13314,"Ġreconsider":13315,"Ġlifting":13316,"Ġadmix":13317,"Ġattracting":13318,"Ġmimics":13319,"Ġportfoli":13320,"Ġlithography":13321,"Ġparisi":13322,"Ġchaplygin":13323,"resonant":13324,"Ġdecisions":13325,"Ġbirefringence":13326,"040":13327,"zk":13328,"}-\\":13329,"ret":13330,"Ġbm":13331,"Ġlun":13332,"Ġluk":13333,"utron":13334,"Ġalf":13335,"iden":13336,"Ġkit":13337,"Ġtwelve":13338,"ruh":13339,"008":13340,"Ġregener":13341,"Ġtrailing":13342,"Ġteich":13343,"exten":13344,"Ġrandall":13345,"Ġslot":13346,"Ġhyperbol":13347,"Ġmagnetoc":13348,"Ġactin":13349,"whel":13350,"Ġanalyticity":13351,"Ġoutermost":13352,"Ġinterfering":13353,"Ġstreet":13354,"Ġpursu":13355,"kinson":13356,"Ġfavoured":13357,"Ġupdating":13358,"Ġtranslate":13359,"factors":13360,"ectives":13361,"Ġconstitutive":13362,"Ġadjacency":13363,"Ġcusps":13364,"imate":13365,"Ġfacilitates":13366,"within":13367,"Ġreplacement":13368,"Ġcodimension":13369,"Ġexerted":13370,"Ġbrackets":13371,"Ġfwm":13372,"Ġblobs":13373,"Ġheralded":13374,"Ġpiezoelectric":13375,"rh":13376,"Ġsapp":13377,"Ġplu":13378,"Ġinactive":13379,"Ġtrough":13380,"Ġturing":13381,"Ġ@=":13382,"itary":13383,"itory":13384,"Ġisoc":13385,"Ġweather":13386,"Ġchinese":13387,"Ġ3000":13388,"Ġ1981":13389,"Ġentangling":13390,"Ġgrounds":13391,"Ġeastern":13392,"Ġhosted":13393,"Ġpurification":13394,"Ġpenumb":13395,"Ġvirtue":13396,"Ġstacks":13397,"Ġtranslated":13398,"Ġunfold":13399,"Ġurqmd":13400,"oxide":13401,"Ġterminated":13402,"Ġwarping":13403,"diffu":13404,"Ġmagnetohydrodynamics":13405,"Ġhinder":13406,"Ġtetrahedral":13407,"Ġcustom":13408,"Ġexecution":13409,"Ġindustrial":13410,"potent":13411,"Ġmetropolis":13412,"hadron":13413,"invariant":13414,"Ġasynchronous":13415,"Ġsemidefinite":13416,")^{":13417,"bin":13418,"hib":13419,"ryp":13420,"Ġtu":13421,"Ġtar":13422,"Ġbed":13423,"Ġlund":13424,"Ġhaz":13425,"Ġchord":13426,"Ġkre":13427,"Ġkor":13428,"Ġinterests":13429,"Ġrl":13430,"Ġpool":13431,"ogel":13432,"Ġscalability":13433,"conver":13434,"Ġasset":13435,"Ġoutsk":13436,"theory":13437,"Ġcharacterise":13438,"Ġflor":13439,"Ġpriors":13440,"Ġhyperons":13441,"Ġferr":13442,"Ġpseudor":13443,"endip":13444,"Ġcomplemented":13445,"Ġretained":13446,"Ġcygni":13447,"Ġphylogenetic":13448,"Ġintricate":13449,"Ġultrashort":13450,"Ġoutskir":13451,"aas":13452,"Ġcmm":13453,"Ġfn":13454,"Ġformat":13455,"Ġbead":13456,"ripts":13457,"phen":13458,"Ġplum":13459,"Ġ022":13460,"Ġseebeck":13461,"Ġserendip":13462,"Ġeleven":13463,"Ġrelaxes":13464,"Ġellipse":13465,"ecker":13466,"Ġdecouple":13467,"Ġdecompose":13468,"Ġsurroundings":13469,"Ġreading":13470,"grade":13471,"Ġlabeling":13472,"Ġprospect":13473,"degener":13474,"Ġproportionality":13475,"Ġunderestimated":13476,"Ġcontrasted":13477,"isperse":13478,"Ġuncoupled":13479,"Ġaltogether":13480,"Ġchimera":13481,"mor":13482,"yi":13483,"Ġpap":13484,"Ġdome":13485,"Ġbari":13486,"Ġisobar":13487,"Ġ124":13488,"Ġrao":13489,"Ġleo":13490,"Ġleaf":13491,"Ġgraining":13492,"Ġ033":13493,"Ġfeat":13494,"Ġxi":13495,"Ġfred":13496,"Ġcollimation":13497,"Ġ190":13498,"Ġquasin":13499,"Ġgreedy":13500,"Ġnanometer":13501,"Ġquasiperiodic":13502,"Ġcommute":13503,"Ġlastly":13504,"Ġpoll":13505,"Ġpassed":13506,"Ġtransitive":13507,"Ġmotivate":13508,"burgh":13509,"Ġprinceton":13510,"Ġhaas":13511,"Ġswimming":13512,"Ġoctahedra":13513,"Ġkobayashi":13514,"Ġglitch":13515,"otypes":13516,"Ġcoarsening":13517,"Ġmanufact":13518,"^*":13519,"case":13520,"gb":13521,"rn":13522,"onder":13523,"Ġssc":13524,"Ġpep":13525,
[...]
